<unk>	0
<s>	0
</s>	0
<PAD>	0
<UNK>	0
<BOS>	0
<EOS>	0
<MASK>	0
▁$	-2.18411
▁	-3.51038
▁#	-3.5596
.	-3.91139
▁URL	-3.96174
_	-4.15151
T	-4.21795
A	-4.21795
USER	-4.21799
s	-4.31483
,	-4.47677
▁the	-4.48843
▁to	-4.51283
:	-4.80937
▁and	-4.96038
▁a	-4.96862
▁?	-5.01772
▁for	-5.10337
▁in	-5.13096
▁of	-5.21892
!	-5.24384
▁is	-5.2648
▁on	-5.39217
▁i	-5.44545
t	-5.46432
▁-	-5.52474
'	-5.55087
;	-5.5622
▁this	-5.58101
▁you	-5.61682
?	-5.63714
’	-5.75617
▁it	-5.78997
▁with	-5.80182
amp	-5.80769
trx	-5.82895
▁&	-5.86449
m	-5.95963
-	-5.96656
▁at	-5.99078
btc	-6.04148
▁be	-6.07057
▁will	-6.10607
▁we	-6.11166
tsla	-6.13854
)	-6.15902
▁your	-6.18162
▁my	-6.19498
f	-6.27775
c	-6.2817
▁are	-6.28404
d	-6.28858
▁up	-6.32023
▁(	-6.32231
▁that	-6.3394
aapl	-6.39848
/	-6.45007
k	-6.48289
▁by	-6.49042
eth	-6.49066
▁1	-6.51717
▁me	-6.51828
▁✅	-6.52513
ing	-6.52846
▁now	-6.53689
▁get	-6.54018
▁all	-6.55492
▁have	-6.57795
amzn	-6.58194
▁can	-6.59756
x	-6.60369
▁like	-6.61539
▁or	-6.63441
▁??	-6.63756
crypto	-6.63954
▁from	-6.64367
▁more	-6.66453
re	-6.70135
▁as	-6.70705
▁out	-6.7108
$	-6.72476
▁new	-6.72485
▁follow	-6.72728
ed	-6.72892
▁if	-6.76637
spy	-6.76886
▁3	-6.77654
▁here	-6.79971
▁no	-6.8139
v	-6.82237
▁|	-6.83781
▁has	-6.84372
...	-6.85019
▁today	-6.85307
fb	-6.86942
▁2	-6.87404
b	-6.89576
ba	-6.90058
▁our	-6.91903
▁not	-6.93122
xrp	-6.93543
▁so	-6.93915
tron	-6.94012
▁just	-6.95923
a	-6.96465
msft	-6.98758
▁but	-7.01685
▁5	-7.03023
▁retweet	-7.03941
i	-7.05837
▁10	-7.06133
▁one	-7.08341
dgb	-7.0907
stocks	-7.093
p	-7.09516
▁what	-7.099
3	-7.10465
▁good	-7.10986
e	-7.11235
▁rt	-7.11555
▁buy	-7.11813
h	-7.12323
dis	-7.13117
2	-7.13746
▁us	-7.13754
▁do	-7.14591
▁join	-7.15154
ltc	-7.15278
▁stock	-7.15342
▁market	-7.15821
▁price	-7.16143
nflx	-7.17785
▁they	-7.17845
▁some	-7.18465
▁+	-7.18531
▁about	-7.18569
▁time	-7.19108
▁win	-7.19591
▁away	-7.20514
es	-7.21096
1	-7.22517
▁week	-7.23058
▁day	-7.23572
▁free	-7.23784
▁see	-7.23938
▁an	-7.25602
bnb	-7.2686
▁was	-7.2982
▁giving	-7.31016
▁100	-7.31545
▁"	-7.31572
g	-7.32272
▁trading	-7.32894
googl	-7.33187
ada	-7.33302
spx	-7.33575
bitcoin	-7.34561
▁people	-7.35049
y	-7.35344
n	-7.36823
▁help	-7.37486
▁tag	-7.37959
eos	-7.38762
qqq	-7.3909
ge	-7.39518
cashtag	-7.4005
link	-7.40319
▁how	-7.40562
▁who	-7.41853
▁cash	-7.42416
▁4	-7.42541
▁over	-7.42591
gt	-7.43346
r	-7.43477
▁money	-7.43783
th	-7.44333
giveaway	-7.4444
▁could	-7.45019
!!	-7.46125
4	-7.46739
▁its	-7.47803
▁top	-7.47855
▁inc	-7.47983
▁next	-7.48263
▁mon	-7.49283
▁friends	-7.49517
▁only	-7.50832
neo	-7.51706
▁last	-7.52078
▁where	-7.52298
▁when	-7.52498
▁airdrop	-7.52611
jpm	-7.53151
"	-7.53401
vet	-7.53918
▁down	-7.54166
▁rules	-7.54207
er	-7.54207
▁cashapp	-7.55133
bac	-7.56134
xlm	-7.56466
doge	-7.5791
▁please	-7.58047
▁???	-7.58051
▁don	-7.58613
▁crypto	-7.58759
▁go	-7.5876
ly	-7.58791
▁into	-7.58799
▁short	-7.58888
▁trade	-7.58982
▁going	-7.59244
▁been	-7.59524
▁earnings	-7.60167
▁giveaway	-7.60225
▁would	-7.60476
▁make	-7.60542
follow	-7.6056
▁luck	-7.60629
▁long	-7.60843
▁need	-7.61069
▁their	-7.6113
blockchain	-7.62041
matic	-7.62855
dash	-7.62918
▁app	-7.62948
▁first	-7.63259
bat	-7.63507
trading	-7.6437
twtr	-7.65262
▁after	-7.65673
cryptocurrency	-7.66964
▁news	-7.67386
o	-7.68306
baba	-7.69011
▁enter	-7.70505
ll	-7.70792
▁big	-7.70977
amd	-7.7105
▁there	-7.71198
▁days	-7.72192
▁must	-7.72434
btt	-7.73321
▁know	-7.73427
l	-7.74356
w	-7.74484
▁“	-7.74654
nvda	-7.75173
gs	-7.75281
▁tesla	-7.75844
▁back	-7.77815
▁stocks	-7.79207
tslaq	-7.79417
goog	-7.79713
▁share	-7.80105
&	-7.80307
▁great	-7.80696
▁below	-7.80823
ve	-7.81089
▁want	-7.81353
st	-7.81489
▁still	-7.81543
▁500	-7.82114
▁million	-7.82565
ma	-7.82657
vix	-7.82768
▁year	-7.82863
▁other	-7.83222
▁give	-7.83318
▁right	-7.8347
usdt	-7.83643
▁each	-7.84127
”	-7.84294
▁than	-7.84778
▁:	-7.86092
▁winners	-7.86814
▁even	-7.87009
▁he	-7.87664
▁post	-7.87709
the	-7.8777
+	-7.87942
▁coming	-7.87953
▁also	-7.87975
in	-7.88635
▁most	-7.89054
wmt	-7.89204
▁use	-7.89477
▁any	-7.90076
▁shares	-7.90361
▁volume	-7.90621
▁these	-7.9124
0	-7.91255
▁check	-7.9149
▁company	-7.91578
▁let	-7.91742
▁off	-7.91853
20	-7.92056
5	-7.93114
▁support	-7.93133
dia	-7.94874
u	-7.97193
▁receive	-7.97534
!!!	-7.97908
etc	-7.98352
▁void	-7.984
??	-7.98546
bch	-7.98675
investing	-7.98914
stockmarket	-7.98916
▁best	-7.99123
▁tweet	-7.99313
▁chance	-7.99409
▁bitcoin	-8.00138
▁u	-8.00208
▁1000	-8.00526
news	-8.00866
▁qualify	-8.01089
to	-8.01141
▁7	-8.01169
▁hours	-8.01401
ko	-8.0166
▁before	-8.02006
▁2020	-8.02027
z	-8.02612
▁may	-8.0293
▁daily	-8.03254
8	-8.03311
intc	-8.03603
▁take	-8.04856
▁group	-8.05079
▁why	-8.05257
rvn	-8.05642
like	-8.05808
▁send	-8.05866
▁everyone	-8.05924
▁high	-8.0598
▁2019	-8.06153
▁earn	-8.06588
▁6	-8.07891
▁very	-8.07939
gld	-8.07981
q	-8.0814
▁should	-8.08188
19	-8.08412
▁community	-8.08715
▁comment	-8.09191
▁which	-8.09229
▁...	-8.10021
▁exchange	-8.10142
▁look	-8.10332
▁q	-8.10841
▁20	-8.11463
daytrading	-8.12067
▁got	-8.12185
nasdaq	-8.12632
mcd	-8.12996
airdrop	-8.13013
▁winner	-8.13109
▁world	-8.13451
gold	-8.13486
▁another	-8.13742
▁btc	-8.13971
mo	-8.14843
▁much	-8.15036
iwm	-8.15072
▁via	-8.15073
▁his	-8.15228
▁wallet	-8.15445
acb	-8.15466
▁open	-8.15799
▁interest	-8.15817
▁watch	-8.159
jnj	-8.15951
money	-8.16396
cl	-8.16401
▁think	-8.16533
▁am	-8.16604
9	-8.16633
▁video	-8.16662
▁co	-8.17421
al	-8.17836
▁sell	-8.18022
6	-8.18079
7	-8.18382
xom	-8.18902
▁update	-8.19047
▁since	-8.19109
roku	-8.19182
▁2.	-8.19344
URL	-8.19744
▁way	-8.20031
▁1.	-8.20187
▁live	-8.20995
wfc	-8.21207
▁love	-8.21258
▁soon	-8.21548
▁50	-8.21592
cashappfriday	-8.22031
▁per	-8.2207
▁24	-8.22599
cat	-8.22697
▁8	-8.22729
▁following	-8.22972
cgc	-8.23494
▁chart	-8.23758
▁token	-8.24401
rt	-8.251
xmr	-8.25148
▁link	-8.25526
▁many	-8.25628
▁sign	-8.25736
▁target	-8.26126
stock	-8.26768
▁again	-8.2711
tomo	-8.27134
▁alert	-8.27477
▁them	-8.27525
▁too	-8.27629
▁call	-8.27724
tlry	-8.27845
▁looking	-8.27854
▁every	-8.2796
▁pay	-8.2801
(	-8.28709
▁work	-8.28727
market	-8.29656
▁low	-8.29709
▁start	-8.2976
▁profit	-8.3009
▁ceo	-8.30223
tesla	-8.30651
▁well	-8.30932
▁b	-8.31104
ibm	-8.31361
▁her	-8.31722
▁200	-8.32301
▁*	-8.33
▁report	-8.33116
▁then	-8.33181
▁w	-8.33406
▁come	-8.33529
▁close	-8.34098
ta	-8.34146
▁thank	-8.34355
▁/	-8.34518
enj	-8.3487
▁binance	-8.35312
ren	-8.35537
▁3.	-8.35663
tzc	-8.35846
am	-8.35855
▁month	-8.36092
▁holding	-8.36367
▁telegram	-8.36679
▁someone	-8.36889
day	-8.37074
▁project	-8.37573
on	-8.3761
▁real	-8.37944
▁30	-8.38037
▁value	-8.38215
daps	-8.39051
▁really	-8.39055
10	-8.39098
ca	-8.39213
▁move	-8.39357
▁=	-8.39373
▁huge	-8.39475
crm	-8.39759
ms	-8.40376
▁ready	-8.41059
tag	-8.41115
xvg	-8.41334
▁above	-8.41565
️	-8.41691
zec	-8.41782
▁while	-8.419
dcgd	-8.43308
win	-8.4368
▁average	-8.44238
▁•	-8.44451
tlt	-8.44455
xtz	-8.44478
▁lucky	-8.4449
▁because	-8.44721
▁twitter	-8.44945
cron	-8.45122
▁made	-8.45262
▁did	-8.45278
▁getting	-8.45398
▁keep	-8.45452
▁investment	-8.45837
bynd	-8.45882
mu	-8.4599
snap	-8.46034
▁12	-8.46397
vz	-8.4657
▁purchase	-8.46745
▁tokens	-8.46821
digibyte	-8.46851
ttcm	-8.47068
▁view	-8.47425
pfe	-8.47862
▁coin	-8.4793
it	-8.47994
ers	-8.48079
▁users	-8.48284
▁financial	-8.4829
omg	-8.48534
cmg	-8.48616
▁full	-8.48839
▁two	-8.48865
▁read	-8.48921
one	-8.49038
cost	-8.49114
▁c	-8.49407
us	-8.49704
cro	-8.49756
▁being	-8.49777
▁better	-8.49939
▁had	-8.50375
vya	-8.50719
ch	-8.50903
▁buying	-8.51138
▁run	-8.51313
▁team	-8.51589
▁play	-8.51842
ont	-8.51851
binance	-8.51891
▁billion	-8.5203
▁blockchain	-8.52046
▁hit	-8.52236
▁@	-8.52365
▁tomorrow	-8.52645
hd	-8.53598
mrk	-8.5365
▁few	-8.53806
gdx	-8.53877
pm	-8.5398
dal	-8.53985
tgt	-8.54292
go	-8.54322
▁re	-8.54379
▁friday	-8.5457
j	-8.54596
▁venmo	-8.5488
shop	-8.55177
▁china	-8.5538
icx	-8.55951
▁dm	-8.55986
▁current	-8.56509
retweet	-8.56556
▁thanks	-8.56824
▁worth	-8.57264
▁nice	-8.57509
▁strong	-8.57854
▁years	-8.58032
nyse	-8.58083
or	-8.58632
▁15	-8.58675
*	-8.58738
▁hold	-8.58759
▁results	-8.5885
▁nec	-8.58914
▁!	-8.5898
markets	-8.59295
theta	-8.60113
earnings	-8.60575
▁through	-8.60847
▁announced	-8.60956
▁proh	-8.61151
▁$500.	-8.61217
▁channel	-8.61287
ndx	-8.61346
▁sales	-8.61643
▁bullish	-8.61714
de	-8.6197
nq	-8.62202
▁official	-8.62288
csco	-8.62498
uber	-8.62525
▁end	-8.62608
djia	-8.62761
▁morning	-8.62985
▁growth	-8.63518
▁moving	-8.6362
▁anything	-8.63626
hot	-8.63806
▁p	-8.63807
iota	-8.64
dai	-8.64026
usd	-8.64215
▁doing	-8.64466
▁r	-8.64662
ar	-8.64972
▁calls	-8.64972
▁put	-8.65086
▁data	-8.65235
▁11	-8.65405
▁change	-8.655
sbes	-8.6552
▁cap	-8.65958
pg	-8.65965
▁purc	-8.65992
brk	-8.66833
▁account	-8.67075
▁happy	-8.67246
gm	-8.67423
zil	-8.6745
▁hour	-8.67561
▁say	-8.6759
▁~	-8.67725
▁own	-8.67778
dag	-8.67901
▁9	-8.67938
sbux	-8.68017
waves	-8.68082
▁position	-8.68389
up	-8.68412
▁already	-8.68508
▁under	-8.6867
▁gold	-8.69314
▁never	-8.69408
vrus	-8.69628
▁find	-8.69695
▁coins	-8.69734
▁car	-8.69756
▁higher	-8.69846
▁necessary	-8.7008
▁$250,	-8.70322
nano	-8.7033
all	-8.70658
mark	-8.7071
data	-8.70784
▁were	-8.70797
▁weekly	-8.70882
man	-8.70899
▁rating	-8.7096
▁analysts	-8.71083
no	-8.71192
ethereum	-8.71207
▁using	-8.71447
▁$100,	-8.71612
▁apple	-8.71761
▁x	-8.72354
▁those	-8.7236
▁listed	-8.72419
we	-8.72433
▁she	-8.72771
▁expected	-8.7297
▁capital	-8.73319
▁bad	-8.73391
▁model	-8.73503
▁address	-8.73801
▁sure	-8.73915
pep	-8.74336
▁companies	-8.74384
▁friend	-8.7446
▁bank	-8.74766
▁prohibited	-8.74777
▁➡️	-8.75073
▁n	-8.7516
▁show	-8.75237
▁eps	-8.75478
▁£	-8.75485
▁platform	-8.75578
▁stake	-8.75585
▁both	-8.75646
▁energy	-8.7592
▁????	-8.75984
▁stay	-8.75987
▁total	-8.76114
▁weeks	-8.76315
▁future	-8.76488
▁looks	-8.76967
qcom	-8.77089
ual	-8.77512
▁pre	-8.7752
]	-8.77728
▁list	-8.78226
▁available	-8.78549
30	-8.78563
▁break	-8.78574
▁article	-8.78588
▁ever	-8.78964
▁until	-8.79173
▁traders	-8.79222
▁tech	-8.79335
▁research	-8.79365
▁always	-8.79736
▁y	-8.79748
is	-8.79834
options	-8.80409
▁done	-8.8041
end	-8.80548
free	-8.81043
le	-8.81248
▁announce	-8.81353
zm	-8.81537
lt	-8.81647
▁f	-8.81716
▁biggest	-8.81746
▁set	-8.81777
▁⏰	-8.82084
▁($	-8.82336
▁yet	-8.82585
▁trying	-8.82682
▁drop	-8.82933
co	-8.82993
ion	-8.83193
▁random	-8.83492
▁leverage	-8.83505
nio	-8.8365
▁learn	-8.83673
tech	-8.83907
sq	-8.84015
join	-8.84036
▁%	-8.84051
11	-8.84116
ven	-8.84278
▁game	-8.84477
▁v	-8.84664
▁miss	-8.8493
▁hard	-8.84932
▁deal	-8.85252
▁does	-8.85354
ccl	-8.85539
▁✨	-8.85612
▁global	-8.85697
▁bought	-8.85735
dcr	-8.85743
▁same	-8.85772
▁form	-8.85815
aal	-8.86005
▁guys	-8.86071
▁stop	-8.86212
▁anyone	-8.86651
▁around	-8.86957
slv	-8.87016
echnicalanalysis	-8.87444
▁ends	-8.87542
13	-8.88069
▁amazon	-8.88089
▁person	-8.88392
coronavirus	-8.88531
▁%)	-8.88582
▁launch	-8.88775
coin	-8.88865
cs	-8.89043
dow	-8.89058
▁amazing	-8.8924
xem	-8.89305
▁revenue	-8.8946
ty	-8.89605
min	-8.8969
▁small	-8.89808
super	-8.89996
▁management	-8.90094
▁something	-8.90108
se	-8.90149
▁business	-8.90417
iost	-8.90439
).	-8.90476
good	-8.90624
▁$100	-8.90875
▁0	-8.90897
▁try	-8.90903
▁far	-8.9097
???	-8.91016
▁analysis	-8.91164
▁corp	-8.91285
▁network	-8.91394
▁super	-8.91542
nd	-8.91542
▁$50	-8.91724
▁months	-8.91886
▁june	-8.92
▁march	-8.9218
covid	-8.9228
▁gets	-8.92579
ter	-8.92677
▁oil	-8.92859
▁home	-8.93015
▁latest	-8.9323
▁april	-8.93253
▁little	-8.93358
nke	-8.9367
oil	-8.93926
▁$10	-8.93962
▁sold	-8.94102
▁lot	-8.94127
▁vote	-8.94139
dax	-8.94166
▁due	-8.9444
bts	-8.948
mmm	-8.94811
▁investors	-8.94821
▁celebrate	-8.94867
▁trump	-8.94993
today	-8.95161
▁de	-8.95205
▁added	-8.95223
15	-8.95241
▁selling	-8.95612
ation	-8.9566
▁life	-8.95855
sp	-8.95874
▁details	-8.96198
▁draw	-8.96201
▁sale	-8.96298
▁pump	-8.96364
sc	-8.96373
able	-8.96478
coti	-8.96777
▁green	-8.96795
▁easy	-8.96815
▁options	-8.9694
lyft	-8.97177
▁[	-8.97261
▁says	-8.9731
▁un	-8.97425
▁⭕	-8.97717
comment	-8.97899
cmcsa	-8.97943
gild	-8.98405
18	-8.98479
....	-8.98506
24	-8.98827
▁odds	-8.98836
500	-8.98925
▁indicators	-8.99038
unh	-8.9911
▁hey	-8.99195
▁register	-8.99258
▁option	-8.99375
an	-8.99504
ne	-8.99537
te	-8.99604
▁$1	-9.00378
abbv	-9.00532
▁staking	-9.00648
▁making	-9.00798
time	-9.01063
▁hope	-9.01066
▁doesn	-9.01484
do	-9.01579
▁flow	-9.01666
mar	-9.01684
12	-9.01694
▁vya	-9.02008
):	-9.02588
▁vs	-9.02679
▁name	-9.02773
▁followers	-9.0298
cvx	-9.03008
▁needs	-9.03021
apha	-9.03044
me	-9.03055
vxx	-9.03094
el	-9.03301
▁❤️	-9.04128
▁paypal	-9.04179
verb	-9.04228
▁e	-9.04409
qtum	-9.04552
ro	-9.04618
at	-9.0473
▁tron	-9.04845
▁lower	-9.04889
▁black	-9.04894
kmd	-9.05219
▁trust	-9.05248
▁4.	-9.05471
▁quarter	-9.05529
▁part	-9.05544
▁won	-9.05562
snt	-9.05872
my	-9.06082
▁working	-9.0617
▁19	-9.06353
en	-9.06368
▁pick	-9.06493
▁50%	-9.06752
▁ago	-9.06771
▁said	-9.06821
▁past	-9.06856
and	-9.06992
▁markets	-9.07066
▁add	-9.07115
▁level	-9.07246
findom	-9.07695
▁less	-9.08391
▁25	-9.08909
▁during	-9.09005
ends	-9.09012
cvs	-9.09061
trade	-9.09356
▁plan	-9.09451
▁believe	-9.0948
▁13	-9.09545
▁major	-9.09592
chk	-9.09785
▁14	-9.09833
atom	-9.09993
▁l	-9.10087
mco	-9.10147
tvix	-9.10267
▁potential	-9.1036
orcl	-9.10469
▁usd	-9.10599
%	-9.10666
!?	-9.10707
▁click	-9.10982
▁breakout	-9.11031
▁point	-9.1108
▁ask	-9.11124
▁given	-9.11156
hdii	-9.1125
▁content	-9.11452
100	-9.11559
algo	-9.11615
▁watching	-9.11623
cc	-9.11823
▁enjoy	-9.12066
pypl	-9.12317
ark	-9.12371
14	-9.12474
▁16	-9.1256
▁things	-9.12565
▁july	-9.12778
cashapp	-9.13022
gc	-9.13028
sh	-9.13394
▁yesterday	-9.13408
vyst	-9.13422
▁started	-9.13426
▁listing	-9.13679
▁‘	-9.13797
chr	-9.13803
▁supply	-9.1388
na	-9.14098
lk	-9.14183
▁left	-9.14378
da	-9.14406
▁highs	-9.14416
▁technology	-9.1474
▁–	-9.14786
band	-9.14844
▁gonna	-9.14907
ci	-9.15125
rep	-9.15146
poe	-9.15161
▁power	-9.15209
▁turn	-9.15254
cso	-9.15341
▁increase	-9.15363
▁prices	-9.15407
▁based	-9.15436
high	-9.15538
ea	-9.15626
),	-9.15682
bnt	-9.1577
▁bot	-9.15829
▁fast	-9.15865
▁download	-9.15942
agn	-9.16005
ast	-9.16242
▁currently	-9.16304
▁elon	-9.16336
▁job	-9.16485
▁⭐️	-9.16509
▁steps	-9.16598
jd	-9.16676
▁number	-9.16689
bb	-9.1673
▁block	-9.16752
top	-9.16767
▁wait	-9.16785
via	-9.16846
21	-9.16998
be	-9.17162
▁18	-9.17201
now	-9.17234
ic	-9.17311
la	-9.17348
work	-9.17474
zrx	-9.17859
so	-9.17979
▁covid	-9.18086
strat	-9.18144
▁release	-9.18219
luv	-9.18325
pay	-9.18364
▁?️	-9.18391
▁family	-9.18425
▁$5	-9.18458
▁industry	-9.18732
#	-9.18756
▁smart	-9.18761
▁risk	-9.18851
▁signals	-9.18865
▁paid	-9.18883
ae	-9.18976
▁☑️	-9.19099
▁holdings	-9.19169
cy	-9.1918
▁+1	-9.19482
▁key	-9.19773
ftm	-9.19906
▁monday	-9.19954
."	-9.20025
▁nothing	-9.20029
▁reward	-9.20121
▁tip	-9.20187
▁donate	-9.20378
chz	-9.20473
▁line	-9.20512
▁leave	-9.20532
uso	-9.20538
vechain	-9.2054
qnt	-9.20566
▁bull	-9.20944
▁dollar	-9.20945
▁social	-9.20956
ai	-9.20974
pctl	-9.21062
▁disney	-9.21143
bhc	-9.21312
ry	-9.21337
▁rose	-9.21436
▁taking	-9.2148
=	-9.21483
clsi	-9.21515
▁cut	-9.21642
new	-9.21938
mana	-9.21983
cannabis	-9.22057
▁event	-9.22175
steem	-9.22275
▁points	-9.22292
▁times	-9.22342
▁special	-9.22521
▁lol	-9.22659
▁profits	-9.227
▁250	-9.22773
ment	-9.23005
▁increased	-9.23044
▁updates	-9.23046
▁him	-9.23176
▁comments	-9.23257
amrn	-9.23295
not	-9.23317
▁thing	-9.23362
▁feel	-9.23379
▁300	-9.23576
sell	-9.2359
▁2000	-9.23623
▁h	-9.23676
▁might	-9.23842
amgn	-9.2393
bidu	-9.23988
elf	-9.24147
cash	-9.24157
weed	-9.24289
▁expect	-9.24358
▁trades	-9.244
dent	-9.24523
50	-9.24597
▁info	-9.246
rs	-9.24708
▁possible	-9.24773
▁announces	-9.24864
▁once	-9.24925
▁term	-9.2494
vite	-9.25064
low	-9.25084
2020	-9.25153
ck	-9.25258
wan	-9.2536
▁$250	-9.25508
buy	-9.2551
23	-9.25702
tel	-9.25801
▁alerts	-9.25982
ng	-9.2611
▁whole	-9.26319
ce	-9.26421
16	-9.26487
▁sec	-9.26622
ino	-9.26682
aa	-9.26744
vra	-9.26785
35	-9.26851
▁recent	-9.26916
▁range	-9.27144
▁utc	-9.27167
▁primexbt	-9.2718
▁projects	-9.2724
▁early	-9.27433
for	-9.275
gas	-9.27558
▁breaking	-9.27655
ex	-9.27731
lsk	-9.282
▁having	-9.28227
alpp	-9.28232
▁against	-9.28345
wtc	-9.2838
et	-9.28567
26	-9.28638
▁without	-9.28645
finance	-9.28708
▁man	-9.28732
ra	-9.28812
▁return	-9.28857
▁g	-9.28881
grnf	-9.28944
▁?#	-9.29086
▁merger	-9.29098
china	-9.29326
▁raised	-9.29394
▁returns	-9.29463
17	-9.29468
▁zacks	-9.2961
▁shorts	-9.29615
00	-9.29694
▁food	-9.29877
adbe	-9.29984
▁active	-9.3002
▁float	-9.30021
tnr	-9.30211
▁48	-9.30268
▁old	-9.30735
▁pt	-9.31028
altcoins	-9.3107
▁sh	-9.31115
id	-9.31465
tst	-9.31468
▁everything	-9.31478
of	-9.31613
if	-9.3162
▁place	-9.31656
▁claim	-9.31745
ad	-9.31755
▁100%	-9.31872
▁quarterly	-9.32396
iep	-9.32425
▁cannabis	-9.32661
▁bottom	-9.32663
ht	-9.32672
ian	-9.32701
▁largest	-9.32728
as	-9.3287
▁between	-9.32876
▁mining	-9.32902
▁weekend	-9.33298
abt	-9.33456
31	-9.33466
▁starting	-9.33603
▁head	-9.33615
▁review	-9.337
ins	-9.33863
▁red	-9.33939
▁prize	-9.33995
▁single	-9.34012
▁17	-9.34111
▁gains	-9.34319
▁portfolio	-9.34358
▁care	-9.3444
btg	-9.34501
!!!!	-9.34834
▁credit	-9.3494
▁almost	-9.35033
▁moves	-9.35091
▁test	-9.35271
▁ma	-9.35314
▁lost	-9.35359
▁gap	-9.35475
▁bonus	-9.35524
bcd	-9.35583
powr	-9.35746
pivx	-9.35812
ocn	-9.35856
▁google	-9.35905
▁ahead	-9.36032
▁insider	-9.36157
▁near	-9.36167
▁musk	-9.36219
hexo	-9.3623
▁charts	-9.3637
▁massive	-9.36509
bmy	-9.36512
im	-9.36676
▁program	-9.36728
bsv	-9.36881
▁coronavirus	-9.3695
▁members	-9.37002
▁vol	-9.37021
cbd	-9.3706
▁premium	-9.37286
ant	-9.37312
▁im	-9.37386
out	-9.37466
▁large	-9.37483
▁pro	-9.37568
rut	-9.37632
▁dividend	-9.37711
mod	-9.38207
▁fed	-9.38304
▁rewards	-9.38316
▁media	-9.38324
ebay	-9.38402
tusd	-9.38464
tro	-9.38577
cnd	-9.38588
▁upcoming	-9.38616
▁waiting	-9.38766
bounty	-9.38944
▁service	-9.39032
storm	-9.39086
eem	-9.39198
lly	-9.39232
zmrk	-9.39247
▁round	-9.39381
gvt	-9.39431
kr	-9.39707
90	-9.39801
di	-9.39835
2019	-9.39837
▁closed	-9.39872
amb	-9.39981
▁system	-9.39981
zen	-9.39988
▁street	-9.40075
nebl	-9.40223
spce	-9.40354
▁ca	-9.40408
▁didn	-9.40499
▁reports	-9.40656
ie	-9.40661
tw	-9.40737
▁opportunity	-9.40743
27	-9.4076
▁rate	-9.40883
▁wants	-9.40887
69	-9.40951
▁favorite	-9.40995
▁space	-9.41039
sys	-9.41179
;&	-9.41576
he	-9.41632
40	-9.41772
▁forward	-9.41853
▁public	-9.4191
▁usa	-9.42005
▁together	-9.42029
ent	-9.42109
▁visit	-9.42187
fnma	-9.42245
▁currency	-9.42343
▁oversold	-9.42386
▁half	-9.42389
▁changes	-9.42481
▁fun	-9.4255
▁tell	-9.4268
▁order	-9.42704
nok	-9.42815
can	-9.42906
▁consensus	-9.42968
▁resistance	-9.42984
▁record	-9.4299
ups	-9.43131
▁bearish	-9.4324
▁maybe	-9.43275
codx	-9.43348
▁uptrend	-9.43401
▁gain	-9.4349
dnt	-9.43678
cdt	-9.43719
▁bit	-9.4388
cr	-9.44053
▁store	-9.44172
tnt	-9.44215
▁10000	-9.44286
▁partners	-9.44303
nt	-9.44311
33	-9.44476
un	-9.44481
ity	-9.44491
▁services	-9.44493
▁volatility	-9.44536
-19	-9.44637
▁seen	-9.44784
▁puts	-9.44851
▁international	-9.4486
ul	-9.44931
short	-9.44961
▁private	-9.45286
45	-9.45322
dpz	-9.45444
aion	-9.45534
▁swing	-9.45563
▁campaign	-9.45604
rd	-9.45675
spom	-9.45798
25	-9.46012
▁enough	-9.46235
▁imo	-9.46284
▁action	-9.46321
▁indicator	-9.46344
lmt	-9.4641
stockstowatch	-9.46414
twlo	-9.46511
▁fund	-9.46534
dusk	-9.46559
mrna	-9.46681
▁worst	-9.46683
▁yes	-9.46732
-&	-9.46751
cryptogiveaway	-9.46801
▁income	-9.46834
▁others	-9.4688
▁doge	-9.46975
xlf	-9.47134
▁competition	-9.47281
▁fees	-9.47291
nuls	-9.47405
bittorrent	-9.47585
▁continue	-9.47803
▁wanna	-9.4786
pa	-9.47878
▁guess	-9.479
▁fee	-9.479
▁participate	-9.47904
▁$100,000	-9.47911
|	-9.4795
▁goes	-9.47995
▁funds	-9.48001
cryptocurrencies	-9.48065
▁entry	-9.48201
▁digital	-9.4822
ga	-9.48259
bx	-9.4847
eng	-9.48582
▁least	-9.48594
▁tuesday	-9.48636
▁kids	-9.48659
lo	-9.48805
zb	-9.48918
▁ratio	-9.49014
▁assets	-9.49102
▁history	-9.49155
etn	-9.49195
trc	-9.4932
▁filed	-9.49456
▁posted	-9.49457
▁nasdaq	-9.495
▁welcome	-9.49512
npxs	-9.49603
hold	-9.49675
ph	-9.49723
▁room	-9.49818
▁partnership	-9.49901
22	-9.4995
ym	-9.4995
▁bounce	-9.49971
bp	-9.5
▁videos	-9.5
est	-9.50016
▁contract	-9.50138
amat	-9.5016
▁j	-9.50193
▁demand	-9.5054
▁5000	-9.50802
ive	-9.50803
son	-9.50804
bk	-9.50806
iot	-9.51252
fuel	-9.51306
br	-9.51308
▁proof	-9.5142
▁broke	-9.51509
▁referral	-9.51535
xle	-9.51591
▁health	-9.51689
▁chain	-9.51797
arn	-9.51818
▁three	-9.51826
97	-9.51914
cel	-9.51935
net	-9.51983
▁recently	-9.51997
▁wrong	-9.52094
▁futures	-9.52184
▁5.	-9.5229
dxy	-9.52319
▁related	-9.5232
65	-9.52419
▁highest	-9.52535
io	-9.52554
chain	-9.52604
▁21	-9.5269
96	-9.52745
▁such	-9.52795
li	-9.52836
tr	-9.52839
teva	-9.52953
▁growing	-9.52973
▁dip	-9.53032
▁remember	-9.53321
▁went	-9.53348
▁..	-9.53382
▁makes	-9.53483
▁quick	-9.53488
▁used	-9.53512
salt	-9.53579
▁email	-9.53653
▁dow	-9.53907
▁information	-9.54263
▁production	-9.54272
▁deposit	-9.5428
db	-9.54288
▁lowered	-9.54326
▁scan	-9.5436
oxy	-9.54503
▁-1	-9.54615
ni	-9.54619
▁10%	-9.54649
▁shit	-9.54712
▁asset	-9.54985
▁?‍♀️	-9.54993
▁technical	-9.55007
▁able	-9.55054
dy	-9.55068
poly	-9.55094
otc	-9.55169
▁complete	-9.55175
▁sentiment	-9.552
qkc	-9.55299
▁within	-9.55314
▁products	-9.55397
▁150	-9.55503
▁birthday	-9.55631
wba	-9.55784
potstocks	-9.55811
▁case	-9.5587
95	-9.55982
ff	-9.56027
▁finally	-9.56027
▁2020.	-9.56069
▁website	-9.56083
▁code	-9.56096
▁etc	-9.56101
ardr	-9.56186
▁second	-9.56243
car	-9.56406
vff	-9.5643
▁bring	-9.56521
troy	-9.56752
mining	-9.56851
▁cost	-9.56945
▁wow	-9.56952
▁hi	-9.56957
▁pts	-9.56958
▁invest	-9.5699
▁est	-9.57069
▁interesting	-9.57074
▁took	-9.57258
▁sats	-9.57259
tdoc	-9.57265
▁payment	-9.57449
gdxj	-9.57527
▁running	-9.57782
axp	-9.57808
▁rent	-9.57837
▁america	-9.58026
▁40	-9.58081
▁watchlist	-9.58358
▁ur	-9.58368
▁zone	-9.58485
32	-9.58516
▁crazy	-9.5858
▁night	-9.58589
▁subscribe	-9.58597
▁plus	-9.58685
▁card	-9.58719
pe	-9.58757
dx	-9.58812
hc	-9.58822
▁bill	-9.58985
▁seems	-9.59135
spot	-9.59253
ost	-9.59278
wink	-9.59307
▁estimates	-9.59504
▁sells	-9.5965
rules	-9.59802
uvxy	-9.59901
knc	-9.59943
39	-9.59958
▁systems	-9.59988
▁analyst	-9.60094
▁non	-9.60146
▁youtube	-9.60186
▁create	-9.60214
sol	-9.60222
▁behind	-9.60228
▁52	-9.60269
nav	-9.60302
▁else	-9.60316
▁wall	-9.60394
▁cars	-9.60423
exchange	-9.60426
▁60	-9.60504
▁bills	-9.60572
▁signal	-9.60631
▁⚡️	-9.60722
hlf	-9.60841
by	-9.60878
▁debt	-9.60887
98	-9.60911
technology	-9.61045
▁late	-9.61068
snm	-9.61085
▁min	-9.61148
▁o	-9.61434
▁pretty	-9.61471
ncash	-9.61474
▁0.1	-9.61565
▁minutes	-9.61616
▁$50,000.	-9.61681
bit	-9.6188
key	-9.61891
ttd	-9.61934
less	-9.6195
celr	-9.62136
▁monthly	-9.62148
▁amount	-9.62227
▁side	-9.62269
▁2018	-9.62409
▁actually	-9.62409
▁tweets	-9.62713
appc	-9.62787
6%	-9.62795
▁22	-9.62861
▁performance	-9.6287
pr	-9.62942
bo	-9.62947
▁loss	-9.62988
ia	-9.63101
per	-9.63126
based	-9.63243
29	-9.6334
fcx	-9.63347
dgd	-9.63422
▁important	-9.63472
▁$20	-9.63519
06	-9.63559
mi	-9.63608
▁positive	-9.63656
ag	-9.63762
▁isn	-9.6377
▁filing	-9.63938
▁brokerages	-9.63973
hon	-9.64066
▁extra	-9.64096
▁sector	-9.64229
▁tonight	-9.64312
dr	-9.64336
dji	-9.64542
▁baby	-9.64563
▁found	-9.64627
01	-9.64709
▁version	-9.64711
term	-9.64716
▁son	-9.64759
▁chat	-9.6482
▁bless	-9.64923
▁awesome	-9.6493
gx	-9.65026
biib	-9.65027
▁spread	-9.65044
42	-9.65243
cbdd	-9.65322
▁(1	-9.65438
ting	-9.65476
▁23	-9.65485
▁later	-9.65526
▁28	-9.65529
▁rates	-9.6557
▁appreciate	-9.65623
utx	-9.65775
▁ecosystem	-9.66005
▁contest	-9.66098
▁building	-9.66134
▁contracts	-9.66161
▁fire	-9.66237
▁corporation	-9.66323
tgod	-9.66329
▁10,000	-9.66452
▁pm	-9.66535
▁talk	-9.66627
▁story	-9.66684
eur	-9.66691
week	-9.66721
▁picked	-9.66787
▁$500	-9.66799
tx	-9.66846
maid	-9.66991
▁valuation	-9.67086
▁$500,	-9.67101
▁trend	-9.67117
▁true	-9.67128
▁board	-9.6718
▁moved	-9.67233
hal	-9.67277
▁convert	-9.67305
cvc	-9.67376
wynn	-9.67451
▁product	-9.67502
▁rest	-9.6753
ew	-9.67655
ppt	-9.67692
ho	-9.67753
silver	-9.67812
▁dgb	-9.67826
qsr	-9.67831
cf	-9.67834
▁state	-9.67893
--	-9.6791
▁raise	-9.67944
vaylatoken	-9.68004
▁means	-9.6805
business	-9.68114
▁rally	-9.68305
ac	-9.68503
▁forget	-9.68585
▁haven	-9.68607
▁sent	-9.6865
tmus	-9.68675
tfuel	-9.6869
▁otc	-9.68917
▁listen	-9.6893
pennystocks	-9.69085
grs	-9.69109
▁likely	-9.69202
kcs	-9.69301
tic	-9.69341
▁pls	-9.69423
xzc	-9.69459
lend	-9.69504
▁29	-9.69741
token	-9.69808
divi	-9.69819
▁mom	-9.69854
▁cheap	-9.69927
04	-9.69945
bn	-9.69992
▁1)	-9.70006
▁reach	-9.70011
▁lets	-9.70042
▁build	-9.7008
▁online	-9.70092
▁zero	-9.70166
line	-9.70216
▁january	-9.70221
▁track	-9.70224
futures	-9.70245
76	-9.7036
mth	-9.70372
55	-9.70392
▁names	-9.70605
nem	-9.7063
che	-9.70637
▁mainnet	-9.70693
▁discount	-9.70701
ten	-9.70729
64	-9.70786
▁announcement	-9.70814
▁development	-9.70822
love	-9.70966
hi	-9.71035
▁pool	-9.71065
il	-9.71082
79	-9.71143
bqx	-9.71163
list	-9.71193
avgo	-9.71201
▁--	-9.71436
▁mind	-9.71499
wallstreet	-9.71623
ies	-9.71678
▁simple	-9.71761
cp	-9.71837
gnt	-9.71884
dapp	-9.71906
cann	-9.71907
▁ltd	-9.71997
▁decentralized	-9.72045
▁jobs	-9.72067
con	-9.72072
▁falling	-9.72112
fun	-9.72143
▁microsoft	-9.72172
game	-9.72273
▁helps	-9.72342
land	-9.72429
/19	-9.72436
▁mean	-9.7247
ico	-9.72545
▁become	-9.72559
▁god	-9.72642
▁moon	-9.72711
play	-9.72766
pcg	-9.72788
▁eth	-9.7282
soul	-9.73
sa	-9.73165
▁happen	-9.73189
▁fall	-9.73226
07	-9.73306
▁?????	-9.73307
▁transactions	-9.73323
▁sub	-9.73347
mgm	-9.73358
defi	-9.73382
team	-9.73408
big	-9.73457
▁max	-9.73486
▁banks	-9.73542
▁levels	-9.73583
▁september	-9.73584
70	-9.73592
shmp	-9.73725
▁26	-9.73748
05	-9.73807
year	-9.73902
▁straight	-9.73954
▁required	-9.73997
▁mo	-9.74152
get	-9.74159
59	-9.74229
▁thursday	-9.74231
▁2)	-9.74244
▁bio	-9.74441
▁mention	-9.74448
▁multi	-9.74807
▁dd	-9.74809
▁probably	-9.74913
60	-9.7506
▁conference	-9.75094
▁upgraded	-9.75101
▁paying	-9.7518
pro	-9.75199
hy	-9.75302
28	-9.75354
ip	-9.75448
▁anniversary	-9.75502
▁d	-9.75575
▁questions	-9.75626
▁setup	-9.75659
ns	-9.75763
gn	-9.75766
trump	-9.75774
gnus	-9.75877
visl	-9.75887
▁25,000	-9.75896
nwbo	-9.75976
▁idea	-9.75991
lit	-9.75996
gen	-9.76023
93	-9.76094
axxa	-9.76096
ton	-9.76119
▁called	-9.76138
nxt	-9.76215
ap	-9.76221
89	-9.76227
▁hate	-9.76266
hemp	-9.76325
ance	-9.76372
cvsi	-9.76385
wings	-9.7656
alts	-9.76608
club	-9.76658
app	-9.76663
▁6.	-9.76737
38	-9.76741
edo	-9.76758
88	-9.76935
▁solid	-9.76945
▁pattern	-9.77083
▁including	-9.77252
▁appreciated	-9.77271
▁rise	-9.77276
▁dollars	-9.77348
▁excited	-9.77429
▁avg	-9.77799
▁downtrend	-9.77817
▁mine	-9.77833
iotx	-9.77856
ocean	-9.77918
▁dont	-9.77923
▁face	-9.7794
req	-9.77981
▁boeing	-9.77998
ri	-9.78106
49	-9.78183
▁impact	-9.78203
▁according	-9.78221
com	-9.78255
▁white	-9.78354
▁offer	-9.78399
▁net	-9.78412
▁cbd	-9.78418
bc	-9.78495
▁invite	-9.78559
▁step	-9.78626
▁2019.	-9.78733
clf	-9.78735
▁—	-9.78798
$$	-9.78846
▁released	-9.78871
kin	-9.78875
nrg	-9.78891
84	-9.78911
▁$300	-9.78949
tops	-9.78975
ke	-9.79031
▁final	-9.79037
gd	-9.79065
▁offering	-9.79073
ps	-9.79204
▁transaction	-9.79287
0.0	-9.79294
iq	-9.79334
▁issues	-9.794
▁answer	-9.79539
tu	-9.79593
▁continues	-9.79594
▁holders	-9.79736
▁altcoin	-9.79747
▁activity	-9.79775
▁beat	-9.79899
34	-9.79913
king	-9.79996
200	-9.8001
▁safe	-9.80013
4%	-9.80087
▁attention	-9.80203
vi	-9.80276
vib	-9.80288
09	-9.804
▁focus	-9.80416
altcoin	-9.80444
▁shareholder	-9.80468
▁index	-9.80517
▁!!	-9.80556
▁findom	-9.80656
▁dump	-9.80669
ish	-9.80839
▁reply	-9.80865
ban	-9.80928
cryptonews	-9.80957
video	-9.80962
▁stablecoin	-9.81069
ally	-9.8119
crwd	-9.81213
mj	-9.81332
▁myself	-9.81417
dex	-9.81421
▁fraud	-9.81439
▁date	-9.8149
▁different	-9.81539
ibio	-9.81563
▁cryptocurrency	-9.81712
▁lows	-9.81769
ny	-9.81931
▁mid	-9.81934
▁clear	-9.81991
▁screenshot	-9.82169
mkr	-9.82176
▁supported	-9.82192
rcl	-9.822
92	-9.82228
pi	-9.82403
cap	-9.82445
46	-9.82478
credit	-9.82575
mon	-9.82577
▁hand	-9.82615
▁august	-9.8269
comp	-9.82791
▁swap	-9.82816
baby	-9.82927
▁split	-9.8295
cmt	-9.82967
docu	-9.82973
rsr	-9.83054
▁$30	-9.83096
▁couple	-9.83207
52	-9.83267
▁fully	-9.83276
36	-9.83304
▁folks	-9.83595
td	-9.83642
94	-9.8367
▁access	-9.83742
loom	-9.83784
▁numbers	-9.8384
78	-9.8385
▁27	-9.83924
▁features	-9.83955
▁oh	-9.83959
vtc	-9.84067
▁retweets	-9.84235
▁beginning	-9.84378
▁filings	-9.84447
au	-9.84483
▁question	-9.84497
▁guide	-9.84498
▁house	-9.84499
▁(+	-9.8476
xlnx	-9.8477
ong	-9.84773
gr	-9.84841
brd	-9.84897
sl	-9.84914
you	-9.85103
▁ya	-9.85283
nvax	-9.85297
um	-9.8532
71	-9.8541
tlss	-9.85433
ship	-9.85439
drgn	-9.85596
mtl	-9.85729
▁mobile	-9.85797
▁ama	-9.85797
nexo	-9.85857
▁resources	-9.85871
▁winning	-9.85875
▁lesson	-9.85877
▁reason	-9.85951
▁fake	-9.8599
▁da	-9.86033
$2	-9.86144
mona	-9.86177
▁rich	-9.8623
▁gift	-9.86264
8%	-9.86268
giveawayalert	-9.86271
▁bid	-9.86337
▁brave	-9.86351
os	-9.86421
▁jan	-9.86487
▁general	-9.86508
800	-9.86513
ultimate	-9.86603
dollar	-9.86613
trillion	-9.86717
▁shopaholic	-9.86759
tptw	-9.86762
tronics	-9.86762
▁ex	-9.86822
▁multiple	-9.86888
gl	-9.86967
this	-9.86984
▁losing	-9.87165
▁hot	-9.87253
▁reached	-9.87302
fast	-9.87513
ir	-9.87522
dgtx	-9.87575
▁tax	-9.87624
▁season	-9.87669
ha	-9.87701
▁⁦	-9.87713
/20	-9.87745
▁+2	-9.87798
▁note	-9.87943
.”	-9.88254
▁$20,000	-9.88334
▁longer	-9.88494
▁stream	-9.88495
86	-9.88601
▁pr	-9.88664
bar	-9.88694
▁source	-9.88711
▁con	-9.88741
▁st	-9.88864
▁main	-9.88924
nee	-9.88973
wabi	-9.89076
apple	-9.89142
▁targets	-9.89198
tsm	-9.89212
fet	-9.89292
nkla	-9.89346
▁exchanges	-9.89346
igex	-9.89348
▁plans	-9.89399
▁cause	-9.89479
mnk	-9.89507
▁electric	-9.89556
▁cover	-9.89568
hr	-9.89592
1%	-9.89623
87	-9.89662
fx	-9.89684
shappblackfriday	-9.89746
▁upside	-9.89841
bio	-9.89861
fr	-9.89906
dig	-9.89907
lisk	-9.90089
▁missed	-9.9009
▁fan	-9.90174
▁success	-9.90185
live	-9.90206
mm	-9.90217
▁plays	-9.90282
▁common	-9.90309
▁:)	-9.90346
cydy	-9.90597
abx	-9.9062
47	-9.90693
▁negative	-9.90722
!??	-9.90727
▁double	-9.9085
▁choice	-9.90861
▁▪️	-9.91
▁moment	-9.91018
▁retail	-9.9102
tal	-9.91059
▁medical	-9.91067
mn	-9.91103
▁told	-9.91117
ja	-9.91126
over	-9.91136
▁ta	-9.91207
▁thought	-9.91222
fl	-9.9127
▁guy	-9.91327
sky	-9.9144
99	-9.91467
storj	-9.91561
ur	-9.91586
▁wake	-9.91605
aphd	-9.9163
▁€	-9.91648
vc	-9.91686
ogi	-9.91788
▁traded	-9.91805
share	-9.91848
▁december	-9.91935
08	-9.9198
▁progress	-9.92091
▁buzz	-9.92157
rlc	-9.92237
lrcx	-9.9226
atvi	-9.92274
random	-9.92274
▁✔️	-9.92296
74	-9.92437
ds	-9.92454
▁calling	-9.92456
▁gas	-9.9253
▁area	-9.92593
▁updated	-9.92602
laho	-9.92656
▁20%	-9.92665
77	-9.92678
tm	-9.92798
cur	-9.92856
tpay	-9.92865
mdt	-9.92872
▁??????	-9.92875
.00	-9.92881
48	-9.92896
▁allocation	-9.92977
▁cross	-9.92985
▁closing	-9.9312
▁scam	-9.93121
oott	-9.93151
cpe	-9.93257
▁equity	-9.93266
paypig	-9.93288
▁usdt	-9.93423
▁boost	-9.93495
▁$120	-9.93526
▁400	-9.93589
lrc	-9.93652
bby	-9.93681
cos	-9.93826
rbnw	-9.93836
vtho	-9.93936
▁la	-9.93944
▁pair	-9.93979
▁save	-9.93995
privacy	-9.93996
▁playing	-9.94011
tion	-9.94033
▁karma	-9.94274
ab	-9.94283
airdrops	-9.94323
▁declined	-9.94366
apt	-9.94372
rn	-9.94383
ee	-9.9441
▁ref	-9.94466
▁october	-9.94512
37	-9.94635
vidt	-9.94666
pton	-9.94679
treos	-9.94712
▁christmas	-9.94722
▁built	-9.94803
▁leading	-9.94818
dg	-9.94835
pt	-9.94906
▁guidance	-9.94938
▁country	-9.94998
62	-9.94999
02	-9.95165
▁1,000	-9.95204
▁bc	-9.95303
sha	-9.95332
pins	-9.95382
▁american	-9.95411
idex	-9.95426
plug	-9.95444
▁secure	-9.95485
▁$10,000	-9.95543
▁gave	-9.95607
▁director	-9.95738
▁positions	-9.95743
▁1-	-9.95745
63	-9.95765
ist	-9.95885
▁dec	-9.95936
maxpain	-9.96017
bl	-9.96056
▁control	-9.96133
▁class	-9.96216
▁finance	-9.96244
▁investor	-9.96249
43	-9.96255
ct	-9.96347
ela	-9.96358
pos	-9.96365
▁seeing	-9.96603
bcpt	-9.96641
58	-9.96698
fcel	-9.96754
opti	-9.96774
vibe	-9.96823
ig	-9.96827
▁president	-9.96864
▁prizes	-9.96868
▁phase	-9.96906
▁$50,000	-9.96931
▁caps	-9.96937
▁adding	-9.96967
▁party	-9.97065
▁phone	-9.97098
▁understand	-9.97159
▁ok	-9.97249
▁apr	-9.9727
mith	-9.974
ling	-9.97419
life	-9.97455
▁2⃣	-9.97496
coop	-9.97672
▁wish	-9.97745
dogecoin	-9.97747
forex	-9.9778
▁november	-9.97795
▁security	-9.97804
57	-9.97907
54	-9.9793
▁browser	-9.97937
▁sat	-9.97952
cnx	-9.97962
▁rsi	-9.97989
ol	-9.97999
▁decreased	-9.98007
age	-9.98041
▁com	-9.98125
▁hits	-9.98236
off	-9.98236
▁held	-9.9827
ver	-9.98376
▁goal	-9.98403
▁interview	-9.98464
rad	-9.98466
▁acquisition	-9.98529
shak	-9.98532
trul	-9.9857
▁bear	-9.98614
▁facebook	-9.98812
hmla	-9.98848
khc	-9.98944
▁-&	-9.98985
▁mar	-9.9899
txn	-9.99062
73	-9.99187
zn	-9.99255
41	-9.99293
▁software	-9.99349
▁chinese	-9.99484
67	-9.99495
vsys	-9.99516
▁entire	-9.99556
▁war	-9.9973
ine	-9.99765
▁comes	-9.99841
▁quality	-9.9985
▁push	-9.99888
investment	-9.99951
▁talking	-9.99963
▁starts	-9.9997
wrx	-10.0004
nex	-10.0006
▁onlyfans	-10.0008
lb	-10.0019
▁$200	-10.002
▁economy	-10.0034
rty	-10.0035
▁height	-10.0039
0.00	-10.004
▁grow	-10.0041
ubt	-10.0042
▁air	-10.0044
back	-10.0045
▁saying	-10.0046
▁minute	-10.0063
nas	-10.0083
▁thread	-10.0083
bay	-10.01
68	-10.0101
▁privacy	-10.0106
trillions	-10.0109
der	-10.0123
▁presenting	-10.0125
▁pop	-10.0129
▁base	-10.0137
▁message	-10.0142
two	-10.0145
bolt	-10.0149
▁though	-10.0163
wallet	-10.0165
htz	-10.0171
▁virus	-10.0176
61	-10.0179
ze	-10.018
▁momentum	-10.0194
▁lots	-10.02
gi	-10.0215
bot	-10.0222
▁feeling	-10.0225
▁eye	-10.0226
dlt	-10.0227
▁trans	-10.0228
wax	-10.0228
▁technologies	-10.0229
▁shows	-10.0233
▁beta	-10.0245
▁congrats	-10.025
▁feb	-10.0251
ev	-10.0257
dapps	-10.0263
▁works	-10.0267
▁balance	-10.027
tt	-10.0276
▁inside	-10.0281
catt	-10.0284
▁auto	-10.0287
▁1000000	-10.0293
▁kind	-10.0298
▁distribution	-10.0312
has	-10.0316
▁either	-10.0317
▁sorry	-10.0319
▁5,000	-10.032
apr	-10.0322
zcl	-10.0323
▁gainers	-10.0325
91	-10.0325
▁investing	-10.0342
▁matter	-10.0344
▁na	-10.0364
lulu	-10.0365
▁wednesday	-10.0367
▁bag	-10.0369
dj	-10.0373
▁tzc	-10.0373
cloak	-10.038
▁llc	-10.0387
▁school	-10.0389
twt	-10.0395
tcel	-10.0395
our	-10.0399
down	-10.04
▁cso	-10.0403
just	-10.0403
ka	-10.0404
ax	-10.0408
▁dropping	-10.0414
▁among	-10.0416
▁nov	-10.0418
tor	-10.0423
▁sharing	-10.0428
▁further	-10.0428
▁fight	-10.043
▁shareholders	-10.0437
▁customers	-10.0442
fdx	-10.0443
lin	-10.0444
xspa	-10.0445
85	-10.0445
▁fill	-10.0453
▁launched	-10.0466
gate	-10.0467
▁gone	-10.0468
mr	-10.0469
▁8-	-10.0471
ness	-10.0473
▁fuck	-10.0494
▁congratulations	-10.0505
▁adoption	-10.0507
▁ppl	-10.0508
▁agreement	-10.0509
▁accounts	-10.0517
▁fundamentals	-10.0519
03	-10.0523
▁press	-10.053
tnrgold	-10.0531
chx	-10.0531
▁10-	-10.0535
▁instant	-10.0539
▁reverse	-10.0541
cad	-10.0547
▁government	-10.0553
▁type	-10.0556
siri	-10.0569
▁3)	-10.057
▁bar	-10.0575
▁forecast	-10.0598
vr	-10.0601
▁groceries	-10.0606
▁fy	-10.0606
ary	-10.0607
cnn	-10.0615
▁catch	-10.0619
72	-10.0621
▁session	-10.0623
▁bigger	-10.0626
ether	-10.0628
▁drops	-10.0637
▁$150	-10.0643
▁partner	-10.0651
▁across	-10.0655
tnb	-10.0657
chris	-10.0664
▁premarket	-10.067
▁immediately	-10.0671
dkng	-10.0687
▁girl	-10.0695
dero	-10.0698
cop	-10.07
goddess	-10.0716
▁cloud	-10.072
▁reported	-10.0722
▁000	-10.0722
▁squeeze	-10.0727
▁national	-10.0728
ey	-10.0733
▁2.0	-10.0734
mro	-10.0735
skpo	-10.0736
▁discord	-10.0742
chart	-10.0761
▁ipo	-10.0772
usa	-10.0776
antm	-10.0777
56	-10.0788
rig	-10.0792
▁along	-10.0795
thc	-10.0796
▁simply	-10.0802
hodl	-10.0805
agg	-10.0806
way	-10.0818
vale	-10.0828
air	-10.0841
▁7.	-10.0862
celg	-10.0865
▁paypig	-10.0873
csx	-10.0877
▁rising	-10.088
▁25%	-10.0896
twitter	-10.0897
44	-10.0898
bullish	-10.0907
▁mc	-10.0908
celz	-10.0908
grin	-10.091
▁ho	-10.0911
▁expiration	-10.0919
▁strategy	-10.0936
▁losers	-10.0944
myl	-10.0944
try	-10.0946
dd	-10.0947
▁wonder	-10.0948
alert	-10.0953
gf	-10.0957
blz	-10.0957
▁mark	-10.0964
banano	-10.0965
▁period	-10.0986
mp	-10.0991
▁ro	-10.0992
▁▶️	-10.0998
clvs	-10.1003
▁limited	-10.1006
▁user	-10.1009
usdc	-10.1015
▁digibyte	-10.1027
cei	-10.1034
▁bonds	-10.1036
▁50,000	-10.1038
▁50-	-10.1039
▁?‍♂️	-10.1042
▁load	-10.1051
▁book	-10.1052
▁instead	-10.1058
▁giveaways	-10.1067
▁issue	-10.1073
▁meet	-10.1076
are	-10.1088
▁hello	-10.1089
▁yourself	-10.1089
tan	-10.1095
cn	-10.1103
▁perfect	-10.1104
▁takes	-10.1113
▁bo	-10.112
▁dividends	-10.1123
coup	-10.113
▁consider	-10.113
▁tg	-10.1139
▁drive	-10.1147
slb	-10.1149
▁100000	-10.1154
▁thinking	-10.1173
tribune	-10.1174
mor	-10.1174
erc	-10.1194
75	-10.1196
blk	-10.1197
▁remain	-10.1201
▁faster	-10.1205
▁definitely	-10.1208
avxl	-10.1209
▁$25	-10.1216
▁provide	-10.1224
stx	-10.1226
▁em	-10.1231
▁!!️	-10.1236
▁testing	-10.1237
clo	-10.1243
▁example	-10.1243
~	-10.1243
❤️	-10.1244
leas	-10.1246
5%	-10.1248
gaming	-10.1249
ful	-10.1251
av	-10.1255
amazon	-10.1259
▁reversal	-10.126
▁30/06	-10.126
▁+3	-10.126
€	-10.1262
cryptotrading	-10.1264
eric	-10.1273
▁$15	-10.128
▁sa	-10.128
cura	-10.1281
cor	-10.1284
decn	-10.1289
▁0.01	-10.1292
▁ev	-10.1303
erd	-10.1305
80	-10.1312
rh	-10.1316
▁ethereum	-10.1332
▁fly	-10.1332
▁sun	-10.1333
regn	-10.1338
ted	-10.1347
81	-10.1349
dman	-10.1366
adx	-10.1368
▁needed	-10.137
len	-10.1378
stablecoin	-10.1379
▁comp	-10.1384
cu	-10.1385
▁city	-10.1398
▁-2	-10.1399
rl	-10.1417
▁size	-10.1417
▁80	-10.1425
▁shown	-10.1425
▁$1200!	-10.1435
economy	-10.1439
▁brand	-10.1442
wm	-10.1448
▁delivery	-10.1452
ky	-10.146
▁participants	-10.146
val	-10.1461
▁grab	-10.1461
✅	-10.1462
▁band	-10.1462
ger	-10.1467
▁9.	-10.1468
last	-10.148
ru	-10.1483
▁thoughts	-10.1497
▁saw	-10.1498
▁applications	-10.1498
azn	-10.1502
▁star	-10.1517
▁previous	-10.1519
300	-10.152
▁several	-10.1524
em	-10.1529
▁showing	-10.1531
▁strength	-10.1531
model	-10.1535
▁72	-10.1536
▁sending	-10.1536
blb	-10.1541
pc	-10.1543
om	-10.1544
▁(#	-10.1552
.....	-10.1559
▁mother	-10.1559
litecoin	-10.156
acrl	-10.1563
ccx	-10.1564
investingnews	-10.1571
▁shorted	-10.1571
!!️	-10.1578
ster	-10.1587
▁strike	-10.1594
cb	-10.1611
giveaways	-10.1624
va	-10.1626
trust	-10.1632
ized	-10.1637
ctl	-10.1638
▁solutions	-10.1646
▁⭐	-10.1647
nk	-10.1647
▁helping	-10.1651
leo	-10.1651
cmgo	-10.1659
coinkit	-10.166
▁bulls	-10.1665
ut	-10.1679
sne	-10.1683
ous	-10.1689
▁lead	-10.1695
that	-10.1695
▁came	-10.1705
ttwo	-10.1709
▁1/	-10.1709
▁blessing	-10.171
tnxp	-10.1711
tgodf	-10.1717
aytu	-10.1722
53	-10.1729
66	-10.1732
▁word	-10.1741
▁happening	-10.1744
yr	-10.1746
▁lose	-10.1748
funn	-10.1749
penn	-10.1753
▁bet	-10.1754
ttoo	-10.1758
user	-10.1762
▁beautiful	-10.1767
▁healthcare	-10.1769
▁light	-10.1774
op	-10.1776
▁proud	-10.1777
hbar	-10.1787
▁30-	-10.1788
robinhood	-10.1791
▁pharmaceuticals	-10.1792
solo	-10.1796
▁promote	-10.1797
▁31	-10.1808
nx	-10.1811
bi	-10.1812
▁stuff	-10.1813
rm	-10.1814
trnx	-10.1817
▁-$	-10.182
ate	-10.1821
▁course	-10.1823
▁performers	-10.1832
????	-10.1833
eurusd	-10.1834
▁roll	-10.1857
cm	-10.1859
▁slow	-10.1859
ml	-10.1864
fair	-10.187
▁hu	-10.1877
fintech	-10.1878
fit	-10.1881
▁canada	-10.1885
▁internet	-10.1886
▁100,000	-10.1889
ok	-10.189
▁sl	-10.1891
▁deep	-10.1899
▁pandemic	-10.19
▁(-	-10.1903
▁literally	-10.1905
bank	-10.1905
▁crash	-10.1908
▁wins	-10.1914
oce	-10.1916
▁experience	-10.1919
energy	-10.1922
ibb	-10.1923
pwdy	-10.1924
▁glad	-10.1926
▁du	-10.1927
▁buys	-10.1935
bcn	-10.1935
part	-10.1937
▁rock	-10.1944
▁trial	-10.1949
▁penny	-10.1956
ec	-10.1976
83	-10.1983
▁dma	-10.1992
~!	-10.1994
use	-10.1995
alt	-10.2004
▁beats	-10.2006
med	-10.2008
▁towards	-10.2016
mat	-10.2029
✨	-10.2031
pnc	-10.2037
▁trending	-10.2037
▁earning	-10.2044
fed	-10.2044
▁mega	-10.2052
▁choose	-10.2054
▁states	-10.2056
▁picture	-10.2059
/2019	-10.206
▁till	-10.2063
▁30%	-10.207
▁regard	-10.2072
▁rn	-10.2081
▁imagine	-10.2088
▁agree	-10.2091
dar	-10.2091
pax	-10.2101
trst	-10.2103
▁yield	-10.2103
▁undervalued	-10.2105
▁fact	-10.2106
smh	-10.2108
▁recommendation	-10.2111
▁4:	-10.2114
▁games	-10.2117
▁believer	-10.2127
tch	-10.2128
chwy	-10.2131
vtiq	-10.2131
don	-10.2131
▁hedge	-10.2136
▁easily	-10.2148
▁five	-10.2152
rf	-10.2156
mft	-10.2158
cx	-10.2175
•	-10.2175
evx	-10.2179
▁heart	-10.22
▁jump	-10.2202
▁payments	-10.2205
gg	-10.2206
▁opinion	-10.2211
▁millions	-10.2212
veri	-10.2216
rio	-10.2221
vo	-10.2221
▁blue	-10.2227
grub	-10.2233
▁downgraded	-10.2249
ripple	-10.2251
dm	-10.2251
▁process	-10.2257
▁increases	-10.2265
stocktrading	-10.2266
dish	-10.2272
▁streaming	-10.2276
music	-10.2277
tra	-10.2279
real	-10.2282
▁site	-10.2286
vxrt	-10.2287
fe	-10.2297
▁february	-10.2301
▁lp	-10.2307
box	-10.2309
▁tv	-10.2316
▁intel	-10.2317
▁meeting	-10.2318
▁bu	-10.232
▁begin	-10.2323
ngine	-10.2324
▁sunday	-10.2325
▁orders	-10.2329
▁aug	-10.2332
▁popular	-10.2339
▁box	-10.2346
gh	-10.2352
af	-10.2352
▁direct	-10.2365
2.5	-10.2369
}	-10.2374
tin	-10.2378
3%	-10.2379
wti	-10.238
▁discovery	-10.2381
olt	-10.2382
▁$1000	-10.2385
▁economic	-10.2387
ize	-10.2388
uup	-10.2391
▁annual	-10.2393
▁declining	-10.2398
nclh	-10.2398
mer	-10.2402
▁solution	-10.2403
▁ideas	-10.2409
▁dead	-10.241
▁surprise	-10.2412
▁spot	-10.2416
stablecoins	-10.2419
▁quite	-10.242
▁8.	-10.2425
▁brands	-10.2428
revolution	-10.2431
xlk	-10.2432
▁?‍?	-10.2444
-1	-10.2455
▁**	-10.2458
act	-10.2461
clx	-10.2472
sub	-10.2472
fin	-10.2473
▁chase	-10.2478
▁boom	-10.2482
▁notice	-10.2485
▁nearly	-10.2488
▁!!!	-10.2496
▁ha	-10.2508
cake	-10.251
▁serious	-10.251
▁weak	-10.2512
fct	-10.2514
isrg	-10.2515
ism	-10.2525
true	-10.254
420	-10.2548
bbby	-10.2553
▁cool	-10.2553
study	-10.2554
financial	-10.2555
jblu	-10.2557
yy	-10.2565
▁1️⃣	-10.2574
▁fans	-10.2576
acn	-10.2579
red	-10.2583
earn	-10.2588
bitmex	-10.2595
▁5%	-10.2609
altseason	-10.2614
▁employees	-10.2626
▁india	-10.2633
gp	-10.264
▁poor	-10.2644
tf	-10.2648
▁confirm	-10.2652
geo	-10.2658
▁pull	-10.2661
▁fucking	-10.2673
▁pairs	-10.2677
▁self	-10.2683
▁oct	-10.2693
▁2️⃣	-10.2694
▁⬆️	-10.2694
dom	-10.2697
bg	-10.2698
chi	-10.2703
▁acquire	-10.2715
▁{	-10.272
cam	-10.2721
▁anti	-10.2722
▁tuned	-10.2723
▁ride	-10.2724
marijuana	-10.273
▁cancer	-10.2737
cnc	-10.2741
▁voting	-10.2743
▁pot	-10.2744
▁passive	-10.2755
▁pe	-10.2758
▁$150.	-10.2761
ated	-10.2763
must	-10.2766
month	-10.2769
ya	-10.2774
nbev	-10.2775
▁panic	-10.2777
▁officially	-10.278
que	-10.2782
vy	-10.2788
▁corporate	-10.2791
▁similar	-10.2794
▁extension	-10.2794
▁leg	-10.2796
schw	-10.2801
700	-10.2802
▁problem	-10.2803
▁personal	-10.2805
daytrader	-10.2813
fi	-10.2813
▁unemployment	-10.2815
▁front	-10.2819
▁tips	-10.2824
▁spend	-10.2825
▁2%	-10.2831
cre	-10.2834
home	-10.2835
▁struggling	-10.2835
ftse	-10.2838
▁pa	-10.2841
▁significant	-10.2842
▁created	-10.2851
)|	-10.2852
▁ga	-10.2853
az	-10.2854
▁firm	-10.2856
▁leaders	-10.2859
▁costs	-10.2866
cdix	-10.2876
wk	-10.288
▁custom	-10.2885
np	-10.2889
▁losses	-10.289
▁ad	-10.2891
ber	-10.2892
efa	-10.2894
▁chosen	-10.29
▁present	-10.2905
▁burn	-10.2909
more	-10.2909
▁events	-10.2909
▁workers	-10.2914
▁breaks	-10.2917
TM	-10.2918
▁sees	-10.2932
df	-10.2933
gwph	-10.2937
chtr	-10.294
▁vi	-10.294
▁damn	-10.2941
▁reading	-10.2943
qs	-10.2946
satoshi	-10.2949
tv	-10.2953
▁everyday	-10.2954
cbs	-10.2957
▁⬇️	-10.2963
ah	-10.2964
▁dex	-10.2965
▁wave	-10.2974
▁cru	-10.2979
san	-10.2983
▁compared	-10.2984
investors	-10.2987
▁web	-10.2988
▁despite	-10.2999
▁aren	-10.3005
sy	-10.3016
lf	-10.3023
oc	-10.3029
1.5	-10.3036
▁shot	-10.3041
bkng	-10.3042
ating	-10.3047
excl	-10.305
▁hear	-10.3057
▁spike	-10.3061
▁+/-	-10.3062
-20	-10.3072
winner	-10.3074
post	-10.3079
▁third	-10.3084
rate	-10.3087
trip	-10.3088
▁asking	-10.309
▁finsub	-10.3099
▁crisis	-10.3114
▁sellers	-10.3124
▁stand	-10.313
▁reaches	-10.3137
nxs	-10.3139
900	-10.314
▁flag	-10.3141
▁mr	-10.3143
inqd	-10.3147
cldr	-10.3152
▁solar	-10.3153
▁shanghai	-10.3161
jcp	-10.3162
▁mu	-10.3167
cowpp	-10.3167
wr	-10.3168
ki	-10.3169
ctyx	-10.3171
block	-10.3182
▁chrome	-10.3186
▁feed	-10.3194
family	-10.3207
kava	-10.3209
▁worldwide	-10.321
tnx	-10.322
▁protocol	-10.3235
csc	-10.3236
▁therapeutics	-10.3237
rdn	-10.3247
▁boy	-10.3255
▁marketing	-10.3257
▁decided	-10.3262
colx	-10.328
lun	-10.3286
soli	-10.3286
tar	-10.3289
▁pivot	-10.3292
▁truly	-10.3292
▁especially	-10.3292
▁coverage	-10.3293
▁college	-10.3294
girl	-10.3314
▁hrs	-10.3317
▁confirmed	-10.3321
/2020	-10.3325
flow	-10.3333
▁bidask	-10.3335
▁revenues	-10.3336
oas	-10.3336
brat	-10.3341
▁office	-10.3344
▁morgan	-10.3345
wa	-10.3352
▁happened	-10.3356
▁core	-10.3364
invest	-10.3377
-$	-10.3378
ice	-10.3381
vrab	-10.3382
▁allows	-10.3382
▁dapp	-10.3384
▁+4	-10.339
▁interested	-10.3396
▁90	-10.3398
▁speech	-10.3399
▁securities	-10.3399
▁livestream	-10.3401
▁etf	-10.3402
ti	-10.3402
▁distributed	-10.3405
▁selected	-10.3405
▁bro	-10.3405
▁provides	-10.3413
qui	-10.3413
▁en	-10.3419
▁bi	-10.342
▁living	-10.342
▁eyes	-10.3432
!!!!!	-10.3442
▁caught	-10.3442
kwbt	-10.3442
utc	-10.3442
▁drawn	-10.3445
pl	-10.3467
▁❤	-10.347
gto	-10.3473
▁exclusive	-10.3475
▁battery	-10.3475
▁supports	-10.3476
▁host	-10.3487
0.000	-10.3487
gy	-10.3498
bf	-10.3503
▁earlier	-10.3507
contest	-10.3515
▁turned	-10.3524
▁california	-10.3526
nc	-10.3532
tip	-10.3535
▁subs	-10.3548
▁reserve	-10.3549
▁opening	-10.3553
▁di	-10.356
▁woman	-10.3564
ray	-10.3564
▁fair	-10.357
▁expectations	-10.3572
emp	-10.3579
▁fda	-10.3588
xo	-10.3591
ama	-10.3597
tril	-10.3598
save	-10.3603
copper	-10.3605
▁movements	-10.3613
▁launching	-10.3614
▁exactly	-10.3617
▁talks	-10.3619
▁joining	-10.3625
▁completely	-10.3627
▁funding	-10.3631
bet	-10.3631
emc	-10.3634
ii	-10.3635
cyio	-10.364
▁70	-10.3645
ld	-10.3645
▁mil	-10.3649
▁federal	-10.3655
▁fa	-10.3655
▁peak	-10.3657
ddog	-10.3658
▁mass	-10.3663
5,000	-10.3666
▁clean	-10.3667
▁bob	-10.3672
easy	-10.3674
▁canadian	-10.3675
bra	-10.3678
▁safety	-10.3682
rdd	-10.3685
▁holder	-10.3692
▁locked	-10.3693
mill	-10.3694
▁trillion	-10.3696
optionstrading	-10.3698
▁....	-10.3699
kt	-10.3701
staking	-10.3703
▁exposure	-10.3704
▁received	-10.3706
▁wanted	-10.373
aim	-10.3736
▁central	-10.3743
bs	-10.3743
yum	-10.3745
▁margin	-10.3747
▁?$	-10.3751
▁king	-10.376
tronclass	-10.3761
dxcm	-10.3761
82	-10.3764
black	-10.3767
tn	-10.3775
▁tribute	-10.3779
▁design	-10.3779
ley	-10.3786
▁tasks	-10.379
▁pullback	-10.3794
▁sad	-10.3796
▁stores	-10.3798
▁road	-10.3803
600	-10.3809
▁handle	-10.3811
linkup	-10.382
ved	-10.382
nn	-10.3821
cw	-10.3824
▁discuss	-10.3826
eg	-10.3826
zi	-10.3829
▁afford	-10.3838
▁unique	-10.3839
▁randomly	-10.3839
▁fastest	-10.3841
with	-10.3844
ping	-10.3847
▁movement	-10.3848
▁outside	-10.3848
▁music	-10.3849
star	-10.3851
▁ten	-10.3851
▁withdraw	-10.3854
▁ath	-10.3869
▁ship	-10.3876
▁goddess	-10.388
ggsm	-10.3884
cha	-10.3885
▁20,000	-10.3887
▁2017	-10.3893
watch	-10.3895
▁walmart	-10.3903
mars	-10.3904
▁exciting	-10.3906
▁student	-10.3909
▁beyond	-10.3919
thr	-10.3925
lto	-10.3928
ors	-10.3931
dcd	-10.3933
max	-10.394
▁1500	-10.3946
lake	-10.3952
art	-10.3954
▁lifted	-10.3955
meli	-10.3956
▁cents	-10.3957
▁poll	-10.3966
gene	-10.3972
coinbase	-10.3973
.30	-10.3974
▁write	-10.3977
▁profitable	-10.3984
hyg	-10.4003
po	-10.4004
▁planet	-10.401
▁san	-10.4013
ls	-10.4017
amc	-10.4019
▁mentioned	-10.4019
▁happens	-10.4026
vir	-10.4027
▁young	-10.4028
⚡️	-10.4029
▁wealth	-10.4031
ntrr	-10.4043
su	-10.4048
honey	-10.4049
▁-3	-10.4052
ler	-10.4059
ww	-10.4074
▁page	-10.4074
smart	-10.4076
▁land	-10.4078
▁monster	-10.4079
▁3%	-10.4079
▁stage	-10.4082
aryc	-10.4084
▁legal	-10.4088
▁treasuries	-10.4103
▁opportunities	-10.4111
start	-10.4124
ace	-10.4124
tri	-10.4146
▁plc	-10.4155
elliottwave	-10.4157
▁micro	-10.4163
▁exceed	-10.4166
!!!.	-10.4166
▁women	-10.4184
okta	-10.4185
▁$75	-10.4189
agi	-10.419
▁biotech	-10.4204
▁hands	-10.4211
etp	-10.4212
▁pass	-10.4216
▁750	-10.4216
▁alts	-10.4216
lvs	-10.4226
▁tight	-10.4228
▁dick	-10.4228
may	-10.4237
ogn	-10.4239
▁2-	-10.4249
▁hide	-10.4256
▁1%	-10.4258
charts	-10.4258
▁fiat	-10.4259
boy	-10.4259
▁martin	-10.4268
▁heard	-10.4274
▁rank	-10.4275
▁ass	-10.4283
51	-10.4284
▁releases	-10.4287
cim	-10.4289
▁trouble	-10.4297
jnug	-10.4297
▁die	-10.4298
tilt	-10.4299
power	-10.4301
▁outlook	-10.4303
▁tried	-10.4306
tle	-10.4308
biel	-10.4313
▁pics	-10.4314
▁ka	-10.4315
▁♡	-10.433
sign	-10.4336
trv	-10.4337
wf	-10.4338
▁absolutely	-10.4346
lu	-10.4349
vrtx	-10.435
▁ticker	-10.4353
hk	-10.4357
▁benefit	-10.4378
▁et	-10.4383
zs	-10.439
▁cc	-10.4393
stockstotrade	-10.4393
▁hemp	-10.4416
▁wouldn	-10.442
bcc	-10.4421
▁sports	-10.4423
mil	-10.4424
oh	-10.4425
dan	-10.4432
▁vechain	-10.4434
▁fri	-10.4434
ep	-10.4435
snx	-10.4438
aoa	-10.4446
uri	-10.4447
▁automated	-10.4452
▁ra	-10.4453
winners	-10.4457
▁⏩	-10.4459
wit	-10.446
▁upgrades	-10.4463
▁lock	-10.4463
bud	-10.4464
trtc	-10.4464
▁machine	-10.4464
▁files	-10.4466
ass	-10.4475
etsy	-10.448
▁human	-10.4487
▁fine	-10.449
her	-10.4493
pla	-10.4494
▁finished	-10.4496
▁taken	-10.4508
ring	-10.4512
▁vaccine	-10.4514
▁ytd	-10.4515
shapp	-10.4523
dyn	-10.4525
extremely	-10.4525
▁picks	-10.4529
tcehy	-10.4535
rx	-10.4536
".	-10.4549
vlo	-10.4549
▁0.5	-10.4553
▁minimum	-10.4559
ktov	-10.4559
▁buyers	-10.456
ayx	-10.4572
▁cases	-10.4573
fa	-10.4582
auy	-10.4585
oy	-10.4588
tex	-10.4591
▁lo	-10.4601
▁buffett	-10.4608
▁missing	-10.4608
los	-10.4609
dpw	-10.4616
lp	-10.4622
▁hell	-10.4622
dn	-10.4623
let	-10.4626
▁insane	-10.4627
▁effect	-10.4631
shotgun	-10.4632
▁dropped	-10.4632
▁posts	-10.4635
1,	-10.464
mal	-10.4643
▁copper	-10.4645
▁johnson	-10.4647
cci	-10.4649
cern	-10.4651
▁wh	-10.4656
pot	-10.4665
▁consumer	-10.4667
▁insurance	-10.4675
tomi	-10.4678
▁♻️	-10.4681
▁treatment	-10.4682
vshc	-10.4682
dell	-10.4686
▁rev	-10.4688
blue	-10.469
▁include	-10.4692
▁score	-10.4699
vid	-10.4703
▁speed	-10.4705
marketing	-10.4706
gra	-10.4708
dev	-10.4708
▁groups	-10.471
apa	-10.4717
▁alone	-10.4725
▁#1	-10.4726
▁mkt	-10.4726
/10	-10.4731
▁setting	-10.4733
▁driving	-10.4734
dri	-10.4734
▁approval	-10.4754
▁contact	-10.4754
call	-10.4758
▁doubt	-10.4767
your	-10.477
trader	-10.4778
ning	-10.4785
viac	-10.4798
▁secret	-10.4802
eb	-10.4802
▁dapps	-10.4814
mvis	-10.4825
▁adds	-10.4834
corp	-10.4837
▁1.5	-10.484
tsn	-10.4844
▁giant	-10.4845
goldinusa	-10.4853
▁issued	-10.4855
▁initial	-10.4856
teum	-10.4857
.10	-10.4861
1.4	-10.4867
▁blow	-10.4873
▁greatest	-10.4889
▁water	-10.4892
▁gives	-10.4893
▁fear	-10.4899
▁cuts	-10.4903
sdrc	-10.4904
▁closer	-10.4904
biotech	-10.4908
▁?1	-10.4909
▁erc	-10.4911
pen	-10.4915
▁airdrops	-10.4916
ug	-10.4923
ens	-10.4924
▁pushing	-10.4927
▁deficit	-10.4928
▁sense	-10.4929
dirv	-10.493
sdc	-10.4932
cweb	-10.4937
eca	-10.4942
▁pos	-10.4952
date	-10.4959
dice	-10.496
done	-10.4968
▁letter	-10.497
fles	-10.4974
▁kyc	-10.4979
▁runner	-10.4979
▁outperform	-10.498
beam	-10.4989
drop	-10.4993
▁allow	-10.4994
▁♥️	-10.5005
▁coinbase	-10.5005
▁sick	-10.5006
ever	-10.5009
5.0	-10.5011
▁supporting	-10.5016
ostk	-10.5017
▁study	-10.5029
▁trimme	-10.5038
dl	-10.5042
head	-10.5053
▁incredible	-10.5054
▁expecting	-10.5054
▁additional	-10.5055
ctsi	-10.5059
▁11,	-10.5064
hl	-10.5067
▁protect	-10.5068
▁netflix	-10.5068
▁bell	-10.5071
cent	-10.5075
ctst	-10.5076
▁reasons	-10.5078
▁bancorp	-10.5078
og	-10.5082
tru	-10.509
▁businesses	-10.5091
dee	-10.5108
kmi	-10.5108
87%	-10.5112
fro	-10.5122
but	-10.5122
ay	-10.5129
▁divergence	-10.513
▁piece	-10.513
▁four	-10.5132
▁3-	-10.5134
▁||	-10.5135
fund	-10.5135
▁instantly	-10.5138
▁loading	-10.514
▁anticipate	-10.5141
▁gr	-10.5152
ye	-10.5153
▁gl	-10.5153
▁trader	-10.5155
find	-10.5157
▁shut	-10.516
▁$40	-10.5169
▁revs	-10.5171
stake	-10.5177
cusd	-10.5178
▁operating	-10.5181
▁haruto	-10.5182
▁factory	-10.5184
▁holds	-10.52
digi	-10.5203
▁increasing	-10.5207
krfg	-10.5207
tay	-10.5208
▁liquidity	-10.5221
unp	-10.5229
▁3000	-10.5229
fo	-10.5232
▁thin	-10.5233
pb	-10.5241
▁prior	-10.5258
▁75	-10.5261
▁cycle	-10.5263
▁notes	-10.5269
▁storage	-10.5272
rc	-10.5272
▁section	-10.5286
nfeng	-10.5299
ging	-10.5302
dhi	-10.5309
▁local	-10.5313
eu	-10.532
indu	-10.5321
▁allowed	-10.5323
nat	-10.5323
▁chief	-10.5331
ble	-10.5334
▁closes	-10.5334
▁ads	-10.5334
5000	-10.5335
▁cannot	-10.5335
▁tp	-10.5336
▁powered	-10.534
▁silver	-10.5356
▁po	-10.5362
▁eat	-10.5362
sngls	-10.5363
▁europe	-10.5368
well	-10.5378
@	-10.538
▁successful	-10.5384
ak	-10.5389
▁advisors	-10.539
▁bucks	-10.5391
▁iphone	-10.5397
nugt	-10.5399
cme	-10.5402
▁royalty	-10.5405
▁election	-10.541
7.5	-10.5411
▁count	-10.5413
asx	-10.5415
srne	-10.5421
vibi	-10.5426
▁1/2	-10.5436
▁leader	-10.5439
dbx	-10.5456
met	-10.5456
7%	-10.5459
▁recession	-10.5459
▁rewarded	-10.5461
lithium	-10.5461
▁donations	-10.5466
▁member	-10.5467
help	-10.5468
▁knows	-10.5468
▁gaming	-10.5471
▁screen	-10.5473
▁dr	-10.5477
▁32	-10.548
▁⚡	-10.5481
je	-10.5493
▁username	-10.5494
50%	-10.5495
▁everybody	-10.5495
ise	-10.5498
▁ongoing	-10.5506
za	-10.5509
▁upgrade	-10.5509
fire	-10.5513
huge	-10.5522
▁yeah	-10.5523
pld	-10.553
▁center	-10.5547
▁search	-10.5547
soundcloud	-10.5548
▁fell	-10.5551
hiph	-10.5556
▁keeping	-10.5559
▁tu	-10.5563
▁actual	-10.557
▁explode	-10.5574
see	-10.5588
green	-10.5588
cg	-10.5592
▁death	-10.5593
ln	-10.5594
global	-10.5602
ical	-10.5603
▁paper	-10.5607
▁approved	-10.5611
tif	-10.5614
▁discussed	-10.5619
des	-10.5625
▁ratings	-10.5636
jo	-10.5649
▁south	-10.5652
commodities	-10.5653
▁attempt	-10.5654
▁strategic	-10.5654
▁respect	-10.5654
growth	-10.5657
labs	-10.566
ence	-10.5662
cybr	-10.5668
▁700	-10.567
kss	-10.567
dht	-10.5672
long	-10.5677
▁rolling	-10.5678
▁industries	-10.568
▁comparison	-10.5681
mac	-10.569
les	-10.5691
▁recap	-10.5691
▁decline	-10.5693
▁summer	-10.57
mpc	-10.5703
/$	-10.5706
▁vehicle	-10.5706
▁plz	-10.5707
▁bollinger	-10.5708
oax	-10.5711
du	-10.5711
▁published	-10.5713
cryptotwitter	-10.5714
dcl	-10.5721
▁communications	-10.5726
▁players	-10.5731
czr	-10.5732
cse	-10.5736
▁wide	-10.5749
amtd	-10.5762
kucoin	-10.5766
▁travel	-10.5771
▁clients	-10.5771
corn	-10.5774
btm	-10.5777
▁united	-10.5789
zz	-10.5794
▁snapchat	-10.5805
vox	-10.5805
▁ju	-10.5807
▁install	-10.5813
banktank	-10.5817
0.4	-10.582
nvs	-10.5834
jeffreestarappro	-10.5837
2%	-10.5843
▁kick	-10.5844
eols	-10.5847
ef	-10.5849
▁gf	-10.5849
ceo	-10.585
alk	-10.5852
chkp	-10.5854
vate	-10.5855
usb	-10.5856
ung	-10.5862
lm	-10.5864
▁id	-10.5867
mas	-10.5869
pu	-10.587
▁sw	-10.587
ix	-10.5872
▁fin	-10.5874
▁ran	-10.5879
▁reality	-10.5879
▁partnerships	-10.588
hog	-10.5882
side	-10.5891
▁600	-10.5895
tsx	-10.5898
▁expensive	-10.5898
▁⏳	-10.5907
▁gem	-10.5909
▁court	-10.5912
sw	-10.5919
race	-10.5922
cof	-10.5927
▁reporting	-10.5928
▁charge	-10.5928
▁nobody	-10.5932
vg	-10.5934
▁spam	-10.5934
hum	-10.5935
ez	-10.5939
▁feature	-10.5943
▁broken	-10.5946
book	-10.5956
swks	-10.5958
▁ai	-10.5962
▁words	-10.5963
▁repost	-10.5963
rr	-10.5964
▁fu	-10.5964
▁thru	-10.5975
▁profile	-10.5975
cli	-10.5976
▁advantage	-10.5983
▁law	-10.5983
manu	-10.5983
▁hitting	-10.5988
tube	-10.6003
▁innovation	-10.6003
open	-10.6011
lee	-10.6015
pink	-10.6031
▁decision	-10.6039
taylor	-10.6039
bri	-10.6046
▁movers	-10.6048
▁??‍♂️	-10.6048
google	-10.6049
shill	-10.6054
drep	-10.6059
txt	-10.606
prgo	-10.6072
▁macd	-10.6073
▁alt	-10.6074
▁737	-10.6076
rtn	-10.6076
mobile	-10.608
hosted	-10.6081
▁quickly	-10.6081
noc	-10.6086
▁grand	-10.61
vol	-10.6107
1.00	-10.6107
▁lines	-10.6108
cara	-10.6114
adp	-10.6115
check	-10.6116
▁banking	-10.6118
▁throw	-10.6122
siml	-10.6123
iff	-10.6125
qlc	-10.6126
tmo	-10.6128
▁40%	-10.6136
will	-10.6144
▁worry	-10.6151
wdc	-10.6156
▁six	-10.6164
▁deliver	-10.6168
▁log	-10.6174
what	-10.6177
independenceday	-10.6179
▁borrow	-10.6179
▁spent	-10.618
▁notifications	-10.6183
pp	-10.6185
▁2021	-10.6185
give	-10.6188
pd	-10.6193
trb	-10.6196
▁0.2	-10.6199
amt	-10.6203
ari	-10.6207
tronscan	-10.6208
▁truck	-10.6209
cri	-10.6222
xx	-10.6226
vn	-10.623
▁asked	-10.6234
npw	-10.6235
best	-10.6235
▁quote	-10.6236
▁truth	-10.6236
mb	-10.6238
led	-10.6238
ctsh	-10.6239
▁fix	-10.6242
▁(2	-10.6246
▁drug	-10.6251
▁⚠️	-10.6279
250	-10.628
▁downgrades	-10.6291
▁raising	-10.6293
rxmd	-10.6294
wb	-10.6295
▁bond	-10.6297
nix	-10.6302
▁highly	-10.6302
▁advance	-10.6304
coty	-10.6313
tjx	-10.6313
ator	-10.6318
ization	-10.6321
▁afternoon	-10.6322
▁ground	-10.6323
gcr	-10.6325
▁blood	-10.6327
▁wedge	-10.6329
rune	-10.633
▁????????	-10.6332
▁wallets	-10.6332
▁children	-10.6333
ial	-10.6335
▁subscription	-10.6339
ttnp	-10.6343
▁✔	-10.6349
▁dear	-10.6351
▁hoping	-10.6352
tndm	-10.6352
inpx	-10.6355
▁series	-10.6361
dltr	-10.6363
rk	-10.6363
ions	-10.6364
▁wild	-10.6369
price	-10.6372
fetish	-10.6372
wn	-10.6374
▁kucoin	-10.6377
znga	-10.6381
wpr	-10.6382
riot	-10.6385
▁amid	-10.6386
▁includes	-10.6392
▁developers	-10.6397
bax	-10.6398
▁touch	-10.64
▁directly	-10.6401
update	-10.6408
▁critical	-10.6409
▁cu	-10.641
▁presentation	-10.6411
ptc	-10.6416
▁prime	-10.6426
nft	-10.6429
sierra	-10.6438
dhr	-10.6439
gbpusd	-10.6439
0000	-10.644
disca	-10.6441
kl	-10.6441
0.5	-10.6445
war	-10.645
▁dips	-10.6454
▁uk	-10.6461
exp	-10.6466
kync	-10.6468
▁worse	-10.6469
gb	-10.6469
wsj	-10.647
hpq	-10.647
mic	-10.6473
pacv	-10.6476
▁highlights	-10.6478
▁humanatm	-10.6493
xdn	-10.6494
▁bags	-10.6494
▁macro	-10.6496
pbr	-10.6499
stz	-10.65
▁accept	-10.6502
vs	-10.6504
▁rocket	-10.6511
-10	-10.6513
▁???????	-10.6516
ana	-10.6518
pped	-10.6524
▁awareness	-10.6525
▁jpmorgan	-10.6526
lan	-10.6526
▁reminder	-10.6529
▁dumb	-10.6532
▁keeps	-10.6533
catfish	-10.6534
fang	-10.6534
apc	-10.6535
▁continued	-10.6542
▁benefits	-10.6543
▁pic	-10.6544
▁heavy	-10.6556
coinsto	-10.6558
ptam	-10.656
bioc	-10.656
pred	-10.6562
dock	-10.6564
ron	-10.657
▁covered	-10.6581
▁(10	-10.6587
coll	-10.6591
▁original	-10.6595
1000	-10.6612
bis	-10.6614
meme	-10.6615
house	-10.6621
lc	-10.6627
ding	-10.663
int	-10.6638
iz	-10.6643
▁snapshot	-10.6644
py	-10.6645
▁challenge	-10.6647
▁knock	-10.6647
dp	-10.6647
too	-10.6651
▁$0.01	-10.6657
ious	-10.666
ji	-10.666
▁produced	-10.6662
hoo	-10.6662
▁launchpad	-10.6663
▁predict	-10.6669
cvna	-10.6674
qalb	-10.6676
▁act	-10.6676
▁demo	-10.6678
20%	-10.6681
▁scheduled	-10.6682
▁lie	-10.6683
▁cards	-10.6684
▁defi	-10.6689
▁.01	-10.6689
cal	-10.6698
ctxc	-10.6704
cubv	-10.6706
eat	-10.6706
card	-10.6709
**	-10.6714
▁lu	-10.6718
▁shortly	-10.6723
cet	-10.6734
social	-10.6737
▁approach	-10.6739
wft	-10.6739
▁vip	-10.674
fn	-10.6742
tur	-10.6753
▁accumulation	-10.6754
▁35	-10.6758
community	-10.6761
cmc	-10.6761
reward	-10.6762
▁coffee	-10.6764
ite	-10.6765
▁10:00	-10.6766
▁wa	-10.6791
▁industrial	-10.6791
han	-10.6792
▁pinned	-10.6794
sntvt	-10.6794
finsub	-10.6799
dgly	-10.6804
gsk	-10.6806
▁feet	-10.6808
▁0.05	-10.6814
tree	-10.6818
tera	-10.682
▁kill	-10.6822
edit	-10.6824
ddd	-10.6824
▁sex	-10.6828
world	-10.683
▁enable	-10.6831
light	-10.6838
px	-10.684
lg	-10.6843
▁grandma	-10.6851
tnk	-10.6853
curlf	-10.6856
fxi	-10.686
port	-10.6865
technews	-10.6868
00%	-10.6869
mos	-10.6874
any	-10.6879
sap	-10.6882
zhud	-10.6885
▁facts	-10.6889
▁blessed	-10.6898
▁oracle	-10.6904
▁result	-10.6905
▁flash	-10.691
▁vehicles	-10.6912
▁ban	-10.6915
▁rather	-10.6915
▁hopefully	-10.6915
mg	-10.6917
▁sleep	-10.692
kick	-10.6926
hu	-10.6928
board	-10.6929
uk	-10.6934
twx	-10.6934
xy	-10.6937
aw	-10.6937
▁mode	-10.6945
friday	-10.6954
unrg	-10.6955
crude	-10.6955
▁failed	-10.6956
▁$1,	-10.6959
▁launches	-10.6961
▁-4	-10.6964
safe	-10.6972
▁education	-10.6973
nr	-10.6979
▁valid	-10.698
▁incoming	-10.6983
0,000	-10.6987
▁patience	-10.699
boeing	-10.6991
▁su	-10.6996
▁li	-10.6999
5.00	-10.7
ask	-10.7013
flex	-10.7014
network	-10.7018
dfs	-10.7023
matt	-10.7024
dyor	-10.7024
▁rip	-10.7027
mux	-10.7028
▁800	-10.7029
rht	-10.7033
▁claims	-10.7039
pic	-10.7052
▁spin	-10.7056
perl	-10.7057
dna	-10.7061
▁sept	-10.7068
▁outstanding	-10.7069
▁subscribers	-10.7071
[	-10.7083
?!	-10.7084
▁former	-10.7088
▁transfer	-10.7096
irbt	-10.71
▁stupid	-10.7101
▁recovery	-10.7103
▁retest	-10.7115
▁$20,000.	-10.7115
▁$$$	-10.7118
▁mi	-10.712
▁avoid	-10.712
▁filled	-10.7123
point	-10.7125
▁podcast	-10.7127
▁signs	-10.7132
▁---	-10.7133
dec	-10.7135
▁worked	-10.7142
tell	-10.715
▁4)	-10.7156
mara	-10.7157
ikto	-10.7159
▁owner	-10.7163
make	-10.7163
core	-10.7167
▁anymore	-10.7168
▁sheet	-10.7169
ability	-10.7175
▁walt	-10.7175
▁pleased	-10.7178
▁plant	-10.718
▁dream	-10.7184
▁2.5	-10.7189
▁explain	-10.7192
▁bitmex	-10.7193
dynmt	-10.7194
▁countries	-10.7194
▁door	-10.7194
▁north	-10.7198
2:	-10.7205
din	-10.7212
people	-10.7212
▁te	-10.7219
ard	-10.7223
▁wasn	-10.7227
abbc	-10.7229
vis	-10.723
vtr	-10.7234
cag	-10.7243
cure	-10.7243
▁request	-10.7251
▁symbol	-10.7257
▁putting	-10.7262
dbmm	-10.7264
mag	-10.7265
▁whatever	-10.7267
profit	-10.7269
▁2008	-10.727
▁signed	-10.727
sil	-10.7275
▁+5	-10.7282
men	-10.7282
ible	-10.7282
sr	-10.7283
▁loan	-10.7284
▁pain	-10.7286
▁stanley	-10.7288
▁freedom	-10.7304
nbr	-10.7308
stockoptions	-10.7315
▁25000	-10.7317
▁expansion	-10.732
▁greater	-10.7321
pfms	-10.7323
chgg	-10.7324
▁venture	-10.7324
ava	-10.7329
▁sweet	-10.7335
hp	-10.7337
nept	-10.7338
▁triple	-10.734
1:	-10.7342
digital	-10.7343
3.5	-10.7348
daily	-10.7351
▁cent	-10.7354
mjna	-10.7354
▁hairy	-10.7355
ali	-10.7362
voo	-10.7364
▁revolution	-10.7366
▁coinkit	-10.7366
▁hasn	-10.7367
150	-10.737
▁pharma	-10.7372
master	-10.7375
▁tr	-10.7376
▁tx	-10.7377
lux	-10.7381
kgkg	-10.7384
▁creating	-10.7384
breaking	-10.7386
lqd	-10.7386
crsp	-10.7389
gpro	-10.7392
hsr	-10.7393
▁attack	-10.7401
coo	-10.7403
▁si	-10.7407
run	-10.7408
£	-10.7412
1.2	-10.7412
▁decent	-10.7413
exc	-10.7415
▁excellent	-10.7416
▁fresh	-10.7419
▁50000	-10.742
▁ft	-10.7423
oo	-10.7424
▁fargo	-10.7428
cdns	-10.7431
▁goldman	-10.7431
▁lives	-10.7432
▁mis	-10.7432
duk	-10.7434
cree	-10.7439
▁45	-10.7454
▁jim	-10.7457
▁bounty	-10.7469
moon	-10.7472
▁heading	-10.7476
clsh	-10.7476
▁ways	-10.7476
ftc	-10.7476
▁reduction	-10.748
strong	-10.7481
▁deliveries	-10.7481
▁difference	-10.7482
▁ice	-10.749
4,	-10.7494
▁rob	-10.7499
pgr	-10.7504
▁marijuana	-10.7505
▁estimate	-10.7505
▁operations	-10.7513
▁situation	-10.7513
▁floor	-10.7513
▁2016	-10.7514
izing	-10.7514
▁cold	-10.752
▁however	-10.7521
▁surge	-10.7522
load	-10.7528
▁virtual	-10.753
▁misses	-10.7531
xly	-10.7531
▁daughter	-10.7532
▁addition	-10.7534
▁vision	-10.7535
▁terrori	-10.7537
▁airlines	-10.754
vin	-10.7541
▁15%	-10.7542
domme	-10.7542
die	-10.7543
enph	-10.7545
▁blog	-10.7548
▁mcap	-10.7548
▁laid	-10.7548
▁limit	-10.7549
▁se	-10.7561
gambling	-10.7574
group	-10.7576
▁statement	-10.7579
cien	-10.7579
▁completed	-10.7579
spr	-10.758
▁scalp	-10.7582
▁totally	-10.7584
▁powerful	-10.7584
bu	-10.7588
press	-10.7593
▁maker	-10.7595
▁longs	-10.7596
sco	-10.7597
dre	-10.7601
▁texas	-10.7604
▁deserve	-10.7609
▁lil	-10.761
▁3️⃣	-10.761
▁sir	-10.7612
eco	-10.7617
▁verizon	-10.7619
tim	-10.7623
▁fuel	-10.7629
expe	-10.7629
▁entered	-10.7632
chf	-10.7633
implied	-10.7643
▁involved	-10.7643
cashapphalloween	-10.7643
libe	-10.7647
▁commercial	-10.7647
▁eu	-10.7648
▁print	-10.7657
lcx	-10.7659
xlv	-10.7661
its	-10.7661
▁dilution	-10.7662
▁killer	-10.767
▁boosted	-10.767
fox	-10.7675
▁response	-10.7676
mrvl	-10.7677
usdjpy	-10.7677
scc	-10.7684
/30	-10.7688
▁shopping	-10.7692
listing	-10.7695
▁finish	-10.7698
▁neutral	-10.7698
fy	-10.7702
soly	-10.7703
▁raises	-10.7705
gem	-10.7706
atesomethingcool	-10.7709
▁york	-10.7709
▁compensation	-10.7709
owcp	-10.771
mdb	-10.7711
pf	-10.7713
ue	-10.7721
▁correct	-10.7723
▁couldn	-10.7724
▁wed	-10.7724
▁pack	-10.7724
dgx	-10.7727
▁terms	-10.773
▁hurt	-10.7733
3.6	-10.7734
var	-10.7736
▁itself	-10.7737
▁themselves	-10.7742
otcqb	-10.7742
uavs	-10.7743
▁scale	-10.7744
▁cup	-10.7745
xlu	-10.7749
cavr	-10.7749
omni	-10.7751
▁yoy	-10.7751
unt	-10.7756
put	-10.7769
▁shared	-10.777
▁certain	-10.777
▁2:	-10.7771
▁art	-10.7772
cyfm	-10.7776
23%	-10.7778
-4	-10.778
▁tri	-10.7781
htsc	-10.7787
▁sha	-10.7789
▁forever	-10.779
tem	-10.7791
yla	-10.7793
pti	-10.7797
▁executive	-10.7803
▁36	-10.7806
skdi	-10.781
▁overbought	-10.781
cxxi	-10.781
tz	-10.7811
den	-10.7812
cho	-10.7818
0|	-10.7819
▁fail	-10.7827
evs	-10.7828
banc	-10.7829
uff	-10.7831
spec	-10.7841
▁figure	-10.7846
▁produce	-10.7861
▁telling	-10.7866
aks	-10.7867
solve	-10.7871
^	-10.7876
▁advice	-10.7876
ham	-10.7876
▁structure	-10.7876
ory	-10.7879
ative	-10.788
▁warren	-10.7881
ell	-10.7882
coval	-10.7885
masternode	-10.7888
fintwit	-10.7888
cldx	-10.7892
feye	-10.7893
btcusd	-10.7899
▁classic	-10.7899
nz	-10.7901
capr	-10.7913
xi	-10.7914
ow	-10.7915
please	-10.7917
order	-10.7919
pre	-10.792
tap	-10.7926
▁1:	-10.7928
▁~$	-10.7931
▁begins	-10.7938
▁metals	-10.7941
▁mission	-10.7941
kai	-10.7941
\	-10.7943
1.7	-10.7945
sfix	-10.7945
▁honestly	-10.7946
▁image	-10.7947
henc	-10.7948
lab	-10.7948
microsoft	-10.7951
▁exit	-10.7953
iv	-10.7953
▁flat	-10.796
▁➕	-10.796
wi	-10.7963
eon	-10.7963
▁nudes	-10.7965
▁(8	-10.7971
fan	-10.7972
▁normal	-10.7972
uf	-10.7974
▁collect	-10.7975
telcoin	-10.7984
▁tags	-10.7985
femdom	-10.7986
letsc	-10.7987
▁gigafactory	-10.7988
webull	-10.7991
▁cheaper	-10.7993
▁0.002	-10.7997
▁?1000	-10.7997
▁dog	-10.7997
▁infrastructure	-10.8
▁ph	-10.8003
pow	-10.8004
—	-10.8009
▁utility	-10.8011
▁ownership	-10.8012
▁foundation	-10.8015
▁candle	-10.8017
.08	-10.8017
▁cra	-10.8019
▁sound	-10.8021
▁android	-10.8023
▁bitch	-10.8023
wll	-10.8025
▁decide	-10.8026
▁3:	-10.8027
ipo	-10.8027
sls	-10.8032
▁often	-10.8034
▁femdom	-10.8039
▁rapid	-10.8041
gps	-10.8041
arknet	-10.8042
▁fl	-10.8044
▁episode	-10.8045
lfa	-10.8046
mxm	-10.8055
-#	-10.8062
▁killing	-10.8062
▁80%	-10.8063
▁changed	-10.8067
hsy	-10.8068
cny	-10.8076
ads	-10.8079
ctxs	-10.8081
▁delta	-10.8084
▁ball	-10.8088
from	-10.8092
decentralized	-10.8094
▁men	-10.8097
miota	-10.8099
▁repo	-10.8103
▁crossed	-10.8108
▁starbucks	-10.8114
▁stimulus	-10.8114
jbht	-10.8114
nnvc	-10.8115
hmny	-10.8117
▁enters	-10.8119
ium	-10.8119
cocp	-10.8126
patent	-10.8127
▁boys	-10.813
gal	-10.8133
slave	-10.8137
▁investments	-10.8138
▁trends	-10.8138
▁role	-10.8142
▁masternode	-10.8144
▁tend	-10.8145
▁steady	-10.8148
▁ghosted	-10.815
pura	-10.815
▁function	-10.8151
▁entertainment	-10.8159
research	-10.8163
eurn	-10.8165
▁patient	-10.817
dividend	-10.8173
cve	-10.8178
▁opened	-10.8179
▁savings	-10.8179
▁notable	-10.8181
▁song	-10.8185
▁percent	-10.8186
brent	-10.8187
vmw	-10.8193
dt	-10.8197
▁seem	-10.8198
▁125	-10.8199
▁remains	-10.8205
▁perform	-10.8207
vl	-10.8207
▁hearing	-10.8208
▁upper	-10.8208
cking	-10.8211
chok	-10.8216
-15	-10.8217
▁bears	-10.8217
▁basic	-10.8217
lv	-10.8222
▁ended	-10.8222
opk	-10.8223
lea	-10.8231
watchlist	-10.8235
eq	-10.8242
▁known	-10.8242
▁father	-10.8244
irwd	-10.8253
tcnnf	-10.8253
▁sitting	-10.8253
▁wk	-10.8258
▁deals	-10.8258
▁registrations	-10.8259
hive	-10.8263
▁cnbc	-10.8266
▁clearly	-10.8266
▁-------------	-10.8271
▁table	-10.8275
bag	-10.8276
▁twt	-10.828
▁impossible	-10.8287
▁tipped	-10.8288
▁friendly	-10.829
▁gu	-10.8292
▁links	-10.83
▁gen	-10.8301
flo	-10.8301
pump	-10.8306
cbsh	-10.8307
▁meta	-10.8314
macro	-10.8314
wh	-10.8316
▁weight	-10.8317
sto	-10.832
ford	-10.8322
▁↘️	-10.8323
▁wi	-10.8324
▁spoil	-10.8325
1.6	-10.8326
▁thousands	-10.8327
1908	-10.8329
▁jun	-10.8331
▁cum	-10.8332
▁yo	-10.8335
▁fixed	-10.8337
mln	-10.8344
▁miners	-10.8344
▁deposits	-10.8345
▁casino	-10.8348
▁korea	-10.8352
▁semi	-10.8353
edu	-10.8354
cnwhf	-10.8358
▁repeat	-10.8358
nmo	-10.8368
mtch	-10.8375
dmme	-10.8378
▁body	-10.8383
inkw	-10.839
▁surprised	-10.8391
they	-10.8391
▁tool	-10.8394
▁tough	-10.8394
dra	-10.8398
cocos	-10.84
▁invested	-10.84
panw	-10.8402
▁force	-10.8405
▁customer	-10.8412
▁tho	-10.8417
11%	-10.842
vic	-10.8422
▁tipping	-10.8422
▁speak	-10.8425
▁changing	-10.8425
▁fighting	-10.8426
rds	-10.8427
brought	-10.8429
▁flip	-10.8431
▁broad	-10.8432
cum	-10.8433
okb	-10.8435
auto	-10.8442
ipi	-10.8442
adxs	-10.845
▁wells	-10.8451
tips	-10.8452
▁golden	-10.8455
maga	-10.8456
ology	-10.8458
4.5	-10.8458
▁tick	-10.846
0.04	-10.8464
tern	-10.8464
kmb	-10.8464
▁purpose	-10.8466
hours	-10.8467
pac	-10.8473
▁seriously	-10.8473
gar	-10.8475
▁verified	-10.8476
▁altcoins	-10.8476
wy	-10.8479
▁cisco	-10.8483
+8)	-10.8487
cig	-10.8489
gu	-10.8489
▁crude	-10.849
first	-10.849
-2	-10.8494
gme	-10.8495
▁consolidation	-10.85
▁directors	-10.8502
eltz	-10.8503
ina	-10.8507
▁(3	-10.8511
vgw	-10.8512
vrc	-10.8515
rmsl	-10.8515
▁fud	-10.8518
insta	-10.8519
sig	-10.852
▁ni	-10.8525
whr	-10.8526
ief	-10.8528
sen	-10.8534
▁fi	-10.8534
vbiv	-10.8536
▁downside	-10.8543
!???	-10.8545
leg	-10.8546
▁forming	-10.8548
upped	-10.855
▁pink	-10.8552
she	-10.8553
-3	-10.8555
xlp	-10.8558
30%	-10.8559
⬇️	-10.8563
??‍♂️	-10.8563
tradingview	-10.8563
cpc	-10.8565
▁overnight	-10.8574
trf	-10.8574
▁direction	-10.8574
▁john	-10.8575
.44	-10.8579
pix	-10.8586
▁exp	-10.8589
ease	-10.8592
masternodes	-10.8593
▁2500	-10.8595
only	-10.8596
gam	-10.8598
tsoi	-10.8608
22%	-10.861
▁problems	-10.8611
▁manufacturing	-10.8612
rcn	-10.862
feet	-10.8627
▁prove	-10.863
▁node	-10.8635
dump	-10.8637
worth	-10.8638
▁patients	-10.8639
1.8	-10.8639
▁ladder	-10.8644
▁stable	-10.8649
tqqq	-10.865
.03	-10.8652
grc	-10.8654
tick	-10.8659
▁01	-10.8661
▁wonderful	-10.8661
▁opt	-10.8662
xin	-10.8664
▁shorting	-10.8666
ria	-10.8672
▁imp	-10.8678
▁rebound	-10.8681
bil	-10.8681
wtrh	-10.8682
tomochain	-10.8684
technologynews	-10.8692
▁jo	-10.8693
ang	-10.8694
▁fav	-10.8696
viab	-10.8711
▁ah	-10.8717
▁keynote	-10.8717
?️	-10.8722
▁loans	-10.8723
tain	-10.8728
▁+2%	-10.8731
ill	-10.8733
queen	-10.8735
▁train	-10.8738
ple	-10.8744
▁unit	-10.8747
health	-10.8749
▁copy	-10.8758
happy	-10.8762
ieo	-10.8766
34%	-10.877
▁followed	-10.877
bear	-10.8778
icn	-10.8782
1.1	-10.8784
security	-10.8786
▁capacity	-10.879
▁illegal	-10.879
marianalithium	-10.879
bmix	-10.879
▁tickets	-10.8792
oceanex	-10.8793
▁inbox	-10.8794
vive	-10.8797
hand	-10.8805
bhp	-10.8807
❤	-10.881
▁feels	-10.8811
▁snap	-10.8811
▁treat	-10.8815
dust	-10.8819
hai	-10.8821
▁platforms	-10.8822
cloud	-10.8826
aid	-10.8827
cerpq	-10.8827
▁receiving	-10.8827
lets	-10.8834
ight	-10.8848
mfa	-10.8848
2.00	-10.8851
catex	-10.8853
▁wife	-10.8854
▁nyse	-10.8855
▁shop	-10.8856
▁huobi	-10.8858
▁wars	-10.8859
ora	-10.886
tweet	-10.886
lite	-10.8862
vnq	-10.8863
=$	-10.8863
ahontas	-10.8864
rentrelief	-10.8864
mdlz	-10.8864
gdet	-10.8867
▁korean	-10.8871
16%	-10.8873
frm	-10.8878
▁saturday	-10.8883
bee	-10.8887
▁2020-0	-10.8888
care	-10.8889
akam	-10.8891
▁04	-10.8892
▁photo	-10.8893
▁ti	-10.8895
tho	-10.8897
▁suggest	-10.8897
▁frame	-10.8901
▁terrible	-10.8901
▁switch	-10.8904
swingtrading	-10.8904
▁breakdown	-10.8905
▁application	-10.8906
bix	-10.8906
ier	-10.8907
▁ones	-10.8911
▁goodluck	-10.8911
▁owned	-10.8914
▁becoming	-10.8919
▁tickers	-10.8927
23.	-10.8929
riv	-10.893
▁03	-10.8932
▁4%	-10.8934
▁↗️	-10.8939
wkhs	-10.8939
▁prediction	-10.894
bearish	-10.8942
pping	-10.8947
▁lithium	-10.8948
▁combo	-10.8948
dlcr	-10.8948
poa	-10.8957
phil	-10.8958
cms	-10.8958
▁developer	-10.8959
bpth	-10.8963
pbio	-10.8963
gan	-10.8964
▁equal	-10.8966
▁spending	-10.8967
xbt	-10.8973
▁2019-05-	-10.8976
®	-10.8976
▁police	-10.8976
sunnetwork	-10.8976
swarm	-10.8977
??????	-10.8977
▁sky	-10.8979
▁tired	-10.8983
momo	-10.8987
babe	-10.8988
▁integration	-10.899
pet	-10.8994
▁diamond	-10.8995
ihub	-10.8995
sat	-10.9001
▁sea	-10.9004
▁owners	-10.9004
▁billions	-10.9005
reaching	-10.9007
crex	-10.9008
games	-10.9009
▁color	-10.901
bzun	-10.9014
▁battle	-10.9014
humanatm	-10.9018
▁hourly	-10.9023
ctrm	-10.9034
888	-10.9035
efl	-10.9039
casino	-10.9051
dwdp	-10.9052
▁pending	-10.9053
gifx	-10.9053
▁turning	-10.906
▁gmt	-10.9062
▁overall	-10.9068
▁predictions	-10.9073
ther	-10.9075
▁os	-10.9076
▁vids	-10.9077
▁//	-10.9081
▁delivered	-10.9087
▁stories	-10.9089
▁stopped	-10.909
▁somebody	-10.9094
law	-10.9095
9%	-10.9097
giving	-10.9098
eye	-10.9102
mda	-10.9102
▁dark	-10.9103
▁btw	-10.9103
123	-10.9104
▁enterprise	-10.9106
▁pure	-10.9106
clam	-10.9109
▁dice	-10.9119
▁wondering	-10.9122
25%	-10.9123
▁survey	-10.9124
ward	-10.9127
▁labor	-10.9127
▁milestone	-10.9127
▁catex	-10.9131
aq	-10.9139
▁nicely	-10.9141
igen	-10.9142
▁professional	-10.9142
▁club	-10.9144
▁apply	-10.9147
how	-10.9149
▁52-	-10.915
▁beast	-10.915
gbp	-10.9151
vstr	-10.9157
made	-10.9157
rna	-10.9158
▁audit	-10.9164
donlingold	-10.9166
✊	-10.9166
▁celebrating	-10.9166
tot	-10.9166
▁sc	-10.9166
▁knew	-10.9168
trdx	-10.9169
▁successfully	-10.9173
mmen	-10.9175
▁sep	-10.9176
nna	-10.9181
1.8%	-10.919
▁standard	-10.9197
old	-10.9202
▁officer	-10.9202
▁vid	-10.9204
▁except	-10.9204
¢	-10.9204
▁impressive	-10.9204
▁scary	-10.9204
▁radar	-10.9205
lic	-10.9205
vefam	-10.9207
mommy	-10.9208
▁combined	-10.9211
code	-10.9212
iii	-10.9216
▁alerted	-10.9218
deck	-10.922
msi	-10.9225
▁joke	-10.9226
▁cant	-10.9231
adi	-10.9231
/29	-10.9234
ney	-10.9236
▁def	-10.924
▁curve	-10.9243
ified	-10.9246
▁material	-10.9247
▁epic	-10.9247
bam	-10.9248
sny	-10.9248
▁pumping	-10.9249
appl	-10.9249
nov	-10.9249
comm	-10.9249
▁lunch	-10.925
ure	-10.9253
bloomberg	-10.9254
wood	-10.9255
▁sp	-10.9261
▁holy	-10.9266
▁02	-10.9274
happ	-10.9275
▁roi	-10.9279
cut	-10.9279
store	-10.928
burst	-10.9285
cpb	-10.9286
▁op	-10.929
/27	-10.9291
paypal	-10.9295
ppc	-10.9295
baz	-10.9299
▁realty	-10.9299
▁improve	-10.93
apl	-10.93
disney	-10.9302
▁tune	-10.9306
▁oi	-10.9311
dsla	-10.9313
▁$1,000	-10.9314
▁acquired	-10.9317
next	-10.9317
▁hype	-10.9318
sectorselector	-10.932
cennz	-10.932
29%	-10.9321
▁$15000:	-10.9322
▁race	-10.9326
▁visa	-10.9326
dope	-10.9327
test	-10.9329
❌	-10.9334
vx	-10.9334
▁pps	-10.9338
infy	-10.9338
▁follower	-10.9338
▁achieve	-10.9339
▁grade	-10.9341
mid	-10.9342
ner	-10.9342
2.0	-10.9343
36%	-10.9346
.01	-10.9351
5.5	-10.9351
▁cmc	-10.9357
currency	-10.9357
▁license	-10.9363
chl	-10.9368
386	-10.9369
▁promo	-10.9369
▁inter	-10.9371
lowest	-10.9372
▁falls	-10.9372
tsxv	-10.9374
▁0.001	-10.9375
when	-10.9376
canb	-10.9383
▁realize	-10.9384
▁submit	-10.9384
▁wrap	-10.9386
forbes	-10.9387
dbc	-10.9387
▁bouncing	-10.9398
▁summary	-10.9398
▁institutional	-10.9398
2000	-10.9399
▁european	-10.9399
▁household	-10.94
0.3%	-10.9408
▁bullie	-10.9408
▁integrated	-10.9413
btcd	-10.9415
dapscoin	-10.9415
▁34	-10.9418
nic	-10.9419
▁highlight	-10.9427
ide	-10.943
12500	-10.9432
▁exits	-10.9433
veev	-10.9434
▁collapse	-10.9437
▁versus	-10.9437
▁james	-10.9437
socialmedia	-10.9437
eri	-10.944
5)	-10.9442
▁attacks	-10.9442
▁sessions	-10.9443
▁lifetime	-10.9446
lx	-10.9446
cbbt	-10.9449
mx	-10.945
nce	-10.9452
corona	-10.9456
gis	-10.9457
▁shoot	-10.9462
plan	-10.9463
▁stick	-10.9467
trend	-10.9468
.80	-10.947
▁posting	-10.9475
▁represent	-10.9475
▁okay	-10.9477
666	-10.9478
▁reaction	-10.9479
txhd	-10.9485
▁bb	-10.9487
▁surveys	-10.9496
▁algo	-10.9499
?‍?	-10.95
▁connect	-10.9502
▁2.5%	-10.9502
col	-10.9509
▁unusual	-10.9511
▁pu	-10.9511
▁drink	-10.9516
▁false	-10.9516
▁declare	-10.9516
crct	-10.9518
▁fsd	-10.952
63%	-10.952
dmg	-10.9521
marie	-10.9524
▁shipping	-10.9524
▁rare	-10.9527
hedg	-10.9531
▁anonymous	-10.9534
boom	-10.9534
shi	-10.9539
▁items	-10.9545
▁333	-10.9551
chainlink	-10.9552
mcewen	-10.9555
yoyo	-10.9556
dffn	-10.9556
▁0.3	-10.9556
mfst	-10.9557
cra	-10.9565
add	-10.9569
cade	-10.9569
uuu	-10.957
▁а	-10.9577
▁alphabet	-10.9577
▁hospital	-10.9578
cco	-10.9582
▁09	-10.9583
▁$0.00	-10.9585
▁stablecoins	-10.9589
gro	-10.959
▁bl	-10.9593
tack	-10.9594
▁experts	-10.9594
▁generous	-10.9595
▁status	-10.9596
▁sometimes	-10.9596
▁betting	-10.9597
vp	-10.9599
became	-10.9599
▁none	-10.9604
tg	-10.9605
xel	-10.9608
▁findomme	-10.961
ities	-10.961
▁ain	-10.9613
▁div	-10.962
harv	-10.9621
0.1	-10.9623
billion	-10.9626
adsv	-10.9627
▁ig	-10.9629
emb	-10.963
lgf	-10.9632
swift	-10.9636
▁methods	-10.9637
▁japan	-10.9639
▁homeless	-10.964
nh	-10.9649
maythef	-10.9651
▁instagram	-10.966
venmo	-10.9666
▁rule	-10.9667
▁worship	-10.9667
▁walk	-10.9668
▁park	-10.967
▁offers	-10.967
astestchainwin	-10.9675
▁computer	-10.9676
40%	-10.9677
pmcb	-10.9681
rttr	-10.9691
some	-10.9692
▁cusd	-10.9692
xbi	-10.9699
tcs	-10.9703
dog	-10.9716
▁chairman	-10.9717
rby	-10.9717
▁0.0000	-10.9717
▁autopilot	-10.973
take	-10.973
.000	-10.9738
ara	-10.9742
dare	-10.9743
▁brother	-10.9746
dream	-10.9746
3.0	-10.9751
!)	-10.9755
▁lawsuit	-10.9756
sec	-10.9756
▁sachs	-10.9756
ulta	-10.976
▁60%	-10.976
pixy	-10.9764
levi	-10.9766
▁daddy	-10.9768
▁master	-10.9768
▁shift	-10.977
▁inclusion	-10.9772
▁120	-10.9774
cott	-10.9776
late	-10.9781
ctas	-10.9784
▁conduct	-10.9785
india	-10.9791
▁exist	-10.9792
▁relative	-10.9792
icon	-10.9793
▁van	-10.9793
gno	-10.9795
▁survive	-10.9797
▁basically	-10.9798
▁artist	-10.9798
▁confirmation	-10.9799
400	-10.98
▁sn	-10.98
cru	-10.9805
wen	-10.9805
sti	-10.9807
▁+7%	-10.9808
▁fo	-10.9811
▁brings	-10.9813
▁drain	-10.9818
yn	-10.9823
/25	-10.9824
▁solo	-10.9825
dio	-10.9826
tom	-10.9828
ame	-10.983
bomb	-10.9831
▁55	-10.9834
solar	-10.9836
lw	-10.9837
pal	-10.9837
▁senior	-10.9838
▁leaving	-10.9838
cit	-10.9846
faang	-10.9847
phm	-10.9849
bal	-10.9849
▁den	-10.985
rng	-10.9854
▁purchases	-10.9862
▁loaded	-10.9867
▁stamp	-10.9868
350	-10.987
lvgo	-10.9882
par	-10.9882
▁$79	-10.9883
fsn	-10.9883
▁boat	-10.9884
▁delay	-10.9884
▁supposed	-10.9885
▁8%	-10.9885
3.3	-10.9888
uco	-10.9888
▁0.000001	-10.9889
startup	-10.9894
▁ranking	-10.9896
hpb	-10.9905
▁dev	-10.9907
▁tweeted	-10.9909
211	-10.991
ces	-10.9912
▁200-	-10.9912
zy	-10.9913
▁legit	-10.9913
▁90%	-10.9919
▁stochastic	-10.992
pbhg	-10.992
▁serve	-10.9921
davc	-10.9923
▁unless	-10.9925
▁inflation	-10.9927
▁florida	-10.993
crea	-10.9934
aud	-10.9934
set	-10.9938
▁cell	-10.9939
▁par	-10.9941
cbl	-10.9949
tec	-10.9951
▁attend	-10.9951
▁trigger	-10.9954
▁analytics	-10.9955
innd	-10.996
bull	-10.9961
cwbhf	-10.9961
▁valuable	-10.9961
▁pressure	-10.9962
▁stats	-10.9963
knos	-10.9964
novn	-10.997
alb	-10.9973
0.2	-10.9976
christmas	-10.9996
▁criminal	-10.9997
onlyfans	-10.9998
▁adopt	-11.0001
▁participating	-11.0003
▁chemo	-11.0005
▁forecasts	-11.0009
▁$5,	-11.0014
▁text	-11.0018
▁stronger	-11.002
even	-11.0023
adsk	-11.0026
▁6%	-11.0033
pick	-11.0033
vote	-11.0036
hrs	-11.0042
bailouthumans	-11.0043
▁ill	-11.0043
▁strategies	-11.0044
!!!!!!	-11.0047
nu	-11.0048
▁equities	-11.0049
lum	-11.0049
▁cfo	-11.0049
10%	-11.005
▁motor	-11.0054
trov	-11.0054
▁accepting	-11.0065
▁wise	-11.0065
van	-11.007
▁;)	-11.0072
-5	-11.0074
hear	-11.0079
▁cha	-11.0082
‘	-11.0084
aroon	-11.0087
▁sets	-11.009
tpr	-11.0091
phot	-11.0099
hn	-11.01
▁priced	-11.0103
▁37	-11.0105
pan	-11.0106
sales	-11.011
▁estimated	-11.011
5000:	-11.0125
pts	-11.0126
outlook	-11.0127
▁evening	-11.0128
▁??️??️?	-11.0128
▁plunge	-11.0128
depth	-11.0129
▁planning	-11.013
▁century	-11.0135
/31	-11.0135
lbc	-11.0137
xxx	-11.0137
conn	-11.0141
---	-11.0144
▁founder	-11.0149
sbd	-11.0152
▁anytime	-11.0156
lh	-11.0156
zf	-11.0157
▁select	-11.0158
rp	-11.0159
▁refer	-11.016
▁canopy	-11.0163
▁willing	-11.0164
dvn	-11.0168
▁runs	-11.0169
official	-11.017
▁roommate	-11.0171
uaa	-11.0171
▁covering	-11.0173
▁file	-11.0174
rolling	-11.0176
cerner	-11.0179
▁robinhood	-11.018
▁+10%	-11.018
gle	-11.0184
bbw	-11.0186
▁justin	-11.0186
mad	-11.0186
force	-11.0188
gnc	-11.0194
stng	-11.0196
virus	-11.0198
por	-11.0201
▁hod	-11.0201
▁sponsored	-11.0202
ries	-11.0202
57%	-11.0207
▁pp	-11.0208
dks	-11.0209
ties	-11.021
reuters	-11.0213
▁easier	-11.0213
providing	-11.0213
▁conversion	-11.0215
ego	-11.0217
tyler	-11.0219
weedstocks	-11.022
▁row	-11.0222
phun	-11.0223
lip	-11.0224
tek	-11.0226
▁+6	-11.0228
▁approaching	-11.0233
0.8	-11.0236
▁fam	-11.0238
ash	-11.0242
2.1%	-11.0255
stabletoken	-11.0255
cybertruck	-11.0257
nsr	-11.0257
▁pictures	-11.0257
175	-11.0261
lhs	-11.0262
▁lack	-11.0266
▁uni	-11.0269
crw	-11.0272
▁performing	-11.0273
140	-11.0276
crc	-11.0278
▁pet	-11.0281
▁advanced	-11.0283
commerce	-11.0283
ttc	-11.0284
6.5	-11.0288
ubq	-11.0289
▁learning	-11.0294
▁25,	-11.0296
peg	-11.0297
stne	-11.03
▁jones	-11.0306
trac	-11.0306
trbo	-11.0309
▁des	-11.0312
cvm	-11.0313
▁edge	-11.0315
tokens	-11.0316
maxr	-11.0318
▁corona	-11.032
▁worker	-11.0332
2,000	-11.0334
▁sounds	-11.0336
ƀ	-11.0341
▁budget	-11.0341
▁package	-11.0342
wall	-11.0343
▁atm	-11.0345
thor	-11.0347
▁yr	-11.0349
after	-11.0356
ub	-11.0359
trep	-11.036
gue	-11.036
▁marketplace	-11.0365
fu	-11.0365
▁registering	-11.0367
▁match	-11.0372
▁included	-11.0374
▁grn	-11.0375
lng	-11.0378
ob	-11.038
▁basis	-11.0384
▁stress	-11.0386
wix	-11.0387
oled	-11.0387
mama	-11.0388
▁65	-11.0389
65%	-11.0391
▁driver	-11.0396
▁+5%	-11.0403
hg	-11.0422
newyork	-11.0427
ausbiz	-11.0427
▁ignore	-11.0428
xrb	-11.0428
trel	-11.0428
azules	-11.0429
brave	-11.043
▁congress	-11.0435
pon	-11.0435
five	-11.0442
▁06	-11.0443
▁tells	-11.0446
▁lately	-11.0449
▁jv	-11.045
▁ideal	-11.0452
jay	-11.0462
▁emergency	-11.0466
89%	-11.0468
▁ticket	-11.047
abmd	-11.0471
▁bunch	-11.0472
▁style	-11.0474
talk	-11.0478
csps	-11.0479
lies	-11.0483
gtii	-11.0483
ud	-11.0487
▁asap	-11.0491
▁cyber	-11.0492
click	-11.0493
zom	-11.0496
opec	-11.05
dct	-11.0506
pdc	-11.0508
▁»	-11.0509
digaf	-11.0516
ntes	-11.0518
▁manager	-11.0519
▁seat	-11.052
▁bright	-11.0528
mnst	-11.0529
ending	-11.053
4.1%	-11.0533
999	-11.0552
▁holiday	-11.0558
glazersout	-11.0558
▁depend	-11.0559
▁donation	-11.0559
ydney	-11.0559
▁measure	-11.056
1.0	-11.0563
▁financials	-11.0566
▁generation	-11.0568
▁patent	-11.0568
facebook	-11.057
▁delayed	-11.0571
▁listening	-11.0571
tsco	-11.0575
▁mortgage	-11.0576
pharma	-11.0578
▁33	-11.0581
▁verasity	-11.0583
tme	-11.0587
▁+10	-11.0589
▁pace	-11.0594
▁thx	-11.0594
▁corner	-11.0599
▁innovative	-11.0602
▁newsletter	-11.0602
▁middle	-11.0602
▁ar	-11.0604
sava	-11.0606
/16	-11.061
:00:	-11.0611
▁vp	-11.0616
ack	-11.0618
(1	-11.062
▁+8%	-11.0629
▁ke	-11.0629
clr	-11.0633
nf	-11.0637
verge	-11.0638
drew	-11.0642
▁▶︎	-11.0647
▁foot	-11.065
2.3	-11.0652
▁cute	-11.0653
▁discover	-11.0658
▁comcast	-11.066
2.9	-11.0661
▁prepared	-11.0663
troke	-11.0668
posts	-11.0669
own	-11.067
soxx	-11.0672
▁decrease	-11.0673
nl	-11.0673
▁conditions	-11.0673
aker	-11.0676
dw	-11.0678
ept	-11.0681
▁#800	-11.0681
▁sort	-11.0684
bur	-11.0685
▁1$	-11.069
▁appear	-11.0692
▁decade	-11.0694
▁iran	-11.0694
pai	-11.0696
api	-11.071
▁led	-11.0715
ably	-11.0716
state	-11.0727
tkn	-11.0735
▁difficult	-11.0736
▁gross	-11.0736
char	-11.0736
ommercialization	-11.0736
▁cruise	-11.0736
htbx	-11.0741
nwl	-11.0742
syy	-11.0742
crb	-11.0743
▁midday	-11.0744
pkg	-11.0749
teslachina	-11.075
▁focused	-11.0751
2.9%	-11.0751
trezarcoin	-11.0752
gbtc	-11.0754
youtube	-11.0755
abc	-11.0756
hes	-11.0756
million	-11.0763
▁cont	-11.0765
cov	-11.077
ery	-11.0771
▁opens	-11.0779
nytimes	-11.0781
drys	-11.0781
▁weird	-11.0782
▁??‍♀️	-11.0782
▁sister	-11.0783
▁usually	-11.0784
cdev	-11.0784
▁upon	-11.0785
asml	-11.0792
jins	-11.0797
▁9/	-11.0798
inno	-11.0801
drip	-11.0802
vac	-11.081
▁matic	-11.0811
tblt	-11.0812
▁grateful	-11.0813
zing	-11.0821
▁greatly	-11.0823
?#	-11.0824
ode	-11.0825
▁journey	-11.0826
▁2-3	-11.0826
tpni	-11.0827
▁7%	-11.0827
▁mill	-11.0829
▁fool	-11.0837
▁accepted	-11.0844
▁waves	-11.0844
▁❄️	-11.0846
cyber	-11.0847
ppl	-11.0849
bta	-11.0852
▁pan	-11.0861
▁che	-11.0862
vest	-11.0865
rake	-11.0867
pol	-11.0868
▁imminent	-11.0871
▁saudi	-11.0871
dcar	-11.0876
▁$10000	-11.0877
ua	-11.088
▁donating	-11.0882
▁ios	-11.0884
show	-11.0885
▁sit	-11.0885
graph	-11.0888
cxo	-11.0889
▁fat	-11.0889
london	-11.0892
nmr	-11.0894
▁gi	-11.0898
snv	-11.0906
gdh	-11.0909
▁supplies	-11.0916
▁bankruptcy	-11.0917
▁teams	-11.0917
itub	-11.0918
srpt	-11.0918
▁lending	-11.0919
decentralization	-11.092
cog	-11.0921
▁hint	-11.0922
bngo	-11.0924
/12	-11.0926
mate	-11.0927
▁bail	-11.093
▁6-	-11.0931
jan	-11.0933
▁mac	-11.0934
marijuanastocks	-11.0935
▁deloitte	-11.0937
utomated	-11.0938
▁$60	-11.0938
▁tank	-11.094
▁designed	-11.0941
?????	-11.0941
pk	-11.0942
viv	-11.0951
mbl	-11.0952
embr	-11.0953
skx	-11.0962
▁z	-11.0962
crystal	-11.0963
▁07	-11.0963
▁globally	-11.0964
tks	-11.0967
▁chris	-11.0967
▁1300	-11.0969
tee	-11.0972
bigdata	-11.0975
azz	-11.098
adr	-11.0984
support	-11.0986
bittrex	-11.0986
mega	-11.0987
vstm	-11.0988
▁sony	-11.099
▁gov	-11.0991
▁photos	-11.0995
▁shall	-11.0996
▁pipeline	-11.0997
nspx	-11.1
investor	-11.1
▁lowest	-11.1003
▁accelerate	-11.1008
pvdg	-11.1008
▁edition	-11.1008
rewards	-11.1008
awi	-11.1011
▁careful	-11.1013
▁correction	-11.1017
▁famous	-11.1021
19%	-11.1022
▁anyway	-11.1024
hf	-11.1024
1.7%	-11.1033
▁helped	-11.1036
▁❌	-11.1037
cac	-11.1039
adt	-11.1041
▁partnered	-11.1042
jur	-11.1042
▁blocked	-11.1045
dgaz	-11.1055
rose	-11.1055
cybersecurity	-11.1056
▁deutsche	-11.1058
▁effective	-11.1063
penny	-11.1067
oke	-11.1068
fam	-11.107
▁reduce	-11.107
ker	-11.1072
▁meme	-11.1073
moo	-11.1073
▁picking	-11.1075
who	-11.1078
▁devices	-11.108
▁ny	-11.1081
grw	-11.1082
7,	-11.1084
▁giga	-11.1085
▁75%	-11.1089
gie	-11.1091
▁sta	-11.1094
170	-11.1099
▁investigation	-11.11
▁promising	-11.11
▁pricing	-11.11
▁filter	-11.11
▁10000000	-11.1107
▁russian	-11.1108
▁task	-11.111
▁lockdown	-11.1111
▁becomes	-11.1117
▁promise	-11.1118
pur	-11.1123
1.3	-11.1126
▁cat	-11.1132
▁brain	-11.1135
▁mm	-11.1143
ani	-11.1143
cnbc	-11.1144
pack	-11.1144
▁barista	-11.1147
⟶	-11.1147
▁policy	-11.1147
▁12:00:00	-11.1147
dtgi	-11.1148
oilprice	-11.1149
gsx	-11.1149
gram	-11.1154
▁individual	-11.1154
▁quarantine	-11.1155
▁hosting	-11.1178
send	-11.1182
▁property	-11.1183
▁-6	-11.1183
ait	-11.1184
▁desperate	-11.1188
▁tiny	-11.1192
ghsi	-11.1192
▁funny	-11.1197
▁independence	-11.1198
alarm	-11.12
2.6%	-11.1204
nie	-11.1206
▁loses	-11.1206
teg	-11.1211
cass	-11.1217
value	-11.1217
deal	-11.1221
lay	-11.1224
▁gofundme	-11.1227
count	-11.1234
▁43	-11.1235
▁aid	-11.1238
▁waste	-11.1239
▁continuation	-11.124
▁jefferies	-11.124
▁module	-11.124
▁possibly	-11.124
▁pin	-11.1241
▁scanner	-11.1241
▁guides	-11.1244
ify	-11.1246
coinex	-11.125
.28	-11.1251
▁#5	-11.1252
ale	-11.1254
2.50	-11.1255
▁wishes	-11.1264
cate	-11.1274
turn	-11.1287
▁spirit	-11.1287
crpt	-11.1291
▁medium	-11.1293
▁afterhours	-11.1294
▁stops	-11.1296
fsly	-11.1296
5.5%	-11.1298
qrl	-11.1298
▁developing	-11.13
ffc	-11.1302
▁mess	-11.1303
imtl	-11.1305
xop	-11.1305
mex	-11.1308
▁crowd	-11.1309
▁fit	-11.1318
1.3%	-11.1321
goos	-11.1323
capital	-11.1323
android	-11.1324
food	-11.1324
daddy	-11.1327
dss	-11.1329
▁verify	-11.1335
▁planned	-11.1336
▁queen	-11.1337
▁overview	-11.1338
▁majority	-11.1341
▁buyer	-11.1343
cker	-11.1345
▁merry	-11.1345
▁mood	-11.1345
▁warning	-11.1345
▁fourth	-11.1346
bbr	-11.1346
findomme	-11.1349
bw	-11.135
52%	-11.1353
tct	-11.1357
67%	-11.1358
▁$400	-11.1363
telegram	-11.1372
▁dad	-11.1375
dxc	-11.1377
azo	-11.1382
▁attorney	-11.1383
▁olivia	-11.1383
▁mouth	-11.1383
nigger	-11.1383
pir	-11.1383
randle	-11.1383
▁el	-11.1384
ugaz	-11.1385
▁environment	-11.1387
ou	-11.1388
cbds	-11.1391
spn	-11.1392
▁owns	-11.1392
tti	-11.1401
yers	-11.1402
58%	-11.1402
chat	-11.1404
▁38	-11.1405
foot	-11.1405
4.00	-11.1408
inc	-11.1415
pdd	-11.142
▁2/	-11.1423
aur	-11.1423
▁(6	-11.1423
▁considering	-11.1423
ita	-11.1425
▁celebration	-11.143
clwd	-11.1431
▁consulting	-11.1434
▁etfs	-11.1436
3,000	-11.1441
▁catalyst	-11.1442
dark	-11.1446
beat	-11.1446
▁bubble	-11.1449
freecoins	-11.145
sar	-11.1457
upin	-11.1459
adgs	-11.1461
ref	-11.1461
wmb	-11.1466
▁powell	-11.1469
▁bus	-11.1471
xst	-11.1478
▁?✨	-11.1478
▁accurate	-11.1479
swhi	-11.148
sndd	-11.1481
cidm	-11.1482
ters	-11.1484
und	-11.1485
▁busy	-11.1486
27%	-11.1492
brown	-11.1492
sale	-11.1494
▁secured	-11.1494
▁justice	-11.1496
▁bias	-11.1498
▁reduced	-11.1501
▁49	-11.1502
8.5	-11.1502
▁climb	-11.1512
111	-11.1516
apo	-11.152
▁watched	-11.1521
safex	-11.1522
form	-11.1522
pin	-11.1523
▁gifts	-11.1526
bensons	-11.1527
▁announcing	-11.1527
▁hashtag	-11.1528
▁intraday	-11.1528
▁roof	-11.153
jr	-11.1532
▁$7500	-11.1532
tha	-11.1533
node	-11.1533
stay	-11.1536
paog	-11.1536
mine	-11.1539
▁arm	-11.1543
▁trip	-11.1543
hit	-11.155
▁manage	-11.1554
coming	-11.1554
▁books	-11.1554
xli	-11.1555
▁chip	-11.1557
▁er	-11.1559
4.3%	-11.1561
3.2%	-11.1562
platform	-11.1564
enter	-11.1565
under	-11.1568
marcodad	-11.1575
▁resume	-11.1576
▁leadership	-11.1577
bioa	-11.1577
bili	-11.1577
carl	-11.1579
▁mad	-11.158
▁improved	-11.1582
dvax	-11.1587
▁05	-11.159
▁pizza	-11.1592
▁kit	-11.1595
▁replace	-11.1601
▁kid	-11.1601
ctic	-11.1611
chips	-11.1611
1.9%	-11.1613
6.5%	-11.1613
del	-11.1613
▁buyback	-11.1616
▁suck	-11.1619
▁russia	-11.162
3.00	-11.1622
vitex	-11.1622
▁cashslave	-11.1624
vuzi	-11.1624
yelp	-11.1625
▁900	-11.1626
arwr	-11.1628
▁2,000	-11.163
▁knowledge	-11.163
.02	-11.1631
▁genius	-11.1633
▁$0.02	-11.1638
wl	-11.1638
tradeideas	-11.1639
▁divide	-11.1639
▁organic	-11.1645
▁kicked	-11.1646
▁crosses	-11.165
/26	-11.1651
cola	-11.1654
(4	-11.1657
▁halt	-11.1658
canada	-11.1658
▁billionaire	-11.1662
sic	-11.1662
jar	-11.1668
▁hunt	-11.1672
▁jack	-11.1672
▁blocks	-11.1672
▁alibaba	-11.1674
▁cramer	-11.1674
▁smaller	-11.1674
plus	-11.1677
shw	-11.1678
phbi	-11.1688
dnkn	-11.1691
read	-11.1691
▁accumulate	-11.1692
▁robots	-11.1693
▁4000	-11.1694
dnr	-11.1697
jpy	-11.1699
nj	-11.1701
dick	-11.1703
have	-11.1705
imo	-11.1713
▁plenty	-11.1722
▁sweep	-11.1723
▁+17%	-11.1725
▁americans	-11.1731
paso	-11.1732
doc	-11.1734
meta	-11.1744
chan	-11.1745
yeti	-11.1746
0.50	-11.1747
83%	-11.1747
▁ema	-11.1752
nue	-11.1752
▁perhaps	-11.1754
▁meds	-11.1759
2.8	-11.1759
▁chevron	-11.1763
▁350	-11.1763
▁flying	-11.1764
trans	-11.1765
▁crack	-11.1771
binary	-11.1772
▁2019,	-11.1775
nova	-11.1775
tronwallet	-11.1779
cnna	-11.178
▁ki	-11.1784
potn	-11.179
▁lies	-11.179
▁zoom	-11.1793
222	-11.1793
▁777	-11.1794
oi	-11.1799
▁collection	-11.1801
4.0	-11.1804
hcl	-11.1811
away	-11.1818
4.9%	-11.182
▁♦️	-11.1822
82%	-11.1823
dowjones	-11.1823
▁anybody	-11.1825
▁alive	-11.1826
hms	-11.1829
estc	-11.183
cde	-11.1831
aws	-11.1832
▁shock	-11.1834
▁payout	-11.1837
▁generated	-11.1838
stream	-11.1839
▁gdp	-11.1839
wave	-11.1843
mfc	-11.1844
ura	-11.1845
ely	-11.1846
seel	-11.1847
tfd	-11.1852
roth	-11.1853
▁catalysts	-11.186
▁expand	-11.1865
aap	-11.1867
hunt	-11.1867
fil	-11.1867
▁67	-11.187
naccount	-11.1871
▁superior	-11.1872
▁meanwhile	-11.1872
wal	-11.1872
.48	-11.1874
▁indian	-11.1877
tis	-11.1877
▁(~$1	-11.1879
▁tim	-11.1887
.29	-11.1887
▁tree	-11.1888
▁spreading	-11.1889
▁5-	-11.1896
/28	-11.1898
cetx	-11.1899
qu	-11.19
▁cusdt	-11.1902
▁yrs	-11.1902
▁field	-11.1903
break	-11.1903
▁germany	-11.191
brkk	-11.1912
ero	-11.1913
▁rises	-11.1913
▁30,	-11.192
▁1,000,000	-11.192
rsi	-11.1921
dta	-11.1922
rhhby	-11.1922
▁0.02	-11.1924
nm	-11.1929
▁mentions	-11.1931
vsym	-11.1932
▁robert	-11.1935
▁del	-11.1935
ssi	-11.1937
att	-11.1945
▁08	-11.1945
glw	-11.1946
▁extend	-11.1947
batt	-11.1949
america	-11.1953
▁mostly	-11.1958
▁verification	-11.1959
▁hundreds	-11.1966
vti	-11.1967
▁reliable	-11.1972
▁citigroup	-11.1973
▁unemployed	-11.1973
civic	-11.1974
▁slap	-11.1977
subscribe	-11.1979
▁solve	-11.1981
▁hodl	-11.1981
▁slowly	-11.1986
tig	-11.1989
bin	-11.1991
cmi	-11.1998
come	-11.1998
sens	-11.1999
+9%	-11.2013
▁3.5	-11.2014
god	-11.2017
▁bids	-11.2021
▁fremont	-11.2023
rvdo	-11.2023
▁honor	-11.2024
▁employee	-11.2024
syn	-11.2026
▁lmao	-11.2026
▁20000	-11.2028
▁mental	-11.2029
volatility	-11.2032
▁educational	-11.2036
six	-11.2037
privacycoin	-11.2038
▁efforts	-11.2039
▁natural	-11.204
metoo	-11.2042
▁insiders	-11.2043
▁miles	-11.2045
▁math	-11.2045
▁risks	-11.2045
grso	-11.2048
▁424	-11.2056
360	-11.2056
▁whi	-11.2058
▁confidence	-11.206
pct	-11.2062
▁votes	-11.2065
luu	-11.2065
4.8	-11.2067
domo	-11.2067
ntg	-11.2068
bz	-11.207
▁parabolic	-11.2074
▁appears	-11.2075
cwnr	-11.2075
kos	-11.2076
▁flight	-11.2078
listed	-11.2078
▁mastercard	-11.2079
▁ico	-11.208
dappchain	-11.208
morning	-11.2086
edr	-11.2087
ann	-11.2088
▁prepare	-11.209
dlr	-11.2095
srn	-11.2096
39%	-11.2097
▁➖	-11.2102
▁!!!!	-11.2102
jjc	-11.2104
18%	-11.2108
▁35%	-11.2108
vips	-11.211
burn	-11.2118
????????????????	-11.2126
▁9,	-11.2126
xauusd	-11.2127
iqstel	-11.2127
▁piper	-11.2128
jwn	-11.2129
valueinvesting	-11.2129
mlr	-11.2135
nty	-11.2138
wing	-11.2138
bottom	-11.2138
▁0.000000	-11.2139
▁girls	-11.214
▁personally	-11.2144
▁seconds	-11.2145
▁rain	-11.2145
▁+16%	-11.2146
pho	-11.2146
atus	-11.2148
wday	-11.2149
seq	-11.215
central	-11.215
▁passed	-11.2152
$$$	-11.2156
than	-11.2159
▁ss	-11.216
▁12%	-11.216
▁satoshi	-11.2161
▁healthy	-11.2161
main	-11.2163
▁cook	-11.2168
▁triangle	-11.2169
130	-11.2175
xmg	-11.2176
▁disclosure	-11.2177
▁leaderboard	-11.2178
▁slide	-11.2178
▁weakness	-11.2178
▁+9	-11.2179
rock	-11.2181
▁turns	-11.2184
innovation	-11.2191
▁require	-11.2191
▁pays	-11.2191
▁doubled	-11.2194
elon	-11.22
▁device	-11.2201
acai	-11.2201
kim	-11.2202
▁invited	-11.2204
endp	-11.2205
prod	-11.2206
▁ri	-11.2209
ctr	-11.221
650	-11.2211
▁wink	-11.2211
lr	-11.2212
vrh	-11.2215
inb	-11.222
▁yearly	-11.2223
macd	-11.2227
.22	-11.2228
bus	-11.2228
cardano	-11.2229
vktx	-11.2229
▁stuck	-11.2229
hsbc	-11.223
▁hardware	-11.223
adm	-11.2231
itox	-11.2231
▁fomo	-11.2232
▁rough	-11.2232
▁lotto	-11.2234
shirt	-11.2234
▁trials	-11.2236
sure	-11.2237
system	-11.2239
550	-11.2239
wu	-11.224
worship	-11.2241
125	-11.2241
3.9%	-11.2243
paid	-11.2244
▁77	-11.2244
cpt	-11.2246
▁obama	-11.2246
▁child	-11.2247
60%	-11.225
▁70%	-11.2254
name	-11.2258
▁masks	-11.2259
nkn	-11.2261
▁yall	-11.2267
cing	-11.2268
—&	-11.2279
cartesi	-11.2281
▁exxon	-11.2281
▁cooperation	-11.2282
▁toxic	-11.2283
▁nu	-11.2288
94%	-11.2288
non	-11.2289
4.6	-11.229
▁detailed	-11.2291
▁thinks	-11.2292
risk	-11.2297
ball	-11.2299
cj	-11.23
field	-11.2302
tup	-11.2303
▁wo	-11.2308
▁closely	-11.2319
▁+8	-11.2326
2.7	-11.2328
ken	-11.2329
▁fiscal	-11.2333
▁favourite	-11.2333
abev	-11.2335
aeo	-11.2337
dem	-11.2337
reply	-11.2339
15%	-11.2339
syk	-11.2344
▁engine	-11.2346
▁earth	-11.2346
▁layer	-11.2346
▁15.	-11.2347
2.2%	-11.2351
dtb	-11.2353
scn	-11.2357
▁insight	-11.236
intu	-11.2361
cry	-11.2365
▁storm	-11.2366
▁sponsor	-11.2368
ntap	-11.2368
reg	-11.2371
▁mins	-11.2372
inf	-11.2375
there	-11.2379
david	-11.2381
▁asynchronous	-11.2386
▁perspective	-11.2386
▁various	-11.2386
log	-11.2386
▁treasury	-11.2387
▁statements	-11.2389
yo	-11.2389
tokyo	-11.2389
plc	-11.2391
3.4%	-11.2392
▁hr	-11.2397
lamb	-11.2398
spi	-11.2398
compq	-11.2399
▁reimburse	-11.2399
cali	-11.24
ju	-11.2401
change	-11.2402
rank	-11.2405
▁boss	-11.2406
▁junk	-11.241
freecrypto	-11.2413
▁david	-11.2419
custom	-11.2419
lot	-11.2422
ira	-11.2422
3.7%	-11.2423
submit	-11.2425
online	-11.2425
round	-11.2428
▁retirement	-11.2434
dscr	-11.2435
cbis	-11.2437
▁buyout	-11.2439
▁fantastic	-11.2439
▁wrote	-11.2439
▁commission	-11.2439
▁tools	-11.2439
iipr	-11.244
▁12,	-11.2441
ioc	-11.2442
▁loud	-11.2442
▁-9%	-11.2443
tie	-11.2443
aep	-11.2443
▁michael	-11.2445
chfs	-11.2446
▁$600	-11.2449
▁recommended	-11.2449
teen	-11.2452
▁domme	-11.2453
▁pocket	-11.2455
arr	-11.2456
eff	-11.2457
▁halving	-11.2457
280	-11.2457
dk	-11.2459
healthcare	-11.2461
▁presents	-11.2463
▁0.0001	-11.2465
aem	-11.2465
ewll	-11.2468
▁featured	-11.2474
▁99	-11.2475
acrg	-11.2478
66%	-11.248
▁shake	-11.2483
fly	-11.2485
report	-11.2491
uranium	-11.2492
▁facility	-11.2492
▁relationship	-11.2492
▁although	-11.2492
tgrr	-11.2493
▁unveil	-11.2493
▁everywhere	-11.2494
ghhc	-11.2494
/24	-11.2494
▁secs	-11.2495
govx	-11.2495
tgif	-11.25
fcau	-11.2501
rbz	-11.2502
▁connection	-11.2503
.48%	-11.251
▁earned	-11.2511
cah	-11.2512
kn	-11.2513
2.1	-11.2513
▁mcdonald	-11.2513
▁+3%	-11.2516
▁tested	-11.2518
▁london	-11.2521
1.50	-11.2521
79%	-11.2522
nor	-11.2522
marketplace	-11.2523
science	-11.2526
▁gc	-11.2527
maker	-11.2532
xlc	-11.2537
▁tele	-11.2545
▁violence	-11.2546
▁ugly	-11.2546
▁fortune	-11.2547
sgmd	-11.2549
▁promotion	-11.2549
▁registered	-11.2552
nakd	-11.2554
▁records	-11.2555
▁setups	-11.2555
fis	-11.2556
etfm	-11.2557
dot	-11.2559
▁creators	-11.2562
bsx	-11.2564
▁trick	-11.2564
▁blast	-11.2564
▁testnet	-11.2565
pw	-11.2567
000000	-11.2575
ned	-11.2578
mlp	-11.2584
▁samsung	-11.2588
bill	-11.2591
cala	-11.2596
gbyte	-11.2599
xdb	-11.2599
`	-11.2599
▁evidence	-11.2599
▪️️	-11.2599
▁incentive	-11.2599
▁brief	-11.2599
101	-11.2602
3.50	-11.2609
▁scoop	-11.2614
▁joined	-11.2616
mission	-11.2626
▁digit	-11.2628
▁wont	-11.2629
secure	-11.2632
edg	-11.2632
tile	-11.2634
lander	-11.2635
▁withdrawal	-11.2636
▁2014	-11.2641
▁royal	-11.2642
▁camp	-11.2644
;3	-11.2647
ottv	-11.2648
investments	-11.265
▁barclays	-11.2653
▁hopium	-11.2653
▁chi	-11.2655
▁88	-11.2656
▁harder	-11.2658
rick	-11.2661
▁requests	-11.2662
rw	-11.2664
scam	-11.2665
ku	-11.2666
1000$	-11.2666
hood	-11.2667
187	-11.2669
each	-11.2673
broker	-11.2675
▁killed	-11.2675
▁nude	-11.2678
row	-11.2679
tit	-11.2682
▁movie	-11.2682
75%	-11.2684
▁loose	-11.2686
myst	-11.2687
850	-11.2687
▁mini	-11.2687
ress	-11.2691
fer	-11.2692
monday	-11.2693
info	-11.2696
▁remaining	-11.2699
zena	-11.27
caci	-11.2702
▁coinsto	-11.2705
120	-11.2705
zilliqa	-11.2708
buidl	-11.2708
▁begun	-11.2708
igpk	-11.2708
▁richard	-11.2709
▁ultimate	-11.2711
▁purch	-11.2712
▁bed	-11.2718
▁30,000	-11.2719
▁shame	-11.2721
▁nation	-11.2722
▁bailout	-11.2722
mitx	-11.2722
▁(12	-11.2727
▁learned	-11.2734
exas	-11.2736
▁imho	-11.2738
.66	-11.2742
▁resource	-11.2742
▁discussion	-11.2743
▁(&	-11.2743
▁path	-11.2744
phb	-11.2746
4.8%	-11.2747
ankr	-11.2748
bad	-11.2751
rop	-11.2751
tgtx	-11.2758
istic	-11.2759
▁age	-11.2761
arnc	-11.2762
特斯拉	-11.2762
▁eventually	-11.2762
▁holidays	-11.2763
moneygang	-11.2764
▁clip	-11.2764
▁euro	-11.2765
dapsfam	-11.2765
▁valued	-11.2766
▁tether	-11.2767
▁cutting	-11.2768
▁mail	-11.2768
cbet	-11.2768
▁loser	-11.2768
ftt	-11.2769
▁favor	-11.2769
▁sum	-11.277
vf	-11.2771
▁39	-11.2774
▁spare	-11.278
gush	-11.2783
▁essential	-11.2787
▁grabs	-11.2788
kbh	-11.2791
kid	-11.2799
gift	-11.2801
salesforce	-11.2801
▁.001	-11.2801
gui	-11.2802
nes	-11.2809
blo	-11.281
tgo	-11.2812
quiz	-11.2813
felpu	-11.2817
tlsa	-11.2818
total	-11.2819
▁tues	-11.2821
feat	-11.2821
▁formed	-11.2822
ngcg	-11.2824
▁knowing	-11.2825
▁radio	-11.2827
tat	-11.2831
thomas	-11.2836
mmj	-11.2837
▁va	-11.2839
frc	-11.284
-12	-11.2843
▁destroy	-11.2847
mur	-11.2853
▁stack	-11.2853
▁foreign	-11.2854
-7	-11.2856
?!?	-11.2866
▁defense	-11.2872
▁pacific	-11.2873
▁scenario	-11.2873
▁husband	-11.2873
▁atleast	-11.2873
urb	-11.2877
sono	-11.288
▁lawyer	-11.2882
▁threats	-11.2888
dloc	-11.2889
ecommerce	-11.2894
dmt	-11.2896
▁played	-11.2896
zu	-11.2904
%)	-11.2906
▁ending	-11.2907
tribute	-11.2908
3.7	-11.2909
▁beauty	-11.291
{	-11.291
dollym	-11.2912
▁port	-11.2913
utk	-11.2914
8.6	-11.2915
traders	-11.2916
full	-11.2924
tronlink	-11.2924
pri	-11.2926
ounce	-11.2927
▁inventory	-11.2928
▁comparing	-11.2928
▁murder	-11.2928
▁incorporated	-11.2928
▁disease	-11.2928
princess	-11.2929
huya	-11.293
▁detected	-11.2931
deo	-11.2934
ilmn	-11.2935
96%	-11.2935
▁1.5%	-11.2936
3.1%	-11.2941
4%)	-11.2946
dani	-11.2947
▁shitcoin	-11.2949
eo	-11.2951
ndyn	-11.2952
64%	-11.2954
▁gun	-11.2955
road	-11.2956
1.1%	-11.2957
70%	-11.296
mary	-11.2961
▁indexes	-11.2962
lock	-11.2962
▁matters	-11.2965
▁introduce	-11.2965
▁juneteenth	-11.297
wire	-11.2972
porn	-11.2972
/22	-11.2973
▁spa	-11.2974
eli	-11.2977
▁german	-11.2978
▁contribute	-11.2979
zar	-11.2979
▁confident	-11.2984
❓	-11.2984
gnpx	-11.2985
sgmo	-11.2987
stone	-11.299
town	-11.2991
0.05	-11.2992
aph	-11.3002
bonds	-11.3008
swap	-11.301
packed	-11.301
enrt	-11.3011
,000+	-11.3011
derm	-11.3019
▁ubs	-11.3021
▁caterpillar	-11.3026
2.4%	-11.3026
135	-11.3027
vio	-11.3028
nby	-11.3031
▁joe	-11.3035
▁cybertruck	-11.3038
▁west	-11.3039
▁trf	-11.3039
▁disabled	-11.304
george	-11.304
splif	-11.304
▁kept	-11.3042
▁contrast	-11.3043
ification	-11.3043
84%	-11.3045
▁supporters	-11.3046
ugh	-11.3047
▁nodes	-11.3053
▁aka	-11.3053
stop	-11.3054
cen	-11.3057
rated	-11.3058
▁:(	-11.3059
fact	-11.3061
▁develop	-11.3062
▁18,	-11.3064
web	-11.3064
bdx	-11.3065
▁wheel	-11.3067
ati	-11.3068
▁finding	-11.307
onci	-11.307
/#	-11.3071
anet	-11.3076
▁iger	-11.3076
chu	-11.3079
74%	-11.3081
▁indices	-11.3084
momma	-11.3086
hex	-11.3089
200000.	-11.3092
soc	-11.3094
▁thanksgiving	-11.3095
▁"#	-11.3097
▁hurry	-11.3097
2.6	-11.3106
▁⬇	-11.3106
▁worthless	-11.3107
▁revealed	-11.3108
......	-11.311
7,000	-11.311
▁hack	-11.3111
hly	-11.3113
]?	-11.3114
lou	-11.3118
trades	-11.3121
▁cal	-11.3121
▁memo	-11.3123
imp	-11.3125
parent	-11.3126
▁pi	-11.3131
▁marketcap	-11.3132
▁trezarcoin	-11.3132
▁($1	-11.3133
▁instructions	-11.3134
▁roadmap	-11.3136
hban	-11.3149
▁circle	-11.3154
▁sink	-11.3155
▁wood	-11.3156
mari	-11.3157
bvb	-11.3162
▁dumping	-11.3163
▁granted	-11.3163
▁tap	-11.3163
ftnt	-11.3163
▁clown	-11.3166
▁reiterated	-11.3168
▁fe	-11.3174
amrs	-11.3174
cobi	-11.3174
rgld	-11.3179
▁?????????	-11.3182
mof	-11.3185
▁seeking	-11.3186
?‍♂️	-11.3187
▁collateral	-11.3188
▁jul	-11.3188
▁transportation	-11.319
▁onto	-11.319
▁(0.0	-11.319
▁generate	-11.3192
chn	-11.3192
cast	-11.3192
▁effort	-11.3193
▁8888	-11.3193
1.0%	-11.3194
▁traffic	-11.3198
72%	-11.3204
/17	-11.3206
freetoken	-11.3207
▁domestic	-11.3211
▁succeed	-11.3211
▁supplier	-11.3211
▁loving	-11.3211
vrrb	-11.3211
▁eligible	-11.3211
bj	-11.3212
▁indeed	-11.3212
ome	-11.3214
▁46	-11.3217
?"	-11.3217
▁vite	-11.3218
.97%	-11.3221
▁$1500	-11.3224
serv	-11.3225
xlre	-11.3225
four	-11.3228
chap	-11.3229
▁vx	-11.3233
▁6,	-11.3234
roi	-11.3234
▁8,	-11.3235
yuma	-11.3236
wolf	-11.3237
aleaf	-11.3238
▁cos	-11.3241
77%	-11.3249
▁candidate	-11.325
shares	-11.3253
source	-11.3257
education	-11.3259
❤️❤️	-11.3266
▁2015	-11.3268
▁continuing	-11.3268
▁construction	-11.3268
▁11.✌️	-11.3268
▁default	-11.3268
ozsc	-11.327
ghost	-11.3271
fslr	-11.3277
▁client	-11.3278
▁12-	-11.3279
▁useful	-11.3281
thing	-11.3287
dva	-11.3289
need	-11.3292
▁sexy	-11.3293
str	-11.3295
izea	-11.3298
▁rec	-11.3302
▁13,	-11.3308
nick	-11.3308
▁suit	-11.3311
▁whales	-11.3314
efin	-11.3314
jam	-11.3318
lia	-11.332
hh	-11.3321
000	-11.3323
ists	-11.3325
meet	-11.3325
▁precious	-11.3326
elygf	-11.3326
position	-11.3326
▁trusted	-11.3327
▁feedback	-11.3327
days	-11.3331
12%	-11.3331
▁boo	-11.3331
▁+13%	-11.3332
0%	-11.3335
rtx	-11.3336
▁developed	-11.3338
7888	-11.3339
ement	-11.334
▁tagging	-11.3341
buck	-11.3344
▁funded	-11.3346
hele	-11.3346
fmcc	-11.335
.56	-11.3353
sony	-11.3353
farm	-11.3357
▁threat	-11.3362
▁engagement	-11.3365
▁showed	-11.3366
▁arknet	-11.3367
thereal	-11.3369
cars	-11.3375
pool	-11.3375
ini	-11.3378
▁coca	-11.3383
sfor	-11.3384
brexit	-11.3384
▁communities	-11.3384
dvlp	-11.3384
▁twice	-11.3384
▁maximum	-11.3384
▁dinner	-11.3384
▁555	-11.3385
bow	-11.3386
plnt	-11.3386
dgbarmy	-11.3389
bbda	-11.3393
asset	-11.3395
▁}	-11.3397
▁praying	-11.3397
▁+18%	-11.3398
▁parts	-11.3401
right	-11.3402
▁absolute	-11.3403
eog	-11.3407
▁suggests	-11.3415
nerd	-11.3423
▁sources	-11.3427
▁+7	-11.343
▁biz	-11.343
▁tape	-11.3431
kink	-11.3432
▁respond	-11.3433
tyle	-11.3434
▁anticipated	-11.3434
160	-11.3434
ore	-11.3437
▁obvious	-11.3437
eee	-11.3439
▁noticed	-11.3439
▁payday	-11.3442
▁equivalent	-11.3442
▁witness	-11.3443
▁stability	-11.3444
eve	-11.3446
▁underway	-11.3448
phone	-11.3452
▁swaps	-11.3461
▁cons	-11.3463
▁➡	-11.3465
psx	-11.3467
burg	-11.3468
24%	-11.3468
▁6000	-11.3468
sib	-11.3469
▁consumers	-11.347
▁voted	-11.3471
▁26,	-11.3477
ddy	-11.3478
pennystock	-11.3479
payc	-11.3479
▁soft	-11.3484
230	-11.3486
jet	-11.3488
▁kik	-11.3492
▁hotel	-11.3496
trap	-11.3497
okex	-11.3497
convergence	-11.3501
▁associates	-11.3501
▁#❤️❤️❤️	-11.3501
▁transparent	-11.3502
▁automaker	-11.3502
xwc	-11.3502
♥️	-11.3502
wicc	-11.3503
▁spoke	-11.3504
hydro	-11.3507
equity	-11.351
▁looked	-11.351
▁derivatives	-11.3511
mdr	-11.3511
▁llp	-11.3514
bmrn	-11.3515
ooo	-11.3515
mail	-11.3517
▁extending	-11.3518
nbl	-11.3519
media	-11.352
cbt	-11.3523
ante	-11.3523
mrn	-11.3523
3$	-11.3525
clar	-11.3525
112	-11.3527
▁alpha	-11.3529
ewz	-11.353
uni	-11.3532
▁reveal	-11.3534
▁0.6	-11.354
ind	-11.3541
▁ste	-11.3545
0.18	-11.3545
450	-11.3547
▁recommend	-11.3547
look	-11.3548
▁44	-11.3552
etfc	-11.3555
tate	-11.3557
▁cointelegraph	-11.356
sentiment	-11.3561
coffee	-11.3561
fonu	-11.3561
▁sto	-11.3562
▁secondary	-11.3563
7238	-11.3566
▁costco	-11.357
▁unlock	-11.3572
▁grind	-11.3572
▁hmm	-11.3572
nice	-11.3573
▁scared	-11.3573
anti	-11.3575
fect	-11.3577
sph	-11.3578
▁ct	-11.3578
▁13%	-11.3578
▁4:00	-11.3584
tian	-11.3585
mq	-11.3588
mart	-11.359
seas	-11.3593
walletdrain	-11.3594
▁burned	-11.3595
dov	-11.3596
▁estate	-11.3598
▁bloomberg	-11.3602
mxmg	-11.3602
sedg	-11.3603
angel	-11.3604
!?️	-11.3605
▁heads	-11.3606
▁potentially	-11.3608
73%	-11.3612
4,000	-11.3613
▁mic	-11.3614
arsn	-11.3615
▁historical	-11.3617
event	-11.3618
▁jail	-11.362
▁optimize	-11.362
chiliz	-11.3621
▁otherwise	-11.3622
▁anywhere	-11.3623
▁sch	-11.3625
deeply	-11.3625
arbitrage	-11.3625
0.332	-11.3626
current	-11.3626
keys	-11.3627
fee	-11.3627
mme	-11.363
▁?5	-11.3631
fold	-11.3634
▁1560	-11.3635
▁safely	-11.3644
terra	-11.3647
2.8%	-11.3651
▁citi	-11.3652
▁cuz	-11.3654
nvr	-11.3654
▁financing	-11.3661
▁(5	-11.3662
▁66	-11.3665
km	-11.3666
892.	-11.3666
▁2,500	-11.3669
▁2006	-11.367
nite	-11.367
uck	-11.367
tax	-11.367
▁patterns	-11.3671
▁skill	-11.3671
▁makers	-11.3673
igg	-11.3674
trig	-11.3674
fuck	-11.3675
▁integrate	-11.3675
staying	-11.3676
ttm	-11.3676
93%	-11.3678
▁hidden	-11.368
▁pathetic	-11.368
▁plummet	-11.368
▁subsidiary	-11.368
▁curious	-11.368
▁hammer	-11.368
sprwf	-11.368
golo	-11.3683
auph	-11.3683
once	-11.3684
download	-11.3685
prize	-11.3686
▁(4	-11.3688
csiq	-11.3688
canf	-11.3689
foxa	-11.3698
barely	-11.3699
▁proven	-11.3701
▁existing	-11.3702
door	-11.371
▁networks	-11.371
▁nor	-11.3711
weekly	-11.3713
260	-11.3719
zo	-11.3722
▁startup	-11.3723
▁xu	-11.3725
▁jumps	-11.3727
qep	-11.373
ete	-11.3732
arch	-11.3733
▁honest	-11.3735
betfury	-11.374
▁engulfing	-11.374
▁histogram	-11.374
▁segment	-11.374
coinmarketcap	-11.374
space	-11.3742
4929	-11.3744
▁countdown	-11.3745
dds	-11.3745
▁regulation	-11.3745
euro	-11.3745
thanksgiving	-11.3745
smith	-11.3748
▁wtf	-11.375
say	-11.3752
▁strongest	-11.3753
rton	-11.3758
tol	-11.3758
▁timing	-11.3759
▁award	-11.3762
▁moab	-11.3763
▁easter	-11.3763
qe	-11.3764
?❤️	-11.3766
rri	-11.3766
▁slave	-11.3769
pags	-11.377
nim	-11.3771
▁headed	-11.3772
mack	-11.3773
▁ty	-11.3776
friends	-11.3778
dmd	-11.3779
east	-11.378
fran	-11.3783
▁ieo	-11.3784
▁pl	-11.3787
swt	-11.3788
artr	-11.3788
▁emerging	-11.3788
▁ring	-11.3789
▁liquid	-11.3789
nine	-11.379
gain	-11.3791
dati	-11.3791
▁reviewing	-11.3792
gnen	-11.3792
▁shs	-11.3792
iconic	-11.3795
cwh	-11.3796
▁restaurant	-11.3796
▁player	-11.3798
¥	-11.3801
tezos	-11.3801
hpe	-11.3801
950	-11.3802
▁slightly	-11.3803
▁obviously	-11.3806
3.8%	-11.3808
lar	-11.381
▁transparency	-11.381
tradewar	-11.3814
ontx	-11.3814
▁preferred	-11.3814
denn	-11.3814
▁contain	-11.3814
tac	-11.3817
ik	-11.382
brand	-11.3821
monero	-11.3823
▁currencies	-11.3823
▁registration	-11.3824
▁laugh	-11.3828
jts	-11.3835
leaf	-11.3836
▁maintain	-11.384
tard	-11.384
prty	-11.3842
dividends	-11.3853
▁backed	-11.3853
copx	-11.3855
▁bound	-11.3857
8.00	-11.3859
dynamite	-11.3862
▁tuition	-11.3862
ptoy	-11.3863
▁hopes	-11.3865
▁trendline	-11.3865
aby	-11.3866
▁+14%	-11.3867
.26%	-11.3868
pass	-11.387
▁equally	-11.387
biei	-11.387
▁genesis	-11.3871
cats	-11.3874
sum	-11.3877
▁0.000002	-11.3878
........	-11.3879
▁beating	-11.3879
▁3,000	-11.388
▁giants	-11.3882
volv	-11.3882
***	-11.3883
upp	-11.3885
kaly	-11.3887
▁steal	-11.3887
▁(-1	-11.3895
▁alternative	-11.3896
▁2018.	-11.3898
▁110	-11.3902
▁larger	-11.3907
▁addresses	-11.3907
arst	-11.3907
▁.02	-11.3913
▁mistake	-11.3914
1.5%	-11.3917
▁❗️	-11.3917
von	-11.3918
▁+20	-11.3922
duc	-11.3922
▁dominance	-11.3923
▁judge	-11.3923
▁unlimited	-11.3924
cashappchristmas	-11.3925
▁database	-11.3925
andi	-11.3925
▁deadline	-11.3925
ndaq	-11.3925
christian	-11.3927
▁protection	-11.3929
huobi	-11.3934
▁85	-11.3934
cashslave	-11.3936
▁31,	-11.3936
▁reg	-11.3936
▁county	-11.3939
00000	-11.3945
▁14%	-11.3946
▁predicted	-11.3948
flash	-11.3949
▁caused	-11.395
▁factor	-11.3951
step	-11.3957
▁evil	-11.3957
▁taxes	-11.3958
4.4%	-11.3959
ough	-11.3962
aj	-11.3964
▁adj	-11.3972
0.4%	-11.398
augmentedreality	-11.3985
bazooka	-11.3985
▁featuring	-11.3985
▁organization	-11.3985
▁assistance	-11.3985
▁fox	-11.3986
▁crossing	-11.3987
crsm	-11.3988
chase	-11.3989
▁dropbox	-11.399
poli	-11.3991
crypt	-11.3991
92%	-11.3992
▁station	-11.3993
wealth	-11.3998
1.2%	-11.4
▁hotels	-11.4
tnp	-11.4
bird	-11.4005
▁interactive	-11.4006
99%	-11.4011
▁exploration	-11.4011
vod	-11.4012
ele	-11.4013
pie	-11.4014
▁technicals	-11.4018
▁purchased	-11.402
▁town	-11.4025
rich	-11.4041
dac	-11.4041
▁reits	-11.4041
abs	-11.4042
witch	-11.4045
grm	-11.4047
philanthropy	-11.4047
▁entries	-11.4047
crlbf	-11.4047
▁advise	-11.4048
cprx	-11.4049
got	-11.405
▁notification	-11.405
▁border	-11.4052
lmc	-11.4053
gcgx	-11.4053
▁bla	-11.4054
6.00	-11.4054
▁views	-11.4059
pandemic	-11.4062
uno	-11.4067
▁#1000	-11.4069
daly	-11.407
erbb	-11.4071
bbl	-11.4072
vmc	-11.4075
▁stands	-11.4078
▁fred	-11.4078
▁ramp	-11.4079
doo	-11.4079
▁poloniex	-11.4081
▁accounting	-11.4084
slut	-11.4084
▁driven	-11.4088
taco	-11.4091
daniel	-11.4092
▁compare	-11.4093
▁political	-11.4094
alef	-11.4095
▁4.0	-11.4096
ala	-11.4096
lyg	-11.4101
def	-11.4102
asian	-11.4102
.17	-11.4108
builtincrm	-11.4109
deribot	-11.4109
▁written	-11.4109
▁accident	-11.4109
interactivevideo	-11.411
▁compete	-11.4111
✈️	-11.4111
▁27,	-11.4115
legit	-11.4119
spg	-11.4119
rshn	-11.4119
▁settled	-11.4122
choo	-11.4122
gw	-11.4123
codi	-11.4128
apps	-11.4132
era	-11.4133
4.1	-11.4133
cannabisnews	-11.4134
▁7-	-11.4136
▁cuck	-11.4137
3000	-11.4137
white	-11.414
mile	-11.414
▁200,000	-11.4142
cnt	-11.4142
banks	-11.4145
celer	-11.4146
.03%	-11.4147
nny	-11.4148
▁hyper	-11.4149
uh	-11.415
ile	-11.4152
tino	-11.4154
▁detail	-11.4155
mir	-11.4156
plx	-11.4161
hop	-11.4161
▁faucet	-11.4162
tspg	-11.4162
▁mercedes	-11.4162
▁credits	-11.4163
▁53	-11.4165
..."	-11.4167
-6	-11.4168
ect	-11.4169
tlrd	-11.4173
frsx	-11.4173
secretly	-11.4174
49%	-11.418
bitcoincash	-11.4183
glass	-11.4184
▁18%	-11.4185
loc	-11.4188
▁protest	-11.4192
1.25	-11.4193
▁helpful	-11.4195
▁abuse	-11.4198
▁??#	-11.4199
▁extreme	-11.42
▁tea	-11.42
0.6%	-11.4212
▁0.10	-11.4213
rpm	-11.4218
▁dude	-11.422
▁lift	-11.4223
brx	-11.4225
8%)	-11.423
▁quit	-11.4232
hlt	-11.4232
▁dumped	-11.4232
ular	-11.4234
▁pc	-11.4235
passiveincome	-11.4236
snwv	-11.4236
中国	-11.4236
nvcn	-11.4236
▁bernie	-11.4236
▁himself	-11.4236
▁2020,	-11.4236
▁arrested	-11.4236
▁valley	-11.4236
▁bets	-11.4236
cdmo	-11.4237
▁68	-11.4242
▁shell	-11.4244
▁operate	-11.4244
▁bullrun	-11.4245
base	-11.4246
▁millionaire	-11.4247
oct	-11.4248
▁pound	-11.4248
▁cheers	-11.4249
wp	-11.425
crbp	-11.4253
ao	-11.4255
ett	-11.4258
iqst	-11.4258
merger	-11.4258
▁military	-11.4259
-2020	-11.4262
▁shouldn	-11.4264
▁travis	-11.4276
6.3%	-11.4277
▁legend	-11.4279
▁articles	-11.4287
▁hair	-11.4288
▁algorithm	-11.4289
▁reopen	-11.429
▁0.00001	-11.429
▁declines	-11.4293
entrepreneur	-11.4299
▁families	-11.4299
▁survivor	-11.4299
☕	-11.4299
▁concept	-11.4299
148	-11.43
▁sooner	-11.4301
▁preview	-11.4301
▁metrics	-11.4302
▁-3%	-11.4305
clsd	-11.4306
▁defend	-11.4311
▁pumped	-11.4311
▁initiated	-11.4317
twoh	-11.4317
casinocoin	-11.4318
▁triggered	-11.4318
edn	-11.4318
three	-11.4326
▁foods	-11.4326
cnb	-11.4328
sand	-11.4329
mxc	-11.4329
▁1200	-11.4332
▁mobil	-11.4333
▁trim	-11.4334
body	-11.4335
▁47	-11.4337
retail	-11.4338
114	-11.4338
csl	-11.4342
▁intelligence	-11.4343
▁engineer	-11.4346
105	-11.4351
▁pray	-11.4354
oz	-11.4356
gay	-11.4356
candy	-11.4356
▁location	-11.4359
ben	-11.436
0.09	-11.4361
▁outbreak	-11.4361
.28%	-11.4362
▁10$	-11.4362
▁damage	-11.4364
▁properties	-11.4364
nvta	-11.4364
▁logic	-11.4365
grnh	-11.4366
5.6%	-11.4367
jcpnq	-11.4369
ault	-11.4374
ware	-11.4374
alny	-11.4378
▁significantly	-11.4379
▁86%	-11.438
fomc	-11.4383
▁heat	-11.4387
6.9%	-11.4389
▁advertising	-11.4391
uwt	-11.4393
ios	-11.4395
69%	-11.4399
▁dirty	-11.44
5,000,000	-11.4404
bie	-11.4404
memes	-11.4407
▁tons	-11.4409
xl	-11.441
▁-5%	-11.4412
topia	-11.4416
▁95	-11.4419
▁semiconductor	-11.4422
▁owe	-11.4422
▁trap	-11.4422
lowcap	-11.4425
▁method	-11.4425
▁carbon	-11.4428
₿	-11.4428
▁collaboration	-11.4428
▁cumulative	-11.4428
afe	-11.4431
▁patents	-11.4436
iphone	-11.4438
3%)	-11.4449
▁angel	-11.445
rpd	-11.445
▁-5.	-11.4453
ccy	-11.4453
qua	-11.4455
which	-11.4456
orb	-11.4456
grow	-11.4459
launch	-11.4459
diamond	-11.446
▁telecom	-11.4461
roughly	-11.4469
cnk	-11.4472
reli	-11.4473
class	-11.4476
coho	-11.4477
blx	-11.4478
▁41	-11.4484
147	-11.4488
▁dat	-11.4493
colossusxt	-11.4493
⁠	-11.4493
▁tournament	-11.4493
▁begging	-11.4493
kopn	-11.4493
xall	-11.4494
▁yields	-11.4495
▁lease	-11.4499
▁val	-11.4502
7.5%	-11.4503
.04%	-11.4503
tuesday	-11.4504
jets	-11.4504
ouch	-11.4504
mue	-11.4506
ella	-11.4506
inv	-11.4506
3.0%	-11.4511
▁leads	-11.4512
phx	-11.4515
▁gang	-11.4518
.14%	-11.4518
▁sticker	-11.4519
▁crap	-11.4521
▁materials	-11.4523
volume	-11.4523
▁51%	-11.4524
▁sr	-11.4527
▁sma	-11.4528
estate	-11.4531
▁?10	-11.4531
0.9%	-11.4534
ecl	-11.4536
wwe	-11.4538
▁royalties	-11.4547
.06%	-11.4548
nugs	-11.4548
apx	-11.455
▁burning	-11.455
▁voice	-11.4551
tsg	-11.4551
mtg	-11.4556
.21%	-11.4557
vivo	-11.4557
▁counsel	-11.4558
▁language	-11.4558
▁miracle	-11.4558
▁suisse	-11.4558
txmd	-11.4558
✌️	-11.4559
▁title	-11.456
sox	-11.456
ftws	-11.456
▁commodities	-11.456
why	-11.4563
▁bday	-11.4566
▁alex	-11.4566
▁crown	-11.4567
nexus	-11.4567
▁444	-11.4568
▁publish	-11.457
dma	-11.457
▁joint	-11.4573
hca	-11.4577
▁expanding	-11.4577
site	-11.4578
▁❤️?	-11.4578
0.11	-11.4581
▁bang	-11.4582
▁desk	-11.4584
bln	-11.4586
▁models	-11.459
bmw	-11.4591
omi	-11.4603
▁disrupt	-11.4604
▁autonomous	-11.4606
▁har	-11.4607
water	-11.4611
▁students	-11.4614
180	-11.4614
103	-11.4616
76%	-11.462
▁⏲️	-11.4624
▁visual	-11.4624
▁transition	-11.4624
vst	-11.4626
ago	-11.4627
($	-11.463
allowing	-11.4632
8,000	-11.4634
morgan	-11.4637
▁9:	-11.4641
jt	-11.4646
▁hill	-11.4648
ese	-11.4651
gevo	-11.4651
▁messages	-11.4659
tix	-11.466
32%	-11.4661
future	-11.4662
▁operation	-11.4663
blt	-11.4665
▁tronlink	-11.4666
stockmarketnews	-11.4666
▁expands	-11.4667
▁soul	-11.4667
myo	-11.4667
arc	-11.4668
▁gif	-11.4669
sint	-11.4671
▁chemical	-11.4674
teck	-11.4674
cma	-11.4677
tsc	-11.4679
city	-11.468
option	-11.468
truc	-11.4684
trex	-11.4687
ekt	-11.4689
here	-11.469
▁apparently	-11.469
▁auction	-11.469
stocktwits	-11.469
▁greedy	-11.4694
▁shout	-11.4697
cross	-11.4699
▁idiot	-11.4699
coins	-11.4701
chd	-11.4706
cbli	-11.4707
▁14,	-11.4711
▁retailers	-11.4714
▁steam	-11.4715
rain	-11.4718
pill	-11.4725
▁recover	-11.4727
revenue	-11.4727
register	-11.4727
▁dms	-11.4729
▁tariffs	-11.4732
bbt	-11.4734
luna	-11.4734
▁grows	-11.4735
kill	-11.4739
cdw	-11.474
jst	-11.4741
4.4	-11.475
▁flu	-11.4753
❗	-11.4755
rmhb	-11.4757
▁regret	-11.4757
▁advisory	-11.4757
cnh	-11.4761
duo	-11.4761
▁finger	-11.4761
2.3%	-11.4762
▁0.7	-11.4762
▁clinical	-11.4762
5.4%	-11.4769
1.6%	-11.477
allo	-11.477
ching	-11.4771
fate	-11.4775
gata	-11.4775
tail	-11.4775
-8	-11.478
vrm	-11.4781
1%)	-11.4782
▁?❤️	-11.4788
▁sleeping	-11.4789
▁chesapeake	-11.4793
▁tra	-11.4797
interest	-11.4799
▁actively	-11.4801
▁independent	-11.4803
▁israel	-11.4808
premarket	-11.4811
nole	-11.4811
thx	-11.4814
▁concerns	-11.4815
▁journal	-11.4816
▁ag	-11.4817
bro	-11.4819
▁20-	-11.4822
▁activities	-11.4824
corpgov	-11.4824
▁ladies	-11.4824
▁12:00	-11.4824
pulte	-11.4824
▁2010	-11.4824
▁scene	-11.4824
▁compound	-11.4826
▁quant	-11.4826
▁expert	-11.4826
guy	-11.4835
▁maintains	-11.4835
▁nyc	-11.4837
reac	-11.4838
▁era	-11.484
ivr	-11.4844
.91%	-11.4845
decred	-11.4849
smallcap	-11.4849
▁river	-11.485
stmp	-11.4851
berg	-11.4854
etek	-11.4856
emh	-11.4856
nger	-11.4856
fyi	-11.4857
▁pow	-11.4858
phy	-11.4858
zoom	-11.4858
▁firms	-11.4859
▁15,	-11.4864
travel	-11.4865
,000,000	-11.4866
cana	-11.4869
cover	-11.487
acad	-11.487
▁buybacks	-11.4872
▁distribute	-11.4873
bel	-11.4876
▁individuals	-11.4881
boi	-11.4882
▁galaxy	-11.4885
100%	-11.489
▁author	-11.4891
▁dive	-11.4891
▁asia	-11.4891
▁accumulating	-11.4892
▁informative	-11.4892
▁transcript	-11.4892
▁volatile	-11.4892
▁initiative	-11.4892
▁2019-12-	-11.4892
▁citizens	-11.4892
bountyhunter	-11.4892
crox	-11.4893
podd	-11.4894
▁4.5%	-11.4898
corv	-11.4899
nfl	-11.4902
nyc	-11.4903
cbc	-11.4903
▁500000	-11.4906
▁rankings	-11.4907
▁-4%	-11.4907
▁reopening	-11.4908
▁expects	-11.4908
room	-11.4915
0,000,000	-11.4916
▁entering	-11.4918
locking	-11.4918
▁bittrex	-11.4925
▁tests	-11.4927
tori	-11.4927
▁whose	-11.4931
iti	-11.4933
target	-11.4937
▁mix	-11.4943
▁actions	-11.4945
anf	-11.4946
xrt	-11.4952
3.5%	-11.4952
▁200%	-11.4954
▁rid	-11.4954
♥	-11.4957
▁decades	-11.4958
·	-11.496
▁ridiculous	-11.496
▁coindesk	-11.496
▁duration	-11.496
▁smooth	-11.496
russell	-11.496
▁failure	-11.496
nvo	-11.496
▁prefer	-11.4961
▁centralized	-11.4961
socios	-11.4961
iyt	-11.4962
qash	-11.4965
footfetish	-11.4965
mgi	-11.4966
▁exposed	-11.4967
▁calculated	-11.4967
----------------	-11.4968
sho	-11.497
▁gates	-11.4977
0.8%	-11.4981
777	-11.4982
sxp	-11.4985
▁previously	-11.4986
wmd	-11.4987
.02%	-11.4987
▁odyssey	-11.4992
▁financially	-11.4994
▁ranked	-11.4995
▁vice	-11.4995
--?	-11.4999
▁guaranteed	-11.5001
rbi	-11.5003
zel	-11.5003
agrs	-11.5004
shift	-11.5006
▁headlines	-11.5007
graphic	-11.5008
uring	-11.5008
▁schedule	-11.501
▁opp	-11.5012
▁toward	-11.5015
.17%	-11.5015
nly	-11.5016
nan	-11.5017
7.00	-11.5018
lci	-11.5019
▁camera	-11.5019
▁downgrade	-11.502
moab	-11.502
avg	-11.5026
txy	-11.5027
―	-11.5028
▁worried	-11.5028
▁housing	-11.5028
▁deserves	-11.5031
▁smoke	-11.5032
▁9%	-11.5032
▁reserves	-11.5032
yes	-11.5032
▁selection	-11.5034
▁airline	-11.5036
splk	-11.5044
stockexchange	-11.5045
▁remove	-11.5046
▁lying	-11.505
▁bullsh	-11.5051
ency	-11.5052
very	-11.5054
crus	-11.5056
illa	-11.506
dly	-11.5063
▁explore	-11.5063
▁developments	-11.5064
▁mj	-11.5065
bitb	-11.5065
crew	-11.5066
content	-11.5067
▁ps	-11.5068
tum	-11.5071
▁2013	-11.5073
▁beverage	-11.5077
▁units	-11.5079
▁42	-11.508
driven	-11.5083
cbu	-11.5086
pivots	-11.5088
epd	-11.5089
cmd	-11.5089
ubs	-11.509
oooo	-11.5095
▁approximately	-11.5097
▁beginner	-11.5098
▁peace	-11.5098
tmdi	-11.5102
avi	-11.5102
▁5/1	-11.5105
kan	-11.5106
fxc	-11.5112
▁usage	-11.5115
.09%	-11.5115
▁spreads	-11.5115
sissy	-11.5118
▁summit	-11.5118
tards	-11.5124
▁woke	-11.5125
dest	-11.5125
vape	-11.5126
webdollar	-11.5126
▁⚽️	-11.5128
tdg	-11.5132
4.0%	-11.5137
public	-11.5146
pop	-11.5147
tryna	-11.5147
.62%	-11.5148
▁☘️	-11.5149
▁acquisitions	-11.5151
▁staff	-11.5153
.51	-11.5154
!!!!!!!!	-11.5161
atos	-11.5166
▁2019-08-	-11.5166
▁aggressive	-11.5166
▁occur	-11.5167
▁attractive	-11.5167
▁ensure	-11.5167
axsm	-11.5168
▁improvement	-11.5168
een	-11.5169
ran	-11.5169
boss	-11.517
lvca	-11.5171
▁saving	-11.5176
’!!!!	-11.5178
225	-11.5182
cboe	-11.5186
hmc	-11.5186
trn	-11.5187
zero	-11.5189
▁bridge	-11.5189
hur	-11.5189
peer	-11.5192
sun	-11.5195
▁signup	-11.5196
.59%	-11.5197
▁weed	-11.5199
▁hero	-11.52
▁treasure	-11.5207
rry	-11.5208
▁meat	-11.5208
fhn	-11.5215
aug	-11.5219
great	-11.5221
▁-15%	-11.5225
ibd	-11.5226
2.7%	-11.5229
▁500,000	-11.5234
▁executives	-11.5235
▁concern	-11.5235
cld	-11.5236
▁deaths	-11.5236
arql	-11.5236
▁1.5%-2.5%	-11.5236
▁69696969	-11.5236
▁struggle	-11.5236
▁village	-11.5236
▁writing	-11.5236
▁bancshares	-11.5236
▁relief	-11.5236
▁skyrocket	-11.5236
6.1%	-11.5237
▁clue	-11.5237
rockysaas	-11.5237
5.7%	-11.5237
monitor	-11.5239
lower	-11.5239
moh	-11.5239
▁blind	-11.5239
profits	-11.524
cpx	-11.5243
.78%	-11.5246
accr	-11.5246
iran	-11.5247
paper	-11.525
fisv	-11.5252
▁medicine	-11.5254
jack	-11.5256
cris	-11.5259
▁bout	-11.5262
kitty	-11.5263
▁promised	-11.5264
cnat	-11.5266
80%	-11.5267
ckb	-11.5268
dte	-11.5272
750	-11.5273
phas	-11.528
▁momo	-11.5285
ndi	-11.5288
amg	-11.5291
▁ante	-11.5293
▁.10	-11.5293
fraud	-11.5293
dca	-11.53
▁420	-11.5301
advisor	-11.5303
hash	-11.5303
holders	-11.5304
nikkei	-11.5307
▁reflect	-11.5307
irnc	-11.5309
▁sneak	-11.531
cpg	-11.531
tco	-11.5311
insw	-11.5312
▁webinar	-11.5313
▁hundred	-11.5316
bntx	-11.5316
dyt	-11.5317
▁bmo	-11.5317
▁govt	-11.5319
elo	-11.532
136	-11.5326
▁managed	-11.5334
▁para	-11.5346
8.0	-11.5349
stt	-11.5352
▁uncensored	-11.5354
dana	-11.5358
5.9%	-11.5359
rating	-11.5359
bti	-11.5361
buying	-11.5361
▁jumping	-11.5361
success	-11.5365
▁grant	-11.537
keep	-11.5371
▁physical	-11.5373
tyx	-11.5376
▁department	-11.5378
▁animal	-11.5378
agrx	-11.538
symc	-11.538
kirk	-11.5381
▁???#	-11.5382
grade	-11.5382
▁gear	-11.5384
gds	-11.5385
nrz	-11.5385
▁horse	-11.5387
mik	-11.5387
viral	-11.5387
▁tomochain	-11.539
shortsqueeze	-11.539
paas	-11.5394
▁extended	-11.5395
▁cream	-11.5396
▁bomb	-11.5397
cai	-11.5397
mck	-11.5406
▁speaking	-11.5407
learn	-11.5411
▁chips	-11.5412
ncy	-11.5413
american	-11.5417
eau	-11.5418
tran	-11.5422
ole	-11.5426
lect	-11.5426
jdst	-11.5427
8.3	-11.5428
pdt	-11.5429
▁tier	-11.5439
metals	-11.544
.68%	-11.544
▁topic	-11.5442
▁160	-11.5444
▁-0.2	-11.5447
▁tributes	-11.5449
▁exploring	-11.5449
▁oppenheimer	-11.5449
▁whistleblower	-11.5449
▁afraid	-11.5449
pwc	-11.545
▁regulatory	-11.5451
▁propose	-11.5451
15.04	-11.5452
.13%	-11.5452
▁bump	-11.5453
ient	-11.5455
hole	-11.5455
float	-11.5456
prime	-11.5458
▁admin	-11.5459
▁proposal	-11.546
eros	-11.5461
cto	-11.5461
▁brokers	-11.5462
▁64	-11.5463
▁whoever	-11.5466
▁58	-11.5474
▁rush	-11.5477
cell	-11.5478
▁backup	-11.5481
asi	-11.5482
▁fleet	-11.5485
modely	-11.5486
pra	-11.5488
▁pulled	-11.5492
aig	-11.5493
nsc	-11.5494
artist	-11.5495
.31%	-11.55
▁remind	-11.55
▁ob	-11.55
▁55%	-11.5503
demon	-11.5503
▁warn	-11.5503
▁suffer	-11.5507
motivation	-11.5507
equities	-11.5513
333	-11.5513
twitch	-11.5515
▁21,	-11.5516
▁consecutive	-11.5521
shldq	-11.5521
alxn	-11.5521
▁bundle	-11.5522
mit	-11.5522
▁queer	-11.5522
▁wager	-11.5522
▁merchants	-11.5524
▁provided	-11.5526
▁potus	-11.5529
▁180	-11.5531
disruptive	-11.5538
refer	-11.5541
jj	-11.5541
4.9	-11.5546
▁46%	-11.5547
▁gained	-11.5548
▁.002	-11.5549
rosed	-11.5552
▁bs	-11.5555
cbdl	-11.556
.37%	-11.5563
.38%	-11.5563
.45%	-11.5564
where	-11.5567
▁server	-11.5567
▁map	-11.5569
daytrade	-11.557
▁ep	-11.557
loss	-11.5573
holo	-11.5573
zer	-11.5579
3.1	-11.5582
▁57	-11.5584
▁berkshire	-11.5584
▁square	-11.5588
▁constellation	-11.5589
company	-11.5589
▁east	-11.559
▁thurs	-11.5592
▁jersey	-11.5594
▁babies	-11.5594
▁norway	-11.5594
▁reit	-11.5594
▁maximize	-11.5594
nail	-11.5595
▁display	-11.5595
▁admit	-11.5595
▁parents	-11.5599
gap	-11.56
loki	-11.5601
▁surpassed	-11.5604
▁→	-11.5606
hard	-11.5611
▁rap	-11.5612
▁bal	-11.5615
365	-11.5616
veil	-11.5617
tipbot	-11.562
5.4	-11.5622
▁bars	-11.5622
▁beach	-11.5624
▁label	-11.5627
vsf	-11.5628
▁lev	-11.563
wind	-11.5631
xon	-11.5633
place	-11.5636
giga	-11.5637
▁idk	-11.5642
▁banano	-11.5644
▁pharmaceutical	-11.5644
aaaa	-11.5651
0.01	-11.5657
▁positioned	-11.5658
droid	-11.5659
▁historic	-11.5663
▁exact	-11.5664
▁laws	-11.5664
▁conservative	-11.5667
▁wedbush	-11.5667
diagnostics	-11.5667
▁scaling	-11.5667
▁24/7	-11.5667
▁brian	-11.5667
rif	-11.5667
▁titan	-11.5668
▁vegas	-11.5668
▁suntrust	-11.5668
ptah	-11.5669
▁membership	-11.5669
▁regardless	-11.5669
nuro	-11.5669
winning	-11.567
cherry	-11.5671
▁film	-11.5671
▁lord	-11.5671
9%)	-11.5676
▁certainly	-11.5678
qbio	-11.5682
promo	-11.5683
117	-11.5683
▁climate	-11.5683
▁fears	-11.5689
▁passes	-11.569
tna	-11.5691
155	-11.5695
kgc	-11.5698
▁signing	-11.5699
▁checkout	-11.57
bco	-11.5702
▁grown	-11.5703
vfc	-11.5704
mom	-11.5718
45%	-11.572
cia	-11.5728
0.0%	-11.5729
▁career	-11.5729
▁lay	-11.5732
kay	-11.5735
smallcaps	-11.5738
▁elephant	-11.574
▁washington	-11.574
▁faith	-11.574
pii	-11.5742
pdiv	-11.5743
mjne	-11.5747
▁sites	-11.5748
▁army	-11.5752
poker	-11.5752
]:	-11.5753
▁hang	-11.5754
▁changer	-11.5755
squad	-11.5756
▁explains	-11.5756
▁lists	-11.5758
215	-11.5761
▁counter	-11.5762
▁kinda	-11.5763
cnp	-11.5764
toca	-11.5768
▁shill	-11.5773
▁officers	-11.5777
fda	-11.5777
▁tutorial	-11.578
trustwallet	-11.578
▁longest	-11.5782
cnv	-11.5782
▁140	-11.5785
▁completes	-11.5786
6.7%	-11.5791
9.00	-11.5791
▁soar	-11.5792
$10	-11.5793
▁-12%	-11.5794
ssss	-11.58
masi	-11.58
cctip	-11.5802
tak	-11.5804
▁deck	-11.5809
strategy	-11.581
zzy	-11.581
▁broadcast	-11.5812
sgen	-11.5813
racing	-11.5813
chromia	-11.5814
chicago	-11.5814
alaska	-11.5814
humiliation	-11.5814
▁⬅️	-11.5814
▁shelter	-11.5814
soon	-11.5815
psa	-11.5815
fishing	-11.5816
cna	-11.5816
mlhc	-11.5817
▁paint	-11.5817
▁kong	-11.5818
ram	-11.5819
tgcom	-11.5821
▁exec	-11.5821
▁gambling	-11.5822
▁threaten	-11.5823
▁45%	-11.5823
▁recall	-11.5823
▁warming	-11.5826
▁manipulation	-11.5826
soxl	-11.5826
▁loved	-11.5831
▁chains	-11.5833
▁minor	-11.5834
dolly	-11.5835
▁runners	-11.5835
cort	-11.5837
▁alot	-11.5837
victoria	-11.5838
pkb	-11.5839
▁matching	-11.5839
stra	-11.584
hq	-11.5841
hub	-11.5846
fill	-11.5851
booty	-11.5852
myc	-11.5864
▁rated	-11.5865
▁+1%	-11.5866
3.8	-11.5866
▁reiterate	-11.587
ryan	-11.5871
7.50	-11.5873
6.6	-11.5874
▁bil	-11.5885
▁fashion	-11.5886
amaz	-11.5887
▁retire	-11.5888
▁heavily	-11.5889
▁monitoring	-11.5889
9.99	-11.5891
clean	-11.5891
▁troll	-11.5892
thmo	-11.5892
▁depot	-11.5893
iest	-11.5893
ccj	-11.5895
▁talked	-11.5896
olli	-11.5896
crnt	-11.5896
▁impressed	-11.5896
piggy	-11.5896
blin	-11.5897
1.20	-11.5898
amfe	-11.5898
eman	-11.59
▁gop	-11.5901
madness	-11.5903
.85%	-11.5904
yriv	-11.5905
-2019	-11.5905
▁400%	-11.591
ntnx	-11.5914
▁william	-11.5915
▁ordered	-11.5918
chef	-11.592
▁metal	-11.592
▁0.06	-11.5924
party	-11.5926
▁2012	-11.593
4.50	-11.5934
▁thu	-11.5936
twou	-11.5938
ric	-11.5943
▁13:	-11.5948
▁affect	-11.5952
▁cla	-11.5954
▁tour	-11.5958
swing	-11.5958
▁efficient	-11.5959
note	-11.596
corrupt	-11.5964
▁encourage	-11.5964
nbdr	-11.5964
bitsika	-11.5964
▁nigga	-11.5964
▁bothering	-11.5964
internet	-11.597
src	-11.597
exla	-11.5974
thestreet	-11.5981
cprt	-11.5983
▁rumor	-11.5984
ign	-11.5984
draw	-11.5985
xrx	-11.599
▁11%	-11.5993
▁scores	-11.5995
▁prop	-11.5997
.43%	-11.5997
.81%	-11.5998
▁flowing	-11.6006
▁haha	-11.6008
▁tf	-11.6008
▁complet	-11.6011
vnt	-11.6014
marieee	-11.6015
ride	-11.6015
▁gaining	-11.6016
▁usual	-11.6019
lon	-11.6022
▁pages	-11.6025
pmt	-11.6025
▁reminds	-11.6028
▁suspend	-11.6028
lyz	-11.6032
train	-11.6034
ski	-11.6037
¡	-11.604
▁appreciation	-11.604
▁equipment	-11.604
▁sapra	-11.604
▁facing	-11.604
▁denver	-11.6041
7.8%	-11.6042
▁dc	-11.6044
anna	-11.6046
▁hy	-11.6047
▁fallen	-11.6047
20%).	-11.6048
together	-11.6048
▁drilling	-11.6048
▁magic	-11.605
▁0.016	-11.605
seele	-11.6054
▁[15	-11.6057
▁-11%	-11.6058
sfet	-11.6061
ane	-11.6064
oncs	-11.6065
ammj	-11.6067
▁mixed	-11.607
▁pussy	-11.607
debt	-11.607
▁tanker	-11.607
gmt	-11.6079
▁initiate	-11.6079
240	-11.6082
▁??????????	-11.6082
.95%	-11.6082
humanity	-11.6083
erve	-11.6087
▁.....	-11.6089
unb	-11.609
▁251	-11.6091
▁devs	-11.6091
2.0%	-11.6103
ena	-11.6108
avx	-11.6113
▁ebitda	-11.6114
dbet	-11.6114
▁horizon	-11.6115
▁-10%	-11.6115
interoperability	-11.6116
jmia	-11.6116
▁eager	-11.6116
nvgt	-11.6117
marketprofile	-11.6117
fall	-11.6117
▁interaction	-11.6119
▁crossover	-11.6119
wear	-11.6119
▁globe	-11.612
▁proper	-11.6121
wor	-11.6122
▁lean	-11.6123
▁intra	-11.6123
▁unusually	-11.6126
project	-11.6126
walmart	-11.6126
picks	-11.6129
rail	-11.6129
cancer	-11.6129
gpn	-11.613
▁named	-11.6133
▁tracking	-11.6138
neena	-11.6139
mist	-11.614
mcoa	-11.615
▁"$	-11.6155
▁unions	-11.6158
▁carnival	-11.616
bell	-11.616
▁institutions	-11.6164
▁dyor	-11.6165
jp	-11.6165
▁dry	-11.6166
▁sustainable	-11.6182
insg	-11.6185
199	-11.6186
▁hole	-11.6186
▁regular	-11.6188
▁margins	-11.6189
was	-11.6191
▁practice	-11.6193
nosuf	-11.6193
▁chicago	-11.6193
tiffany	-11.6193
fusion	-11.6194
▁merck	-11.6194
▁express	-11.6195
addict	-11.6196
▁places	-11.6199
weight	-11.62
crudeoil	-11.62
deep	-11.6201
275	-11.6202
gel	-11.6203
cfg	-11.6203
management	-11.6206
eks	-11.6206
rap	-11.6206
mainnet	-11.6207
6,000	-11.6212
90%	-11.6212
gncp	-11.6212
thick	-11.6223
asa	-11.6223
nmus	-11.6226
amlp	-11.6227
▁***	-11.6229
▁performances	-11.6232
340	-11.6233
▁mike	-11.6235
▁bust	-11.6242
gee	-11.6245
7.3%	-11.6245
▁considered	-11.6247
▁54%	-11.6248
monetiz	-11.6249
ised	-11.6251
▁bankrupt	-11.6253
signal	-11.6253
oop	-11.6253
arbitra	-11.6255
0.5%	-11.6256
using	-11.6263
▁38%	-11.6263
220	-11.6266
mophobi	-11.6271
hmpq	-11.6271
▁taxpayer	-11.6271
pbyi	-11.6271
cgix	-11.6271
xxii	-11.6272
▁percentage	-11.6272
▁kdj	-11.6273
0.23	-11.6273
5.000	-11.6274
▁dangerous	-11.6274
sjm	-11.6275
▁thi	-11.6278
found	-11.628
❗️	-11.6281
▁intl	-11.6283
▁competitors	-11.6287
▁viacom	-11.6289
50,000	-11.6291
▁stars	-11.6296
byoc	-11.6298
▁headline	-11.6301
▁achieved	-11.6308
yan	-11.6311
▁cz	-11.6315
5%)	-11.6316
hair	-11.6323
▁1.0	-11.6324
▁fib	-11.6334
▁8000	-11.6339
kar	-11.6343
▁risky	-11.6346
▁♻️?	-11.6347
markytshop	-11.6349
☝	-11.6349
diabetes	-11.6349
latimes	-11.6349
▁improving	-11.6349
matthew	-11.6349
cowp	-11.635
737	-11.6352
▁forgot	-11.6353
▁quarters	-11.6354
season	-11.6354
▁platinum	-11.6356
▁resign	-11.6356
gbt	-11.6358
thanks	-11.6358
awta	-11.6359
cir	-11.6359
treason	-11.636
cryptoexchange	-11.6363
▁tps	-11.6365
samsung	-11.6366
cow	-11.6367
▁labs	-11.6368
nls	-11.6371
▁carry	-11.6371
unit	-11.6372
ctb	-11.6372
3.000	-11.6375
cher	-11.6378
9.7%	-11.6379
▁prevent	-11.6386
paris	-11.6389
▁.05	-11.6391
boo	-11.6391
▁announcements	-11.6392
jobs	-11.6392
▁primed	-11.6393
▁controll	-11.6394
▁publicly	-11.6395
itw	-11.6402
case	-11.6402
▁charity	-11.6406
dad	-11.6407
▁0.07	-11.6408
▁bye	-11.6412
error	-11.6414
?♥️	-11.6424
dnvgl	-11.6427
▁accuracy	-11.6427
▁preparing	-11.6427
▁vertical	-11.6427
▁traditional	-11.6428
▁operator	-11.6428
rant	-11.6428
▁areas	-11.6429
ocgn	-11.643
▁surgery	-11.643
▁smile	-11.6433
mfg	-11.6434
analysis	-11.6436
backed	-11.6437
vgr	-11.6439
▁exor	-11.6439
▁crime	-11.644
never	-11.6441
▁fetish	-11.6441
highcap	-11.6444
▁manufacturer	-11.6446
0%)	-11.6448
▁saved	-11.6453
7%)	-11.6454
▁shooting	-11.6457
▁sole	-11.6458
▁item	-11.646
pxd	-11.6464
ethos	-11.6466
▁bmw	-11.6469
rmk	-11.6472
▁terr	-11.6473
▁training	-11.6474
6.2%	-11.6476
#$	-11.6477
▁pros	-11.6477
▁ken	-11.648
table	-11.6481
▁cry	-11.6488
move	-11.649
chied	-11.6491
▁alaska	-11.65
▁dan	-11.6504
6.8%	-11.6506
▁evolving	-11.6507
basicattention	-11.6507
robotics	-11.6507
▁weapon	-11.6507
▁scheme	-11.6507
vgtl	-11.6507
windrops	-11.6508
▁import	-11.6508
destiny	-11.6509
quan	-11.651
charlie	-11.651
▁hodlers	-11.651
rkun	-11.6512
▁voyage	-11.6513
bitant	-11.6513
▁rapidly	-11.6519
rmbl	-11.6519
▁halted	-11.6526
brc	-11.6527
?!?!	-11.6528
➡️	-11.653
outbreak	-11.653
▁connected	-11.6531
▁scott	-11.6532
bibox	-11.6533
enjin	-11.6533
▁tjx	-11.6533
bytes	-11.6535
▁ben	-11.6538
▁sugar	-11.6539
nete	-11.654
biz	-11.6542
arpa	-11.6548
inn	-11.6551
5.7	-11.6552
wmc	-11.6552
dssi	-11.6552
121	-11.6552
soft	-11.6553
arrr	-11.6554
▁confirms	-11.6554
closes	-11.6556
▁therapy	-11.6558
▁+4%	-11.656
▁dreams	-11.656
tsl	-11.6562
▁tue	-11.6563
mtc	-11.6564
▁trash	-11.6564
▁sing	-11.6565
ggp	-11.6567
2021	-11.6569
▁batteries	-11.6577
9.4%	-11.6582
▁merch	-11.6583
▁lit	-11.6584
▁gems	-11.6584
▁????????????	-11.6586
hackenai	-11.6587
▁grocery	-11.6587
▁incredibly	-11.6587
▁scalability	-11.6587
▁thrilled	-11.6587
bitfinex	-11.6587
qrvo	-11.6587
▁flood	-11.6587
▁pennies	-11.6587
▁femme	-11.6587
▁monetized	-11.6587
lrsv	-11.6587
▁settlement	-11.6588
▁onwards	-11.6588
▁paul	-11.659
yyy	-11.6591
unity	-11.6591
.82	-11.6592
▁reaffirmed	-11.6595
235	-11.6595
imac	-11.6596
igng	-11.6599
vision	-11.66
crmd	-11.6602
▁restaurants	-11.6603
teslamodel	-11.661
xog	-11.661
klac	-11.661
choof	-11.6613
cheap	-11.6617
▁influencer	-11.6622
▁2/2	-11.6622
pzm	-11.6623
action	-11.6629
lad	-11.6629
▁owning	-11.6633
sonn	-11.6634
craft	-11.6636
▁scammers	-11.6636
!!!??	-11.6637
▁mycointainer	-11.6637
draco	-11.6639
007	-11.6639
$5	-11.6643
▁lottery	-11.6648
llit	-11.6649
▁jp	-11.6652
7.4%	-11.6652
▁las	-11.6653
▁stellar	-11.6654
▁pickup	-11.6659
rub	-11.6661
▁warrant	-11.6661
▁communication	-11.6662
bitc	-11.6666
▁1-2	-11.6666
hottiesathome	-11.6667
▁compatible	-11.6667
▁competitive	-11.6667
▁legacy	-11.6667
▁▫️	-11.6667
▁overvalued	-11.6667
▁breath	-11.6667
gtbif	-11.6668
lnkd	-11.6668
▁empty	-11.6668
▁fellow	-11.6668
▁buckle	-11.6668
wireless	-11.6668
▁ruin	-11.6669
sbfm	-11.6669
elonmusk	-11.6669
nxpi	-11.667
.71%	-11.667
realestate	-11.667
▁specific	-11.6671
ebonydomme	-11.6671
▁cult	-11.6674
▁chill	-11.6675
▁haters	-11.6677
▁drivers	-11.6677
fully	-11.668
▁africa	-11.6683
▁crush	-11.6684
7.0%	-11.6687
▁2009	-11.669
▁conducted	-11.6691
kbc	-11.6693
recession	-11.6695
▁sand	-11.6702
rand	-11.6707
▁(-0.3	-11.6708
btmx	-11.6708
4.6%	-11.6709
luc	-11.6711
▁timeline	-11.6722
▁dau	-11.6723
▁51	-11.6724
noia	-11.6731
hubs	-11.6735
▁pile	-11.6737
4.2%	-11.6741
❤❤❤	-11.6749
▁nasty	-11.6749
cobalt	-11.675
xfls	-11.675
▁sample	-11.6751
tradedeal	-11.6751
opgn	-11.6751
dues	-11.6752
▁kiss	-11.6752
▁mainstream	-11.6752
▁grabb	-11.6757
streaming	-11.6757
instar	-11.6759
▁debit	-11.6759
▁33%	-11.676
tomz	-11.6761
cbay	-11.6767
▁thankful	-11.6769
seed	-11.677
pssi	-11.677
▁ability	-11.6771
▁vibes	-11.6772
▁removed	-11.6775
product	-11.6775
partner	-11.6785
▁celebrated	-11.6785
lung	-11.6786
▁5$	-11.6792
▁334	-11.6797
.33%	-11.6799
dub	-11.6799
zuo	-11.68
lie	-11.6804
vaf	-11.6806
▁provider	-11.6808
rell	-11.6808
300,000	-11.6809
▁scientists	-11.681
▁processing	-11.6811
mtn	-11.6811
ydx	-11.6814
thank	-11.6814
sports	-11.6815
producer	-11.6817
milv	-11.6818
▁seed	-11.6827
eep	-11.6827
▁understanding	-11.6829
remittance	-11.6831
▁category	-11.6831
▁gambiste	-11.6831
▁swiss	-11.6831
kshb	-11.6831
nlnk	-11.6831
▁cowen	-11.6837
jnk	-11.684
6000	-11.6841
212	-11.6843
guard	-11.6844
(2	-11.6844
▁29,	-11.6851
▁agreed	-11.6852
probit	-11.6853
carb	-11.6855
2.20	-11.6858
mph	-11.6859
oracle	-11.6861
▁spring	-11.6863
▁condition	-11.6863
royalty	-11.6865
6%)	-11.6868
resist	-11.6869
▁fundamental	-11.687
▁dance	-11.687
▁drugs	-11.6872
▁cable	-11.6873
tone	-11.6873
▁drag	-11.6873
equi	-11.6875
lash	-11.6878
jin	-11.6878
aelf	-11.6878
cnq	-11.6883
afta	-11.6883
znn	-11.6887
▁fucked	-11.6892
▁showin	-11.6894
evr	-11.6895
gern	-11.6902
▁forced	-11.6902
▁halloween	-11.6905
▁hash	-11.691
dfe	-11.6913
▁130	-11.6913
▁character	-11.6913
⤵	-11.6913
▁peeps	-11.6913
▁vacation	-11.6913
mctc	-11.6914
▁thunder	-11.6914
▁jeff	-11.6914
violet	-11.6914
▁slack	-11.6914
▁dominate	-11.6914
5.2%	-11.6915
cbrl	-11.6915
▁sanders	-11.6916
oxt	-11.6917
▁ascending	-11.6917
▁debut	-11.6918
dro	-11.6927
epstein	-11.6928
ndev	-11.6933
▁theory	-11.6933
tbp	-11.6936
▁attending	-11.6943
gltc	-11.6944
tarot	-11.6944
kat	-11.6947
acst	-11.6947
active	-11.6947
selling	-11.6948
verasity	-11.6949
netflix	-11.695
.42%	-11.6952
▁tl	-11.6953
coco	-11.6957
▁(-0.1	-11.6957
▁17,	-11.6961
wsn	-11.6963
lam	-11.6964
▁►	-11.6966
▁began	-11.6966
▁“#	-11.6966
▁australia	-11.6967
▁discussing	-11.6967
▁cock	-11.6969
pyx	-11.6973
⚠️	-11.6975
+8	-11.6976
▁indicate	-11.6978
doll	-11.6981
▁await	-11.6982
▁promises	-11.6985
▁backtest	-11.6985
▁fade	-11.6986
▁browse	-11.699
▁uncle	-11.6991
sipc	-11.6994
again	-11.6995
▁circulating	-11.6997
▁committee	-11.6997
stood	-11.6998
▁smell	-11.6998
▁0.9	-11.7
▁echo	-11.7
ctt	-11.7001
tia	-11.7007
2.5%	-11.7007
0.14	-11.7009
▁peers	-11.7011
hbi	-11.7012
qual	-11.7013
xmas	-11.7014
1,000	-11.7015
june	-11.7015
▁88%	-11.7016
$$$$	-11.7017
▁gotten	-11.7019
xreg	-11.7019
telos	-11.7021
▁creative	-11.7027
▁letting	-11.7027
mlm	-11.7031
kool	-11.7032
poloniex	-11.7035
complete	-11.7036
delivered	-11.7038
ccxi	-11.704
▁155	-11.7041
terc	-11.7041
metric	-11.705
digp	-11.7051
▁dates	-11.7052
spacex	-11.7054
yang	-11.7057
▁dust	-11.7059
▁50$	-11.706
hour	-11.7067
▁62%	-11.7068
▁surpass	-11.7069
haven	-11.7071
▁rivals	-11.7072
quo	-11.7076
egc	-11.7076
vlt	-11.7077
▁lovely	-11.7078
ttt	-11.7079
steel	-11.708
▁hungry	-11.7081
▁narrative	-11.7081
sugardaddy	-11.7081
▁football	-11.7081
▁domino	-11.7081
view	-11.7081
▁besides	-11.7082
afl	-11.7083
▁priority	-11.7083
▁alaskan	-11.7088
rads	-11.7089
donald	-11.7091
▁seven	-11.7095
small	-11.7096
▁stone	-11.7099
▁throughout	-11.71
▁virtu	-11.7101
▁capex	-11.7102
▁robot	-11.7106
clls	-11.7107
▁ebony	-11.7109
▁thesis	-11.711
▁qtr	-11.7111
▁parking	-11.7113
tokenpay	-11.7113
ttph	-11.7114
vray	-11.7117
7.7%	-11.7121
exclusive	-11.7121
50.000	-11.7122
tza	-11.7122
international	-11.7123
tandwithdigibyte	-11.7124
ledger	-11.7127
medical	-11.7127
proof	-11.7128
108	-11.7131
▁001	-11.7131
.000.000	-11.7133
abus	-11.7143
07%	-11.715
uone	-11.7152
mntr	-11.7152
ema	-11.7154
acr	-11.7155
▁adjust	-11.7156
▁upward	-11.7156
rally	-11.7158
▁bezos	-11.7161
▁maya	-11.7164
▁universal	-11.7165
▁university	-11.7165
beijing	-11.7165
▁league	-11.7165
▁marriott	-11.7165
▁releasing	-11.7165
▁sideways	-11.7165
▁dealing	-11.7166
gteh	-11.7166
xau	-11.7167
▁cooper	-11.7168
▁moron	-11.7168
surg	-11.7168
bimi	-11.7169
emini	-11.717
esports	-11.717
▁hire	-11.7172
▁aware	-11.7174
hou	-11.7174
nomics	-11.718
▁spots	-11.7181
script	-11.7184
8.2%	-11.7185
imize	-11.7189
▁introduced	-11.7194
1.75	-11.7194
roo	-11.7195
payx	-11.7196
▁cure	-11.7199
▁17%	-11.7207
etf	-11.7209
quarter	-11.721
8.1%	-11.7216
drain	-11.7217
hdb	-11.7219
cosmos	-11.7219
lnd	-11.7222
arry	-11.7224
▁inverse	-11.7225
cole	-11.7225
.......	-11.7227
hmn	-11.7229
pru	-11.7232
6.0%	-11.7234
colm	-11.7234
270	-11.7236
liv	-11.7237
soan	-11.7239
▁til	-11.7242
▁disaster	-11.7245
every	-11.7246
⏱	-11.7251
▁architecture	-11.7251
⠀	-11.7251
ennystockhotline	-11.7251
▁ultra	-11.7251
▁approx	-11.7251
fusz	-11.7251
nigeria	-11.7251
icymi	-11.7252
hunter	-11.7254
11.4%	-11.7256
▁profitability	-11.7258
oon	-11.7259
hack	-11.7259
▁cd	-11.726
126	-11.7262
▁freak	-11.7265
▁fish	-11.7271
elle	-11.7271
verse	-11.7274
faucet	-11.7278
mcy	-11.7279
banking	-11.7281
brid	-11.7282
apru	-11.7285
▁printing	-11.7289
dcn	-11.729
▁parks	-11.7295
exm	-11.7301
voting	-11.7301
economic	-11.7304
think	-11.7307
nike	-11.7308
ington	-11.731
hepa	-11.7311
tenx	-11.7311
gbd	-11.7313
▁mines	-11.7313
shit	-11.7317
▁backing	-11.7318
micro	-11.7322
▁2017.	-11.7335
▁500%	-11.7336
arg	-11.7336
??‍♀️	-11.7337
▁perpetual	-11.7337
▁daimler	-11.7337
ibility	-11.7337
▁chasing	-11.7338
▁seattle	-11.7338
doctor	-11.7338
bcrx	-11.7339
dwt	-11.7339
natgas	-11.734
shale	-11.7341
▁smash	-11.7342
paypigs	-11.7342
▁eoy	-11.7342
bant	-11.7343
syf	-11.7348
rbii	-11.7348
▁hong	-11.7352
71%	-11.7353
ccdc	-11.7355
▁explorer	-11.7356
▁pilot	-11.7356
elan	-11.7356
boxl	-11.7359
▁rental	-11.7362
lex	-11.7363
ition	-11.7363
▁⛓	-11.7364
aft	-11.7365
lim	-11.7367
lance	-11.7368
▁targeted	-11.7371
▁sm	-11.7372
▁faces	-11.7373
coss	-11.7373
▁noise	-11.7374
ivv	-11.7375
▁mask	-11.7376
▁culture	-11.7377
diana	-11.7377
▁amounts	-11.7385
“	-11.7388
services	-11.7389
▁thermo	-11.7389
.88%	-11.7391
sold	-11.7395
▁woo	-11.7395
ense	-11.7398
0.25	-11.7401
mwat	-11.7403
versa	-11.7404
easter	-11.7406
▁columbia	-11.741
▁deploy	-11.7411
▁apart	-11.7411
sail	-11.7413
kore	-11.7414
stth	-11.7417
▁$0.06	-11.7417
moke	-11.742
▁elliott	-11.7424
dapsiscoming	-11.7424
▁senate	-11.7424
kylie	-11.7424
▁deployment	-11.7425
▁charles	-11.7426
asia	-11.7427
zyne	-11.7427
bid	-11.7427
lgcy	-11.7427
dmx	-11.7427
optional	-11.743
▁desperately	-11.7433
lgd	-11.7434
eyes	-11.7438
ptn	-11.7446
twi	-11.7448
▁didnt	-11.7449
▁react	-11.7453
otcmarkets	-11.7453
▁43%	-11.7453
direct	-11.7458
tiff	-11.7459
▁(7	-11.746
▁veteran	-11.7464
nation	-11.7466
▁-7.	-11.7468
41%	-11.747
zcash	-11.7473
▁vwap	-11.7475
▁scans	-11.7475
▁luxury	-11.7477
ebony	-11.7478
dvd	-11.748
face	-11.7484
▁acts	-11.7485
.35%	-11.7497
410	-11.75
cae	-11.7504
▁scare	-11.7505
▁6.4%	-11.7506
▁southern	-11.7512
▁dedicate	-11.7512
▁execution	-11.7512
▁introduction	-11.7512
▁unbelievable	-11.7512
▁biosciences	-11.7512
jnpr	-11.7512
▁uncertainty	-11.7512
▁chicken	-11.7512
▁hybrid	-11.7512
▁chromia	-11.7512
aergo	-11.7512
▁reference	-11.7512
▁hates	-11.7512
▁buddy	-11.7512
▁biopharma	-11.7513
▁drone	-11.7514
▁completion	-11.7514
rie	-11.7515
buffet	-11.7516
▁duke	-11.7516
▁4/1	-11.7517
▁locations	-11.7517
▁overweight	-11.7519
▁surges	-11.7519
▁16:00	-11.7519
▁yep	-11.7519
altszn	-11.752
egi	-11.7522
adv	-11.753
▁riding	-11.7531
irm	-11.7533
▁coinzo	-11.7538
aemd	-11.7544
▁crashes	-11.7548
▁30000000	-11.755
▁3.5%	-11.7553
143	-11.7557
▁delivering	-11.7557
00+	-11.7558
intv	-11.7558
▁28,	-11.7565
mention	-11.757
⭐️	-11.7571
supply	-11.7572
▁components	-11.7574
elt	-11.7575
▁union	-11.7579
thursday	-11.7584
?✨	-11.7591
mmex	-11.7594
fest	-11.7597
bbi	-11.7599
▁(-0.2	-11.76
▁retrace	-11.76
tupid	-11.76
▁pig	-11.76
~$5.3	-11.76
▁conversation	-11.76
▁facilities	-11.76
▁franchise	-11.76
▁invitation	-11.76
▁juicy	-11.76
harmonic	-11.76
▁analyze	-11.76
▁tilray	-11.76
gxxm	-11.7601
▁elite	-11.7605
▁dems	-11.7606
▁partial	-11.7606
aml	-11.7607
cuck	-11.7608
bridge	-11.7609
till	-11.7612
merchant	-11.7619
▁27-	-11.7619
tpc	-11.762
▁adam	-11.7622
vreo	-11.7629
▁explained	-11.7634
▁sciences	-11.7641
▁died	-11.7641
cryptocommunity	-11.7644
▁evp	-11.7648
iphi	-11.7658
ccc	-11.7659
12.5	-11.766
deposit	-11.766
▁anticipat	-11.7661
private	-11.7662
vas	-11.7662
8.8	-11.7663
5.0%	-11.7664
caro	-11.7665
▁elect	-11.7669
▁church	-11.7669
release	-11.767
tart	-11.767
leon	-11.767
▁bod	-11.7673
clb	-11.7674
▁hotte	-11.7674
997	-11.7676
▁cv	-11.7679
tyl	-11.7683
▁-7	-11.7685
▁meaning	-11.7685
▁trips	-11.7686
bcci	-11.7687
.53%	-11.7687
▁oz	-11.7688
rmd	-11.7688
whale	-11.7688
laz	-11.7688
▁appointment	-11.769
▁consolidating	-11.769
▁vulnerabilities	-11.769
☄	-11.769
▁generating	-11.769
▁nonsense	-11.769
xspt	-11.7692
bailouthumansnow	-11.7692
▁chair	-11.7692
glbs	-11.7693
person	-11.7694
▁constantly	-11.7695
bold	-11.77
6.0	-11.7701
saex	-11.7702
▁teaching	-11.7703
▁document	-11.7705
nrth	-11.7707
▁cities	-11.7707
▁saas	-11.7713
42%	-11.7718
▁utilities	-11.772
rah	-11.772
cpi	-11.772
dun	-11.7726
fami	-11.7733
▁challenges	-11.7733
kpay	-11.7734
▁logo	-11.7735
▁unlike	-11.7738
2%)	-11.7738
▁aurora	-11.7742
▁57%	-11.7746
ison	-11.7747
bla	-11.7749
morn	-11.7749
tata	-11.775
chrw	-11.7752
wanted	-11.7755
▁behavior	-11.7757
▁personalis	-11.7762
▁fired	-11.7763
eezy	-11.7764
▁freeze	-11.7768
ngc	-11.7769
▁hat	-11.7772
▁silent	-11.7775
▁valentine	-11.7777
▁clothes	-11.778
▁reuters	-11.778
bright	-11.778
▁20+	-11.7782
bchabc	-11.7787
curr	-11.7787
▁plane	-11.7789
lol	-11.779
ppp	-11.7792
290	-11.7793
airdropalert	-11.7795
▁twitch	-11.7796
spotify	-11.7796
track	-11.7798
predicts	-11.78
hei	-11.7814
10,000	-11.7815
▁+17	-11.7817
▁฿	-11.7817
▁0.8	-11.7818
addiction	-11.7819
▁temp	-11.782
wide	-11.7821
nnn	-11.7824
eek	-11.7826
vie	-11.7827
kcal	-11.7828
▁dime	-11.783
▁artificial	-11.7831
▁checking	-11.7837
hall	-11.7838
▁15-	-11.7845
▁rumors	-11.7847
shll	-11.7848
ello	-11.7848
cers	-11.7849
itive	-11.785
▁slowing	-11.7851
trow	-11.7852
qd	-11.7863
▁constant	-11.7866
festival	-11.7871
▁definitive	-11.7871
▁masturbation	-11.7871
▁premier	-11.7871
nvidia	-11.7871
dbvt	-11.7871
▁riley	-11.7871
▁altria	-11.7871
▁dem	-11.7873
168	-11.7878
blsp	-11.7879
vayla	-11.7879
dao	-11.7879
hedgefund	-11.788
▁sharp	-11.7881
▁evs	-11.7883
issues	-11.7884
▁born	-11.7885
gang	-11.7887
▁awarded	-11.7889
cube	-11.7889
lqm	-11.7892
▁steve	-11.7899
findomgoddess	-11.7906
▁zelle	-11.7907
▁teacher	-11.7908
.61%	-11.791
hate	-11.7911
▁88888	-11.7912
▁ku	-11.7916
enb	-11.792
256	-11.7925
▁0.03	-11.7925
cup	-11.7931
hip	-11.7932
▁satoshis	-11.7938
europe	-11.7942
cdn	-11.7944
▁conf	-11.795
▁bread	-11.7954
worthy	-11.7954
▁450	-11.7955
holding	-11.7958
▁commerce	-11.7958
25.000	-11.7959
fighter	-11.7962
▁bandwidth	-11.7962
▁contango	-11.7962
▁raymond	-11.7962
▁scientific	-11.7962
▁complex	-11.7963
sgyp	-11.7963
▁midnight	-11.7963
50,000,000	-11.7965
▁assume	-11.7965
optt	-11.7965
▁tweeting	-11.7967
▁gaap	-11.7967
tecr	-11.797
7000	-11.7973
00:00	-11.7973
▁spacex	-11.7976
▁warned	-11.7978
145	-11.7981
▁0.15	-11.7981
▁cashcow	-11.7987
range	-11.7989
▁200000	-11.799
▁formation	-11.799
▁warm	-11.799
loyalty	-11.7991
▁kindly	-11.7992
▁rocky	-11.7994
▁0.0005	-11.7995
mixed	-11.7996
lone	-11.7998
watt	-11.8001
tny	-11.8006
hihi	-11.8007
amber	-11.801
shipping	-11.8018
smt	-11.8023
▁forum	-11.803
mbot	-11.803
dlth	-11.8031
▁thus	-11.8035
chinese	-11.8037
premium	-11.8037
buzz	-11.8037
▁99%	-11.8038
instant	-11.8039
rti	-11.8043
,400	-11.8045
sona	-11.8047
lunch	-11.8049
tla	-11.8052
messenger	-11.8055
▁commence	-11.8055
▁naked	-11.8055
▁collectors	-11.8056
.05%	-11.8056
▁revolutionary	-11.8056
kubo	-11.8056
bldp	-11.8056
nuclear	-11.8057
▁grew	-11.8057
▁panel	-11.8057
rnva	-11.8059
▁hook	-11.806
▁junior	-11.8063
▁somewhere	-11.8065
mkc	-11.8065
▁loop	-11.8065
47%	-11.8069
▁suspended	-11.8069
hun	-11.807
fld	-11.807
bep	-11.8073
path	-11.8074
▁destroyed	-11.8075
jen	-11.8075
twj	-11.8076
5.8%	-11.8077
,000.00	-11.8079
4.7%	-11.8082
9.2%	-11.8087
▁!!!!!!!	-11.8088
pcli	-11.809
saas	-11.8096
▁stan	-11.8098
0.1%	-11.81
▁iron	-11.8103
▁insights	-11.8103
sqm	-11.8105
▁participant	-11.811
trick	-11.8121
taj	-11.8122
trin	-11.8123
trib	-11.8126
ksu	-11.8126
bsd	-11.813
fundamental	-11.8132
▁56%	-11.8132
0.27	-11.8132
women	-11.8133
driving	-11.8133
tck	-11.8134
multi	-11.8135
149	-11.8135
▁partnering	-11.8139
▁proceed	-11.8143
radio	-11.8146
wazirx	-11.8148
▁88,888	-11.8148
▁exhibits	-11.8148
▁speculation	-11.8148
▁arabia	-11.8148
▁stephen	-11.8148
▁interface	-11.8149
▁gamble	-11.8149
domination	-11.8149
ache	-11.8149
▁eod	-11.8149
xhv	-11.815
▁pause	-11.8151
bngi	-11.8152
.98%	-11.8155
apdn	-11.8156
▁implementing	-11.816
gdot	-11.816
▁counts	-11.8163
▁masternodes	-11.8164
ontology	-11.8167
▁makeup	-11.8169
btfs	-11.817
▁$10.000	-11.8173
miss	-11.8174
▁☀️	-11.8175
cvl	-11.8176
▁cast	-11.8178
born	-11.818
dlyt	-11.818
liz	-11.8186
mani	-11.8187
amba	-11.8189
▁rot	-11.8189
still	-11.8196
▁esports	-11.8197
then	-11.8197
▁47%	-11.8198
dgc	-11.82
clay	-11.8204
▁hub	-11.8204
▁pulls	-11.8205
clsk	-11.821
awsm	-11.821
glo	-11.8211
55%	-11.8212
dont	-11.8213
yyyy	-11.8213
kmx	-11.8217
??️?	-11.8219
lion	-11.8219
616	-11.822
nickel	-11.8222
page	-11.8225
close	-11.8227
wednesday	-11.8229
connect	-11.823
✔️	-11.8231
tnc	-11.8235
▁mv	-11.8236
(10	-11.8237
freedom	-11.824
▁bounced	-11.8242
politics	-11.8242
é	-11.8243
▁racist	-11.8243
▁pioneer	-11.8243
▁excuse	-11.8243
▁chapter	-11.8243
▁textbook	-11.8243
eqix	-11.8243
▁⬇️⬇️	-11.8243
(5	-11.8246
asmb	-11.8247
▁barrel	-11.8249
gyro	-11.8249
▁solidity	-11.8249
▁morris	-11.8251
wld	-11.8252
tsi	-11.8254
cock	-11.8256
horny	-11.8261
▁1250	-11.8262
gpor	-11.8266
usdcad	-11.8267
other	-11.827
▁formula	-11.8271
▁climbing	-11.8271
▁calm	-11.8272
llex	-11.8272
tivity	-11.8273
▁reddit	-11.8278
sui	-11.8289
vita	-11.8291
culp	-11.8295
$1,000	-11.8296
visa	-11.8297
▁slip	-11.8298
acia	-11.8302
izer	-11.8303
dang	-11.8308
▁stated	-11.8311
maxd	-11.8311
9.5%	-11.8311
write	-11.8314
goat	-11.8314
cacc	-11.8315
▁turkey	-11.8316
faucets	-11.8323
vaccine	-11.8325
▁settle	-11.8326
previously	-11.8327
jct	-11.8328
sunday	-11.8332
dtr	-11.8332
▁typical	-11.8333
general	-11.8334
pinksheet	-11.8338
▁jenner	-11.8338
traitor	-11.8338
▁mexico	-11.8338
▁inheritance	-11.8338
▁division	-11.8338
▁laptop	-11.8338
gop	-11.8339
ehth	-11.8339
▁capture	-11.8339
~~	-11.8339
▁liking	-11.834
▁hiring	-11.8341
▁0.0%	-11.8343
▁native	-11.8343
soxs	-11.8343
cfi	-11.8344
$100	-11.8346
num	-11.835
callisto	-11.835
▁(+0.1	-11.8352
▁arrived	-11.8353
▁surely	-11.8354
▁hmmm	-11.8356
flir	-11.8358
▁mandatory	-11.8358
hys	-11.8359
▁login	-11.836
rost	-11.8363
▁newest	-11.8372
▁$0.10	-11.8373
▁0.25	-11.8375
exist	-11.8376
▁nuts	-11.8377
vig	-11.8378
▁reviewed	-11.8387
delta	-11.8388
yah	-11.8391
eqt	-11.8391
mtv	-11.8394
unfi	-11.8394
ubmit	-11.8398
sats	-11.8399
nudes	-11.84
(+1	-11.8405
▁standing	-11.8405
vxv	-11.8416
5000000	-11.8421
pets	-11.8423
functional	-11.8427
ville	-11.8432
calvinsbensons	-11.8434
▁colorado	-11.8434
▁describe	-11.8434
▁garbage	-11.8434
▁ordinary	-11.8434
▁possibility	-11.8434
silica	-11.8434
▁resort	-11.8434
▁abusive	-11.8434
periscope	-11.8434
▁stepp	-11.8434
▁password	-11.8434
banca	-11.8435
▁arrow	-11.8435
▁whitepaper	-11.8435
barr	-11.8435
▁lightning	-11.8436
ignis	-11.8437
xbox	-11.8438
▁quietly	-11.8439
publisher	-11.8439
▁incubat	-11.8441
related	-11.8447
deac	-11.8447
▁permit	-11.8451
mkts	-11.8452
▁kits	-11.8452
donate	-11.8455
abio	-11.8456
manh	-11.8457
tors	-11.8457
▁brothers	-11.846
fw	-11.8464
egr	-11.8464
▁-7%	-11.8468
9.9%	-11.8471
tokenization	-11.8475
636	-11.8478
▁chop	-11.8482
▁cred	-11.8484
▁sis	-11.849
▁.5	-11.8498
▁chipotle	-11.8498
▁xmas	-11.8498
▁breach	-11.8499
tial	-11.85
uplist	-11.85
▁speaks	-11.8503
semi	-11.8505
▁49%	-11.8506
truck	-11.8509
▁?✅	-11.8511
eeeee	-11.8515
scale	-11.8523
wright	-11.8525
circuit	-11.8526
level	-11.8527
coingecko	-11.8531
discipline	-11.8531
singapore	-11.8531
venezuela	-11.8531
▁decreasing	-11.8531
▁nikola	-11.8531
▁petroleum	-11.8531
▁scalable	-11.8531
▁subject	-11.8531
▁taipei	-11.8531
▁identified	-11.8531
▁worries	-11.8531
github	-11.8531
wdbg	-11.8531
xhua	-11.8531
▁tumble	-11.8531
bldv	-11.8531
kit	-11.8532
hrvsf	-11.8532
dgi	-11.8534
audusd	-11.8536
▁resolve	-11.8538
▁plea	-11.8539
spwr	-11.8542
superb	-11.8542
foxnews	-11.8543
▁pitch	-11.8543
▁-8.	-11.8543
▁9000000	-11.8545
cvt	-11.8549
aka	-11.8555
abce	-11.8555
▁strengthen	-11.8556
▁sued	-11.8556
dea	-11.8558
▁patented	-11.8559
288	-11.8562
30,000	-11.8564
cyn	-11.8565
8.3%	-11.8565
ctrp	-11.8565
fas	-11.8565
uxin	-11.8566
cookie	-11.8568
ogen	-11.8572
▁skin	-11.8574
dtea	-11.8577
atch	-11.8578
▁145	-11.8579
torc	-11.8582
;=	-11.8582
▁30000	-11.8584
▁resist	-11.8584
▁slots	-11.8585
night	-11.8586
▁wick	-11.8586
divine	-11.8589
0.55	-11.8595
adobe	-11.8596
▁hol	-11.8603
chek	-11.8603
tfc	-11.8604
lac	-11.8609
▁science	-11.862
133	-11.8621
mitt	-11.8622
▁21-	-11.8622
microcaps	-11.8624
bamm	-11.8624
▁governance	-11.8626
bru	-11.8627
▁kickex	-11.8628
tommy	-11.8628
crazy	-11.8628
switzerland	-11.8629
▁attached	-11.8629
▁diversified	-11.8629
▁parasites	-11.8629
dmlry	-11.8629
pnnx	-11.8629
drv	-11.863
eqlb	-11.8631
▁utxo	-11.8631
▁strange	-11.8631
▁achievement	-11.8632
▁protesters	-11.8633
▁+21%	-11.8633
4.5%	-11.8634
jagx	-11.8634
vrnt	-11.8634
blackfriday	-11.8635
▁26%	-11.8637
quantum	-11.8641
boycott	-11.8643
incy	-11.8649
bgf	-11.8649
▁floater	-11.865
wis	-11.8655
▁tha	-11.8659
▁region	-11.866
crl	-11.8662
tokensale	-11.8665
▁==	-11.8666
math	-11.8667
▁placed	-11.8668
nnr	-11.867
▁melt	-11.8672
nbt	-11.8672
msmy	-11.8673
jade	-11.8674
wcvc	-11.8674
▁teach	-11.8681
▁ledger	-11.8681
7.9%	-11.8683
9.6	-11.8684
chy	-11.8689
▁42%	-11.8692
gxc	-11.8696
▁yellow	-11.8701
tric	-11.8704
ori	-11.8705
223	-11.8706
higher	-11.8706
mask	-11.8707
▁guarantee	-11.871
cdna	-11.8711
▁affiliate	-11.8714
▁victims	-11.8716
cold	-11.8719
▁liberal	-11.8719
orly	-11.8721
.46%	-11.8723
▁shy	-11.8725
huawei	-11.8728
▁enhance	-11.8728
▁guilty	-11.8728
▁trulieve	-11.8728
⛏	-11.8728
ー	-11.8728
▁narrow	-11.8728
▁flipped	-11.8728
peach	-11.8728
▁argument	-11.8729
☺️	-11.8729
▁apartment	-11.8729
abeo	-11.8729
▁hulu	-11.873
biggest	-11.873
details	-11.873
▁kar	-11.8731
positive	-11.8731
gaxy	-11.8731
bitcoinhalving	-11.8733
chh	-11.8738
otcbb	-11.8739
sellingnudes	-11.8739
sina	-11.874
brew	-11.8744
cphi	-11.8749
rizo	-11.875
domain	-11.875
▁expenses	-11.8755
army	-11.8756
swav	-11.8756
▁charter	-11.8758
shared	-11.8761
▁❤️❤️❤️	-11.8762
fnv	-11.8764
.51%	-11.8764
▁blame	-11.8767
xaur	-11.8769
▁regulators	-11.8773
dnax	-11.8775
▁grid	-11.8778
▁acting	-11.8781
cody	-11.8785
▁sucks	-11.8793
10000	-11.8796
▁influence	-11.8798
aries	-11.88
ntla	-11.8802
cng	-11.8806
carg	-11.8812
330	-11.8814
▁41%	-11.8816
drg	-11.882
▁filling	-11.882
legitf	-11.8821
128	-11.8823
inter	-11.8824
▁clinton	-11.8828
▁alliance	-11.8828
▁railway	-11.8828
▁surface	-11.8828
▁?[3	-11.8828
▁teaser	-11.8829
otcqx	-11.8829
whisper	-11.8829
▁wholesale	-11.883
▁internal	-11.8831
▁espn	-11.8831
aveo	-11.8833
wish	-11.8834
▁bored	-11.8834
sharing	-11.8835
▁toilet	-11.8837
▁refund	-11.8838
▁(-0.4	-11.8839
▁sal	-11.884
▁concerned	-11.8845
▁crushing	-11.8846
dragon	-11.8847
▁(+0.2	-11.8849
tivo	-11.8851
dcth	-11.8852
tlos	-11.8856
▁coal	-11.8856
127	-11.8862
▁evaluat	-11.8864
!????	-11.8865
asc	-11.8873
▁withdrawals	-11.8874
▁impeachment	-11.8875
ggy	-11.8877
▁44%	-11.8879
cool	-11.8882
▁integrations	-11.8883
▁shape	-11.8886
▁consol	-11.8888
cpa	-11.889
tash	-11.8893
▁8000000	-11.8896
nerv	-11.8896
▁rely	-11.8896
type	-11.8897
teo	-11.89
▁$0.03	-11.8902
▁vietnam	-11.8907
pxs	-11.8911
50+	-11.8913
▁humans	-11.8914
▁miner	-11.8915
awk	-11.8916
dawn	-11.8916
tiny	-11.8918
▁dtc	-11.8918
revision	-11.892
freecoin	-11.8928
▁39%	-11.8928
▁idiots	-11.8929
cbwtf	-11.8929
▁compliance	-11.8929
▁evicted	-11.8929
▁introducing	-11.8929
▁syndicate	-11.8929
▁bidaskscore	-11.8929
▁cheappies	-11.8929
▁disgusting	-11.8929
▁suspect	-11.8929
▁contender	-11.8929
▁merging	-11.8929
cdlx	-11.893
atvk	-11.893
▁brewing	-11.893
▁cronos	-11.893
▁agency	-11.893
▁prison	-11.893
matrix	-11.8931
oxis	-11.8931
gnmk	-11.8932
▁swapping	-11.8932
agen	-11.8933
▁weighs	-11.8933
mxn	-11.8935
▁circuit	-11.8935
▁reset	-11.8936
▁recognize	-11.8936
gnbt	-11.8937
campaign	-11.8937
strike	-11.8938
▁playboy	-11.8938
resources	-11.8938
▁debate	-11.8938
▁17:00	-11.8938
▁24%	-11.894
brook	-11.894
south	-11.8942
segn	-11.8942
lbty	-11.8944
digg	-11.8945
▁selloff	-11.8948
fomo	-11.8949
imrn	-11.895
tea	-11.8951
ntec	-11.8956
boot	-11.8959
byc	-11.896
▁urge	-11.8966
cpri	-11.8967
rise	-11.8967
▁targeting	-11.897
▁prob	-11.8974
▁installed	-11.8974
xtra	-11.8974
cubs	-11.8978
▁-10.	-11.8979
immu	-11.898
orz	-11.8981
hix	-11.8981
▁kicking	-11.8985
▁+18	-11.8987
etfs	-11.8988
▁expire	-11.8989
▁25000000	-11.899
165	-11.8994
▁forces	-11.8995
ewj	-11.8997
jose	-11.8997
bun	-11.8999
lyb	-11.9
troll	-11.9004
▁($600	-11.9005
heart	-11.9007
2.25	-11.9011
toko	-11.9013
▁qr	-11.9015
234	-11.9016
kkr	-11.9019
glob	-11.9019
ette	-11.9021
▁$17.50	-11.9026
waf	-11.9029
▁certificate	-11.9031
▁enemy	-11.9031
▁album	-11.9031
▁micropayments	-11.9032
▁uploads	-11.9032
▁unfortunately	-11.9033
▁postpone	-11.9033
▁quikl	-11.9033
magic	-11.9033
diesel	-11.9034
civx	-11.9034
▁stoch	-11.9035
▁managers	-11.9036
agra	-11.9037
bcy	-11.904
116	-11.904
▁bullshit	-11.9041
▁fisher	-11.9041
▁trailing	-11.9042
tariffs	-11.9042
awesome	-11.9043
▁greed	-11.9044
▁dragon	-11.9044
little	-11.9046
cbm	-11.9046
iag	-11.9047
safety	-11.9047
lynn	-11.9047
quicker	-11.9048
▁hike	-11.9049
▁timeframes	-11.9049
▁window	-11.9051
9.0%	-11.9052
leave	-11.9054
version	-11.9054
human	-11.9056
print	-11.9065
teez	-11.9067
▁115	-11.9069
wpx	-11.9075
vno	-11.9078
▁53%	-11.908
dksc	-11.908
265	-11.9082
▁documents	-11.9083
▁creator	-11.9085
caf	-11.9093
mother	-11.9093
6400	-11.9094
aaa	-11.9097
▁eating	-11.9098
ously	-11.9098
williams	-11.9099
▁nsfw	-11.9105
nash	-11.9106
stm	-11.9107
vxxb	-11.9108
agnc	-11.9114
▁engage	-11.9115
▁combine	-11.9116
carv	-11.9116
—?	-11.9117
▁messaging	-11.9118
▁drill	-11.9121
166	-11.9124
most	-11.9129
swn	-11.913
voya	-11.913
cowboydiplomat	-11.9134
▁browsing	-11.9134
▁inclusive	-11.9134
▁inquiries	-11.9134
▁laboratories	-11.9134
▁pregnant	-11.9134
▁society	-11.9134
▁charging	-11.9134
▁excess	-11.9134
▁belief	-11.9134
▁emerge	-11.9135
byfc	-11.9135
dominion	-11.9135
▁5.3%	-11.9136
▁convertible	-11.9136
courtney	-11.9137
clsn	-11.9138
▁pips	-11.9138
▁sprint	-11.9139
paywith	-11.9139
▁felt	-11.914
jfin	-11.914
vitae	-11.9143
▁consolidated	-11.9144
bfch	-11.9145
▁atomic	-11.9145
consumer	-11.9148
podcast	-11.9149
adoption	-11.915
▁?????????????	-11.9152
consistent	-11.9152
▁(14	-11.9152
cbdoil	-11.9155
rhe	-11.9155
founder	-11.9155
ola	-11.9155
suggestions	-11.9155
▁skills	-11.9156
wash	-11.9158
limited	-11.9158
5.1%	-11.9159
babygirl	-11.9159
▁4.7%	-11.9159
▁sur	-11.916
▁7.1%	-11.9162
cccx	-11.9162
▁fur	-11.9168
ivs	-11.917
▁20$	-11.9174
aldr	-11.918
bnd	-11.918
tony	-11.9181
tpx	-11.9182
ready	-11.9185
brkb	-11.9187
rdus	-11.9189
▁bottomed	-11.9189
+26%	-11.9192
pma	-11.9194
hope	-11.9197
duck	-11.9201
design	-11.9201
▁expense	-11.921
create	-11.9211
ticker	-11.9212
4000	-11.9212
▁button	-11.9215
98%	-11.9219
▁bh	-11.9221
▁libra	-11.9227
▁yea	-11.9229
cato	-11.9233
▁quest	-11.9238
▁☺️	-11.9238
coinstonians	-11.9239
digerati	-11.9239
stacktical	-11.9239
tautachrome	-11.9239
▁correlation	-11.9239
▁propaganda	-11.9239
▁stomach	-11.9239
sftby	-11.9239
superbowl	-11.9239
linux	-11.9239
▁attitude	-11.9239
▁toronto	-11.9239
▁adult	-11.9239
ftxp	-11.9239
▁sandler	-11.9239
svxy	-11.9239
berry	-11.924
aint	-11.924
mgti	-11.9242
bitcorn	-11.9242
▁batches	-11.9243
mistress	-11.9243
▁contribution	-11.9244
mob	-11.9244
▁shine	-11.9246
8.6%	-11.9248
beta	-11.9249
▁established	-11.9249
stellar	-11.9256
gddy	-11.9256
corporate	-11.9256
consensus	-11.9257
cnab	-11.9259
heme	-11.9259
▁meant	-11.926
gil	-11.926
▁awards	-11.9262
roll	-11.9262
▁engineering	-11.9263
cnst	-11.9268
vera	-11.9271
democrats	-11.9274
▁securely	-11.9275
zion	-11.9282
▁37%	-11.9282
borr	-11.9283
nhl	-11.9284
▁1000%	-11.9289
avy	-11.9291
ctib	-11.9295
▁300%	-11.9298
drna	-11.93
index	-11.9301
gely	-11.9302
testing	-11.9312
305	-11.9318
oper	-11.9319
banco	-11.9322
medic	-11.9322
▁???????????	-11.9323
▁automotive	-11.9324
oro	-11.9326
▁soars	-11.9326
▁harass	-11.9332
▁candles	-11.9335
llxf	-11.9336
royal	-11.9339
▁⚡?	-11.9341
dumdum	-11.9344
loveislove	-11.9344
▁tremendous	-11.9344
mentalhealth	-11.9344
▁located	-11.9344
blitz	-11.9344
▁surround	-11.9344
machinelearning	-11.9344
vrsn	-11.9344
▁08:00	-11.9346
wrld	-11.9346
ggg	-11.9346
6.3	-11.9348
0,000,000.00	-11.9348
▁careers	-11.9352
▁rm	-11.9352
▁converted	-11.9352
▁cancel	-11.9353
▁ecb	-11.9354
▁(-0.5	-11.9356
▁dave	-11.9359
shanghai	-11.9365
opportunity	-11.9365
▁computing	-11.9368
€$	-11.9372
aux	-11.9375
steemit	-11.9375
ctso	-11.9378
▁0.08	-11.9378
▁2022	-11.9379
▁-13%	-11.9382
▁5400	-11.9383
▁1/4	-11.9383
wab	-11.9391
▁bagger	-11.9392
bittube	-11.9396
desi	-11.94
going	-11.9401
▁upwards	-11.9404
cmp	-11.9411
▁2011	-11.9414
▁audience	-11.9424
presented	-11.9429
eva	-11.9434
arex	-11.9436
▁biden	-11.9437
▁anchor	-11.9441
avya	-11.9441
stpt	-11.9441
lds	-11.9442
7.6%	-11.9443
930	-11.9444
✈	-11.9446
wpm	-11.9449
coke	-11.945
rakuten	-11.945
▁familiar	-11.945
▁primary	-11.945
▁violation	-11.945
▁monetary	-11.945
pelosi	-11.945
stonks	-11.945
▁repair	-11.945
czni	-11.9451
▁bargain	-11.9451
dynamic	-11.9453
▁foo	-11.9456
▁activated	-11.9456
dgtw	-11.9457
texas	-11.9458
cpst	-11.9459
▁limits	-11.946
oli	-11.9464
vext	-11.9465
▁adjusted	-11.9465
7.2	-11.9469
marc	-11.9471
trending	-11.9471
church	-11.9475
favorite	-11.9475
▁empower	-11.9476
vtvt	-11.9477
zts	-11.9478
rmed	-11.9478
.86%	-11.9478
marin	-11.9479
leader	-11.9479
nlg	-11.948
lick	-11.9482
▁brag	-11.9482
marvel	-11.9483
▁gainer	-11.9489
atl	-11.9489
▁peter	-11.949
mcf	-11.9502
pulling	-11.951
astc	-11.951
coach	-11.951
▁jumped	-11.9517
▁15,000	-11.9521
waking	-11.9522
smg	-11.9522
rkda	-11.9524
▁addressed	-11.9529
1414	-11.9531
0.36	-11.9532
▁pushed	-11.9534
ically	-11.9535
surf	-11.9535
313	-11.9539
dynt	-11.9543
134	-11.9547
▁issuer	-11.9549
▁sue	-11.9553
▁quiet	-11.9553
▁shoulders	-11.9553
street	-11.9555
▁experienced	-11.9558
▁taliyah	-11.9558
░	-11.9558
▁maturity	-11.9558
fantasy	-11.9558
▁raffle	-11.9558
▁nevada	-11.9558
▁probability	-11.9558
▁inevitable	-11.9559
▁boring	-11.956
▁-9.	-11.9561
darling	-11.9561
▁leak	-11.9562
nurse	-11.9562
▁stolen	-11.9563
▁journalist	-11.9563
▁nails	-11.9564
xlb	-11.9566
▁goodnight	-11.9567
▁breakfast	-11.957
0.15	-11.957
▁0%	-11.9571
▁placement	-11.9572
prre	-11.9572
disck	-11.9572
▁affected	-11.9575
6.9	-11.9578
apop	-11.9583
▁audiences	-11.9584
election	-11.9585
indices	-11.9586
☘️	-11.9587
btf	-11.959
▁(+0.0	-11.959
sprv	-11.9595
screen	-11.9596
tcan	-11.9596
▁useless	-11.9597
banj	-11.9601
2016	-11.9602
findombrat	-11.9609
▁11/1	-11.961
▁whale	-11.9611
uthr	-11.9612
cubi	-11.9612
▁pockets	-11.9613
’000	-11.9619
146	-11.9621
▁realized	-11.9623
snmn	-11.9624
dlive	-11.9627
▁democrat	-11.9629
ature	-11.9632
void	-11.9636
▁lady	-11.9638
▁competitor	-11.9643
▁190	-11.9644
thro	-11.9645
cutie	-11.9645
taug	-11.9651
▁?2000	-11.9654
106	-11.9658
▁cleared	-11.9659
hhh	-11.9661
▁grad	-11.9663
cone	-11.9665
▁description	-11.9666
▁integrity	-11.9666
▁senator	-11.9666
▁dubai	-11.9667
01-200	-11.9667
forexsignals	-11.9667
▁representative	-11.9667
▁specifically	-11.9667
▁banner	-11.9667
▁breakthrough	-11.9668
hiphop	-11.9668
scope	-11.9669
▁bowl	-11.9669
chloe	-11.9669
xoxo	-11.967
krl	-11.9671
▁portion	-11.9671
splv	-11.9671
▁teammate	-11.9671
axas	-11.9673
wsm	-11.9675
▁enabl	-11.9675
cloakcoin	-11.9676
rapper	-11.9676
vcel	-11.9677
apy	-11.9684
▁0.1%	-11.9687
▁bitches	-11.9691
gup	-11.9692
billionaire	-11.9693
trp	-11.9693
icpt	-11.9693
▁cells	-11.9695
arbingto	-11.9698
dol	-11.9699
nsfw	-11.9699
suti	-11.97
tanker	-11.9701
tsu	-11.9701
tess	-11.9703
poke	-11.9707
death	-11.9709
ziop	-11.9712
cfr	-11.9714
tcom	-11.9714
payments	-11.9716
??✨	-11.9716
discover	-11.9717
ogod	-11.9718
▁standards	-11.972
tress	-11.9724
370	-11.9728
1.01	-11.9732
flower	-11.9732
ahpi	-11.9732
hotbit	-11.9737
veru	-11.9743
▁shoes	-11.9745
▁delete	-11.9758
▁21%	-11.976
▁argentina	-11.9761
crim	-11.9761
✅✅	-11.9764
7,500	-11.9765
tomox	-11.9766
marketwatch	-11.9769
6.4%	-11.9775
conspiracy	-11.9776
▁administration	-11.9776
▁beneficial	-11.9776
ithuf	-11.9776
▁alright	-11.9777
juniormining	-11.9777
osur	-11.9777
crzo	-11.9778
▁shutdown	-11.9778
eeeeeee	-11.9779
votefor	-11.9779
▁hiding	-11.9779
cbii	-11.978
bonz	-11.9785
danny	-11.9788
binancela	-11.9788
▁immune	-11.9789
▁directional	-11.979
▁relatively	-11.979
▁hence	-11.9793
▁retailer	-11.9795
pants	-11.98
▁intention	-11.98
▁reveals	-11.9803
panda	-11.9804
▁tower	-11.9805
▁+20%	-11.9807
▁clock	-11.9809
intelligence	-11.9812
neutral	-11.9812
▁2.0.0	-11.9818
355	-11.9818
▁8.5%	-11.9821
808	-11.9821
player	-11.9823
anss	-11.9829
bol	-11.9831
▁enterprises	-11.9832
fti	-11.9833
learning	-11.9835
zip	-11.9836
asr	-11.984
▁☆	-11.9843
▁48%	-11.9845
maria	-11.9847
120,000	-11.9847
ener	-11.9848
▁faa	-11.9848
bitcoinnews	-11.9848
achn	-11.985
biol	-11.9853
▁loyal	-11.9853
rising	-11.9854
+35%	-11.9857
signals	-11.9857
devin	-11.9858
ashley	-11.9861
pls	-11.9863
▁transform	-11.9864
did	-11.9864
halo	-11.987
cdc	-11.9872
evolution	-11.9873
▁reaffirm	-11.9876
heat	-11.9879
ibit	-11.988
▁immediate	-11.9882
cert	-11.9887
unstoppable	-11.9887
▁emoji	-11.9887
▁supreme	-11.9887
relapse	-11.9887
▁remote	-11.9887
▁pleasure	-11.9888
▁relax	-11.9888
miami	-11.9888
▁obtain	-11.9888
nowplaying	-11.9888
bandprotocol	-11.9888
▁urgent	-11.9888
dkgr	-11.9889
▁pledge	-11.9889
hdsn	-11.9889
studio	-11.989
deflationary	-11.9891
▁0.000004	-11.9891
prpo	-11.9891
harris	-11.9893
▁progressive	-11.9893
mhc	-11.9895
▁liar	-11.9895
pvh	-11.9895
nev	-11.9897
tmps	-11.9897
▁yen	-11.9898
crh	-11.99
8.4%	-11.99
▁rekt	-11.9905
cnhi	-11.9906
▁badly	-11.9907
cycc	-11.9907
makin	-11.9907
pil	-11.9908
107	-11.9914
decot	-11.9915
cav	-11.9917
elli	-11.9918
rrc	-11.9919
▁bitrue	-11.992
▁◆	-11.992
lii	-11.992
jun	-11.9925
payment	-11.9926
▁2025	-11.9926
germany	-11.9927
yield	-11.9927
electric	-11.9927
competition	-11.9927
acrgf	-11.9928
bfg	-11.9928
▁pour	-11.9931
aims	-11.9932
lmn	-11.9932
▁upset	-11.9933
cashpig	-11.9937
sleep	-11.994
7.2%	-11.9943
157	-11.9944
137	-11.9948
142	-11.9951
gusd	-11.9953
▁pigs	-11.9953
moneyflow	-11.9956
▁complain	-11.9957
▁ddl	-11.9963
tyme	-11.9967
ugg	-11.9969
▁_____________	-11.997
nspr	-11.9975
▁argue	-11.9976
cbk	-11.9977
holdings	-11.9978
▁timeframe	-11.998
martin	-11.998
avp	-11.9982
gci	-11.9983
▁wear	-11.9983
144	-11.9985
csu	-11.9987
217	-11.9987
4.20	-11.9992
rin	-11.9993
0%?	-11.9998
▁scratch	-12
palladium	-12
▁calendar	-12
▁diligence	-12
▁hathaway	-12
▁spectrum	-12
▁choosing	-12
▁garden	-12
▁warehouse	-12
▁฿0.00000	-12
chelsea	-12
▁calvinbensonn	-12
▁cancelled	-12
trinity	-12.0001
▁shoutout	-12.0001
disneyplus	-12.0002
▁assist	-12.0003
▁sweat	-12.0004
▁popularity	-12.0004
vlcc	-12.0004
cray	-12.0005
▁11:00	-12.0006
▁france	-12.0009
▁meantime	-12.0012
▁mgmt	-12.0013
▁correctly	-12.0017
maine	-12.0021
yhoo	-12.0022
oet	-12.0024
mee	-12.0025
▁annually	-12.0029
▁deny	-12.0029
burl	-12.0038
——	-12.0042
▁cheat	-12.0043
instagram	-12.0044
▁talent	-12.0044
▁discussions	-12.0049
pharmaceutical	-12.005
▁peaked	-12.0061
▁massively	-12.007
oooooo	-12.0071
egap	-12.0072
▁linked	-12.0078
299	-12.0081
lgb	-12.0084
▁phantasma	-12.0085
▁(~	-12.0096
▁proposals	-12.0096
880	-12.0102
rinse	-12.0108
▁sudden	-12.0108
345	-12.0109
▁cheer	-12.011
dropyourbitsika	-12.0113
▁bashers	-12.0113
▁structural	-12.0113
▁underneath	-12.0113
▁clarity	-12.0113
▁participation	-12.0114
▁landlord	-12.0114
▁entity	-12.0114
▁committed	-12.0114
ddaif	-12.0114
quality	-12.0115
smpl	-12.0115
txrh	-12.0118
grn	-12.0118
▁piss	-12.0119
mnga	-12.012
silj	-12.0121
▁tear	-12.0122
940	-12.0122
nmc	-12.0122
obln	-12.0122
▁holly	-12.0125
vechainthor	-12.0126
oak	-12.0127
▁2019(	-12.0131
▁mistakes	-12.0132
flt	-12.0134
▁mint	-12.0135
disclosed	-12.0137
▁recovering	-12.0138
▁closest	-12.0139
drio	-12.0142
chick	-12.0142
▁spit	-12.0143
enz	-12.0143
▁1/3	-12.0144
▁candidates	-12.0148
upbit	-12.0149
▁cpu	-12.015
cute	-12.0153
▁strongly	-12.0155
▁150,000	-12.0156
challenge	-12.0156
0.40	-12.0163
davis	-12.0165
crts	-12.0167
.32%	-12.0168
▁qtrade	-12.0171
?️?️	-12.0174
174	-12.0182
canna	-12.0183
nstein	-12.0184
▁.04	-12.0188
ubi	-12.0189
spread	-12.0189
▁providers	-12.0191
▁planes	-12.0192
twee	-12.0197
unf	-12.0199
vee	-12.02
▁msm	-12.0201
xby	-12.0202
▁clips	-12.0206
liga	-12.0208
▁arrive	-12.021
rsg	-12.0213
▁establish	-12.0216
▁seller	-12.0221
▁female	-12.0221
▁smoking	-12.0222
▁dirt	-12.0227
celsius	-12.0228
▁horrible	-12.0228
▁mechanism	-12.0228
▁mexican	-12.0228
▁population	-12.0228
▁proprietary	-12.0228
▁rallies	-12.0228
▁champion	-12.0228
▁logistics	-12.0228
▁wiped	-12.0228
blackboxstocks	-12.0228
jamaica	-12.0228
▁frozen	-12.0228
▁draft	-12.0229
yext	-12.0229
▁surging	-12.023
▁ripping	-12.023
vrsk	-12.023
▁reclaim	-12.0231
▁robotaxis	-12.0231
dtil	-12.0231
▁guest	-12.0231
airdrophunter	-12.0232
195	-12.0233
insy	-12.0234
▁hindu	-12.0235
cajun	-12.0235
aving	-12.0237
▁backlog	-12.0238
ftsv	-12.024
chey	-12.0241
cpah	-12.0242
▁shitty	-12.0245
nws	-12.0245
▁2/3	-12.0249
edxc	-12.0249
▁somehow	-12.0252
saic	-12.0253
▁finest	-12.0254
▁dire	-12.0255
▁amgen	-12.0258
morgs	-12.0259
uga	-12.026
crd	-12.026
▁perfectly	-12.0263
aging	-12.027
psy	-12.0272
▁output	-12.0272
▁4/20	-12.0273
cked	-12.0274
▁yup	-12.0277
arb	-12.0278
artificial	-12.0279
prediction	-12.0279
2.75	-12.028
bdg	-12.028
bmm	-12.0288
sexting	-12.0289
unch	-12.0289
coinsbit	-12.0294
▁recognition	-12.0294
8.9%	-12.0294
▁mayor	-12.0296
▁(-0.6	-12.0297
▁003	-12.0305
▁cleaning	-12.0306
jh	-12.0306
btr	-12.0307
▁toyota	-12.0309
crge	-12.031
▁enabled	-12.0312
▁$0.07	-12.0315
325	-12.0316
▁menu	-12.0317
retc	-12.0319
ideas	-12.0321
anne	-12.0321
eeee	-12.0322
trev	-12.0322
158	-12.0325
cno	-12.0327
ivol	-12.0328
▁commit	-12.0328
⚡	-12.0328
rare	-12.0328
mei	-12.0329
▁anyways	-12.0331
▁implement	-12.0343
▁prospective	-12.0345
▁surprising	-12.0345
tayxana	-12.0345
▁caution	-12.0345
▁marshall	-12.0345
▁flippers	-12.0345
infused	-12.0345
▁ceiling	-12.0345
▁brutal	-12.0345
promofriday	-12.0345
vlrx	-12.0346
▁retracement	-12.0346
▁klip	-12.0346
▁rotation	-12.0346
▁alongside	-12.0346
cgnx	-12.0347
▁soros	-12.0347
ffiv	-12.0348
xhb	-12.0348
itci	-12.0348
drrx	-12.0348
solana	-12.0348
cisco	-12.0349
▁pst	-12.0351
bon	-12.0352
crdl	-12.0353
stakecube	-12.0354
▁agent	-12.0355
▁bighit	-12.0355
ien	-12.0356
atx	-12.0356
vslr	-12.036
▁odd	-12.0363
▁circ	-12.0363
assworship	-12.0363
▁endless	-12.0365
▁tire	-12.0367
cannabisstocks	-12.0367
corr	-12.037
▁fairly	-12.0373
▁59%	-12.0373
loading	-12.0385
205	-12.0388
clark	-12.0391
creept	-12.0393
takeoff	-12.0394
▁looses	-12.0394
▁served	-12.0398
development	-12.04
battery	-12.0401
partnership	-12.0401
lane	-12.0404
285	-12.0405
?????????	-12.0405
exe	-12.0407
tris	-12.0408
sponsored	-12.0409
nailed	-12.0417
united	-12.0419
▁pat	-12.042
victor	-12.043
▁chri	-12.0437
109	-12.044
▁nv	-12.0445
taking	-12.0447
▁aside	-12.0447
▁virgin	-12.0448
hero	-12.0449
0.33	-12.0453
▁caus	-12.0454
▁viewers	-12.0459
▁requirement	-12.046
gamemanual	-12.0462
twitterfoodbank	-12.0462
₹	-12.0462
▁appoints	-12.0462
▁associated	-12.0462
▁bonnie	-12.0462
▁consumption	-12.0462
▁punish	-12.0462
▁recurring	-12.0462
▁philip	-12.0462
censorship	-12.0463
14.500	-12.0463
▁southwest	-12.0463
▁dispose	-12.0463
▁appeal	-12.0464
sndl	-12.0464
▁blackrock	-12.0465
photo	-12.0466
iro	-12.0466
▁leap	-12.0467
▁discounted	-12.0467
▁15:00	-12.047
ngtf	-12.047
mdgs	-12.0472
snps	-12.0474
▁sight	-12.0475
juv	-12.0479
ayi	-12.0482
▁+12%	-12.0483
ivb	-12.0483
▁politicians	-12.0485
cvr	-12.0486
▁recognized	-12.0487
lated	-12.0488
ftch	-12.0489
▁blank	-12.0493
curate	-12.0499
sphr	-12.0499
▁windows	-12.0499
33%	-12.0508
mbrx	-12.0513
▁frank	-12.0515
apex	-12.052
fakenews	-12.052
▁$0.08	-12.0526
culture	-12.0527
115	-12.0529
ssof	-12.0533
grf	-12.0536
tchc	-12.0536
lope	-12.0537
mtb	-12.0544
▁drawing	-12.0545
▁liquidate	-12.055
▁(50	-12.0557
tao	-12.0559
legal	-12.0564
375	-12.0566
licensed	-12.0569
while	-12.0573
daisy	-12.0574
apd	-12.0575
charlotte	-12.0581
codieeco	-12.0581
▁unprecedented	-12.0581
commodity	-12.0581
▁dispute	-12.0581
▁diapers	-12.0581
▁mutual	-12.0581
▁replies	-12.0581
▁presence	-12.0581
lvmh	-12.0582
vvus	-12.0582
▁mountain	-12.0582
▁oppose	-12.0582
▁managing	-12.0583
▁authority	-12.0583
▁plain	-12.0583
lthm	-12.0583
▁electronic	-12.0583
tghi	-12.0584
mchp	-12.0584
invite	-12.0585
bunny	-12.0586
▁rehab	-12.0592
dragonchain	-12.0594
automatically	-12.0597
uneq	-12.0597
casy	-12.0598
apro	-12.0602
java	-12.0606
▁elev	-12.0608
credo	-12.061
▁+15%	-12.0614
outage	-12.0618
socks	-12.0619
phi	-12.0619
court	-12.062
bkr	-12.0622
*****	-12.0626
hiiq	-12.0627
msci	-12.0631
kia	-12.0635
▁[$	-12.0635
catfishfindom	-12.0637
blu	-12.0638
fts	-12.064
estimate	-12.0644
according	-12.0645
alpha	-12.0646
▁webd	-12.0649
xcp	-12.0651
lotto	-12.0653
phr	-12.0664
9.8%	-12.0673
555	-12.0674
▁harm	-12.0678
alia	-12.068
0.38	-12.0683
▁-27%	-12.0685
▁impress	-12.0686
▁fools	-12.0689
▁neg	-12.0689
▁raw	-12.0689
▁donated	-12.0693
▁severe	-12.0697
cbre	-12.0698
▁nut	-12.0698
1.15	-12.07
▁avail	-12.0701
object	-12.0702
✓	-12.0702
chocolate	-12.0702
▁civil	-12.0702
▁combination	-12.0702
▁⚔️	-12.0702
dyfsf	-12.0702
▁identify	-12.0702
▁lockheed	-12.0702
detroit	-12.0702
ctxr	-12.0702
▁creation	-12.0702
▁japanese	-12.0702
achv	-12.0702
clothing	-12.0703
▁spell	-12.0703
1990	-12.0703
▁fault	-12.0706
slnx	-12.0706
▁verus	-12.0707
▁wishlist	-12.0707
▁root	-12.0708
golden	-12.0709
expr	-12.071
pear	-12.071
tcco	-12.0711
tihl	-12.0712
zl	-12.0716
tvty	-12.0718
8.8%	-12.0725
stockpicks	-12.0727
▁staffer	-12.0727
▁ear	-12.0729
hind	-12.0729
▁ramping	-12.0732
▁cine	-12.074
▁audited	-12.074
▁curl	-12.0745
pvg	-12.0745
▁nowhere	-12.0748
cuz	-12.0748
8.7%	-12.0748
▁paste	-12.0757
▁remark	-12.0767
▁+0.2	-12.0767
▁coast	-12.0767
patience	-12.0771
calm	-12.0771
bonus	-12.0773
breakout	-12.0773
186	-12.0775
owned	-12.0776
these	-12.078
tcon	-12.0781
▁(+0.4	-12.0784
13.4	-12.0785
slr	-12.0796
fake	-12.0798
vip	-12.0798
969	-12.0806
ggb	-12.0806
rdgl	-12.081
▁booking	-12.081
▁underperform	-12.081
axn	-12.0811
▁instrument	-12.0813
zto	-12.0814
hbor	-12.0814
disneyland	-12.0816
▁merge	-12.0817
▁offered	-12.082
▁mf	-12.082
income	-12.0823
casa	-12.0823
engadget	-12.0824
surveillance	-12.0824
▁accelerating	-12.0824
▁advancing	-12.0824
▁english	-12.0824
▁privilege	-12.0824
▁producing	-12.0824
▁studie	-12.0824
carolina	-12.0824
ljpc	-12.0824
▁universe	-12.0824
▁poised	-12.0824
▁behalf	-12.0824
clyde	-12.0824
▁grill	-12.0825
▁bellow	-12.0825
▁delhi	-12.0825
rlgy	-12.0826
lhsif	-12.0826
▁ventilators	-12.0827
▁9:30	-12.0827
nktr	-12.0829
earncrypto	-12.0829
dcph	-12.0832
steve	-12.0833
▁paycheck	-12.0835
pei	-12.084
cdnx	-12.0842
▁3000+	-12.0845
label	-12.0846
storing	-12.0857
ional	-12.0861
tein	-12.0863
mnkd	-12.0867
hhhh	-12.0869
$$$$$$	-12.0877
▁minerals	-12.0882
wow	-12.0885
dcp	-12.0886
ike	-12.0886
pepe	-12.0886
229	-12.0888
249	-12.0892
moore	-12.0892
gamers	-12.0892
cib	-12.0894
drus	-12.0896
♡	-12.0897
sugar	-12.0899
_________	-12.0901
dox	-12.0903
▁-0.7	-12.0905
child	-12.0905
rpx	-12.0912
dead	-12.0915
uslv	-12.0917
hype	-12.092
▁2002.	-12.0935
▁poison	-12.0936
ggi	-12.094
▁probe	-12.0941
▁.50	-12.0947
barrickgold	-12.0947
olympics	-12.0947
panasonic	-12.0947
▁analyzing	-12.0947
▁congratulate	-12.0947
▁departure	-12.0947
▁jaffray	-12.0947
▁suppress	-12.0947
▁dorsey	-12.0947
▁french	-12.0947
tradetalks	-12.0947
▁etoro	-12.0948
▁hillary	-12.0948
boerse	-12.0948
▁western	-12.0948
6.25	-12.095
bpmx	-12.0951
impressions	-12.0955
▁☭	-12.0957
▁convinced	-12.0957
▁novel	-12.0958
▁hbo	-12.0961
caty	-12.0967
tdw	-12.0969
▁soaring	-12.0972
oilu	-12.0972
www	-12.0973
▁002	-12.0973
207	-12.0973
tecd	-12.0974
425	-12.0975
zsan	-12.0975
▁publishing	-12.0975
dollh	-12.0976
gdrt	-12.0976
▁scrap	-12.0977
dallas	-12.0977
▁complaint	-12.0978
▁0.003	-12.0981
cwco	-12.0983
xdc	-12.0985
ryn	-12.0987
quin	-12.0989
zla	-12.0989
20000000	-12.099
▁realtime	-12.0998
asur	-12.1009
▁(-0.7	-12.101
equality	-12.1017
tries	-12.102
▁bone	-12.102
▁winter	-12.1026
technologies	-12.1026
~&	-12.1027
swir	-12.1028
gio	-12.1029
natural	-12.103
nothing	-12.103
merc	-12.1033
118	-12.1035
dirty	-12.1037
crr	-12.104
154	-12.1041
cashmaster	-12.1042
▁pit	-12.1043
nec	-12.1043
aci	-12.1045
lib	-12.1048
580	-12.1051
786	-12.1053
dci	-12.1053
▁execute	-12.1054
$15	-12.1056
hld	-12.1056
▁claiming	-12.1058
ngl	-12.1063
pnr	-12.1066
▁basket	-12.1069
uncertain	-12.1072
bariscoming	-12.1072
blacklivesmatter	-12.1072
▁eliminate	-12.1072
▁explosive	-12.1072
▁steadily	-12.1072
⚡⚡⚡⚡	-12.1072
kirill	-12.1072
▁composite	-12.1072
▁therefore	-12.1072
▁salary	-12.1073
▁indicating	-12.1073
tiktok	-12.1073
▁submission	-12.1074
mdco	-12.1074
izzle	-12.1075
▁spotted	-12.1075
▁-17%	-12.1075
erj	-12.1076
▁flush	-12.1078
arlp	-12.1081
cheese	-12.1081
▁disruption	-12.1081
▁instruments	-12.1083
▁patch	-12.1085
415	-12.1086
▁moat	-12.1087
divest	-12.1089
lecommunications	-12.1095
spring	-12.1097
-----	-12.1099
▁+29%	-12.1099
1998	-12.1104
▁fir	-12.1105
word	-12.1106
drng	-12.1109
nicole	-12.111
dain	-12.1117
▁priv	-12.1119
igo	-12.1123
betr	-12.1124
pdac	-12.1125
claim	-12.1126
▁-0.5%	-12.1135
phg	-12.114
chma	-12.114
latina	-12.1141
yur	-12.1142
halving	-12.1149
dir	-12.1149
hut	-12.1152
autopilot	-12.1155
1.94	-12.1158
176	-12.1167
discord	-12.1173
▁(+2	-12.1176
▁beef	-12.1179
sabr	-12.1179
bto	-12.1179
▁determine	-12.118
virt	-12.1181
▁starter	-12.1183
boe	-12.1187
▁downtime	-12.1191
fiat	-12.1191
hawk	-12.1193
▁thousand	-12.1194
0.32	-12.1195
pain	-12.1196
xtreme	-12.1197
【	-12.1199
fibonacci	-12.1199
philippines	-12.1199
robbreport	-12.1199
▁excitement	-12.1199
▁opposite	-12.1199
▁responsible	-12.1199
】	-12.1199
▁arrangement	-12.1199
desipunk	-12.1199
houston	-12.1199
–03.	-12.1199
▁gappers	-12.1199
▁berlin	-12.1199
▁exceptional	-12.1199
▁glasses	-12.1199
vintage	-12.12
▁unknown	-12.12
▁extraction	-12.1201
0.75	-12.1201
▁cintel	-12.1201
sugarbaby	-12.1201
sdrl	-12.1201
▁castle	-12.1202
▁silly	-12.1203
hustle	-12.1203
▁adapt	-12.1208
matters	-12.1208
rmf	-12.121
▁1.5%-2	-12.1213
▁brainer	-12.1213
937	-12.1216
▁restart	-12.1216
▁downward	-12.1216
▁crushed	-12.1218
descend	-12.1218
▁needham	-12.1218
▁maintained	-12.1224
blowing	-12.1225
-$1	-12.1226
▁+22%	-12.1229
▁(-2.	-12.1231
▁oligarchs	-12.1232
medif	-12.1236
▁dyna	-12.1238
▁cuba	-12.1247
▁lovers	-12.1251
alien	-12.1253
logi	-12.1256
▁2000000	-12.1258
▁safer	-12.1262
▁3/1	-12.1271
xbit	-12.1275
▁weigh	-12.1276
mmi	-12.1279
200,000,000	-12.1283
protocol	-12.1286
through	-12.1287
entertainment	-12.1287
gigafactory	-12.1287
software	-12.1287
ufo	-12.1288
service	-12.1288
standard	-12.1289
crash	-12.1293
alp	-12.1297
young	-12.1297
kweb	-12.1299
▁disappoint	-12.1299
install	-12.1303
west	-12.1304
lbas	-12.1307
▁??❤️	-12.131
feb	-12.1316
▁.003	-12.1321
powered	-12.1322
kosk	-12.1324
bail	-12.1324
smartcontract	-12.1325
techradar	-12.1327
▁4️⃣	-12.1327
▁negotiations	-12.1327
▁significance	-12.1327
▁inverted	-12.1327
python	-12.1327
▁silence	-12.1327
▁infection	-12.1327
licious	-12.1328
giveway	-12.1328
▁500%+	-12.1329
▁tobacco	-12.1329
▁yahoo	-12.1329
metaverse	-12.133
sirc	-12.133
barbie	-12.133
hhse	-12.133
▁cheapies	-12.1334
ghana	-12.1337
▁fatal	-12.1344
control	-12.1346
uonek	-12.1351
▁commentary	-12.1352
▁suffering	-12.1353
xbio	-12.1353
transformation	-12.1356
▁3.6%	-12.1358
holi	-12.136
▁pedo	-12.136
▁hired	-12.136
expo	-12.137
ppg	-12.137
▁toys	-12.1373
vow	-12.138
▁.005	-12.138
mariah	-12.1383
atp	-12.1386
13%	-12.1391
catching	-12.1392
fix	-12.1394
▁-2%	-12.1404
clover	-12.1406
vici	-12.1415
–	-12.142
☀️	-12.142
bxk	-12.1421
fail	-12.1423
medicine	-12.1424
nia	-12.1429
him	-12.1431
dxd	-12.1432
blon	-12.1437
ptop	-12.1438
une	-12.1443
linda	-12.1451
dla	-12.1453
stayhome	-12.1453
tdc	-12.1454
php	-12.1455
▁compensat	-12.1456
aths	-12.1456
jbzy	-12.1457
▁experiment	-12.1457
▁francisco	-12.1457
▁gerpang	-12.1457
▁refferal	-12.1457
▁territory	-12.1457
▁unprofitable	-12.1457
▁concentrat	-12.1457
▁weather	-12.1457
tnybf	-12.1457
▁employment	-12.1458
bittorrentspeed	-12.1458
▁commitment	-12.1458
fivn	-12.1459
arrest	-12.146
dplo	-12.146
smartcontracts	-12.1461
▁:-)	-12.1463
▁gapping	-12.1464
meetup	-12.1466
▁unreal	-12.1466
▁nerds	-12.1466
aiming	-12.1467
dew	-12.147
▁expir	-12.1472
aspu	-12.1473
labu	-12.1475
cmpr	-12.1475
▁discusse	-12.1476
▁determined	-12.1476
▁deleted	-12.1479
▁widely	-12.1481
babi	-12.1484
selb	-12.1488
aan	-12.149
▁?⚡	-12.1491
triip	-12.1491
annabiscommunity	-12.1504
▁fcf	-12.1506
10.1%	-12.1506
▁fuckin	-12.1509
▁hurting	-12.1515
▁farms	-12.1516
nak	-12.152
faf	-12.1522
0.35	-12.1524
▁8500	-12.1525
pwr	-12.1526
▁counting	-12.1532
8000	-12.1533
0.65	-12.1537
tier	-12.1538
0.37	-12.1539
196	-12.154
▁lemm	-12.1548
138	-12.155
▁+6%	-12.1554
315	-12.1555
florida	-12.1555
double	-12.1556
cau	-12.1558
1.07	-12.1559
bip	-12.1566
front	-12.1568
flu	-12.157
▁(+0.3	-12.1574
logic	-12.1575
closed	-12.1575
▁answered	-12.1582
tgro	-12.1586
prince	-12.1588
decentralised	-12.1588
▁applicants	-12.1588
▁easiest	-12.1588
▁interpret	-12.1588
▁muslim	-12.1588
▁rallied	-12.1588
▁background	-12.1588
construct	-12.1589
▁vertex	-12.1589
vprb	-12.1589
▁pennant	-12.1589
▁element	-12.1589
▁panties	-12.1589
▁corrupted	-12.1589
▁unexpected	-12.1589
▁democratic	-12.159
▁informed	-12.159
▁tencent	-12.159
▁smartphone	-12.1591
aktx	-12.1592
abml	-12.1592
▁audio	-12.1593
eght	-12.1594
tigr	-12.1597
▁!!????	-12.1598
▁enroll	-12.1599
rbs	-12.1599
▁feeless	-12.16
▁beaten	-12.1601
▁rebate	-12.1609
athx	-12.1609
exel	-12.1611
xhr	-12.1613
▁hacked	-12.1617
spex	-12.1618
278	-12.1619
▁outcome	-12.1623
262	-12.1628
ady	-12.1631
1.38	-12.1632
cbio	-12.1632
▁shortage	-12.1633
uuuu	-12.1635
▁$0.20	-12.1638
hud	-12.1639
trmd	-12.1653
maya	-12.1653
▁pushes	-12.1654
10.4%	-12.1658
nuke	-12.1659
bgi	-12.1664
255	-12.1665
zilla	-12.1667
178	-12.167
omer	-12.1675
▁integrat	-12.1678
139	-12.168
▁booked	-12.1683
122	-12.1688
▁tripp	-12.169
computing	-12.1691
climate	-12.1692
▁brin	-12.1693
history	-12.1693
▁marked	-12.1694
extra	-12.1699
▁intent	-12.17
bob	-12.1703
6.50	-12.1704
clown	-12.1704
casey	-12.1705
dvt	-12.1706
hara	-12.1706
arci	-12.1709
▁interact	-12.1709
relay	-12.1711
imax	-12.1716
▁titty	-12.1721
▁capitulation	-12.1722
▁crucial	-12.1722
▁prominent	-12.1722
qwark	-12.1722
▁23:59	-12.1722
▁drunk	-12.1722
▁tbh	-12.1722
callistonetwork	-12.1722
▁align	-12.1722
▁24:00	-12.1722
exmgf	-12.1723
▁layoff	-12.1723
▁vista	-12.1723
▁submitted	-12.1723
akrx	-12.1723
▁blair	-12.1724
titute	-12.1725
invalid	-12.1726
▁restricted	-12.1726
▁mover	-12.1726
▁pretend	-12.1727
▁permission	-12.1729
1.60	-12.173
bailey	-12.1731
upzs	-12.1733
cctl	-12.1733
monte	-12.1734
organize	-12.1735
lowfloat	-12.1738
inuv	-12.1741
▁patiently	-12.1742
▁+24%	-12.1745
cue	-12.1752
qdel	-12.1755
vnue	-12.1756
lockdown	-12.1766
sexy	-12.1768
nbrv	-12.1768
evo	-12.1771
▁(%)	-12.1772
✌	-12.1774
nique	-12.1774
oncy	-12.1776
▁touched	-12.1777
loser	-12.1779
clir	-12.178
remix	-12.178
fitb	-12.1786
xyo	-12.1789
▁185	-12.1789
▁fra	-12.179
clrb	-12.1795
also	-12.1799
▁md	-12.18
▁subscriber	-12.1804
talented	-12.1804
▁heal	-12.1804
alex	-12.1806
▁thre	-12.1809
logm	-12.1814
cemi	-12.1815
216	-12.1817
179	-12.182
bring	-12.1825
ivity	-12.1827
⏰	-12.1831
cashcow	-12.1832
lucky	-12.1833
▁1999	-12.1835
session	-12.1838
▁tab	-12.184
▁consist	-12.1841
bean	-12.1843
▁district	-12.1857
decentraland	-12.1857
▁stifel	-12.1857
▁straddle	-12.1857
▁temporarily	-12.1857
▁pension	-12.1857
▁jesus	-12.1857
conflict	-12.1857
▁honeywell	-12.1857
▁rescue	-12.1857
▁docusign	-12.1857
tothemoon	-12.1857
li̇	-12.1857
▁carrier	-12.1858
▁summon	-12.1858
▁+86%	-12.1859
contentcreator	-12.1859
▁annualized	-12.186
▁attract	-12.186
mreo	-12.1861
jones	-12.1863
sophia	-12.1864
▁disappointed	-12.187
9.1%	-12.1871
▁$12.50	-12.1871
▁slight	-12.1871
omp	-12.1877
atory	-12.1878
hig	-12.188
▁originally	-12.1881
lky	-12.1882
▁cata	-12.1883
trtt	-12.1883
businessnews	-12.1883
▁12.3%	-12.1888
/09	-12.1892
8.0%	-12.1898
▁meaningful	-12.1899
plce	-12.1904
training	-12.1906
▁+$1	-12.1909
bloc	-12.191
geek	-12.1914
vegan	-12.192
mosy	-12.1922
ixic	-12.1923
tpl	-12.1924
raven	-12.1927
▁technically	-12.1928
handed	-12.1928
rrr	-12.1933
ovid	-12.1937
286	-12.1939
328	-12.1943
endo	-12.1944
5.50	-12.1954
isee	-12.1956
mds	-12.1957
$500	-12.1965
acu	-12.1965
drive	-12.1965
walker	-12.1969
evi	-12.1971
filings	-12.1973
▁modi	-12.1975
account	-12.1977
▁+16	-12.1978
▁soooo	-12.1978
demand	-12.1981
crist	-12.1982
3.25	-12.1982
ghg	-12.1985
cycle	-12.1986
chad	-12.1988
343	-12.1988
captain	-12.1988
kep	-12.199
↗	-12.1994
decimated	-12.1994
oilandgas	-12.1994
thursdaythoughts	-12.1994
▁acceleration	-12.1994
▁magazine	-12.1994
▁policies	-12.1994
▁twilio	-12.1994
iamdecentralized	-12.1994
▁fulfill	-12.1994
▁corruption	-12.1994
squirt	-12.1994
▁cousin	-12.1994
wuhan	-12.1995
▁spotlight	-12.1996
▁drama	-12.1996
wellness	-12.1998
dmpi	-12.1998
▁brokerage	-12.2
aviation	-12.2
▁doug	-12.2001
▁workforce	-12.2002
▁$20.000	-12.2003
▁stopping	-12.2004
panshi	-12.2005
▁loot	-12.2006
hanna	-12.2008
march	-12.2012
burning	-12.2012
aro	-12.2012
9.50	-12.2014
sellingcontent	-12.2014
emr	-12.2015
coinall	-12.2015
▁6900	-12.2016
2018	-12.2016
▁overtake	-12.2016
▁btv	-12.2018
▁viable	-12.2018
unss	-12.2023
=0	-12.2024
xbase	-12.2024
75,000	-12.2025
287	-12.2027
advm	-12.2033
ashr	-12.2038
665	-12.2043
gww	-12.2044
commun	-12.2047
tues	-12.2053
etr	-12.2054
cinf	-12.2056
trpx	-12.2063
merica	-12.2068
▁edt	-12.2073
▁male	-12.2073
mode	-12.2077
▁0.015	-12.2081
▁exceeding	-12.2081
cabo	-12.2082
▁exercise	-12.2092
newyear	-12.2095
▁.25	-12.2096
fei	-12.2098
gdp	-12.2098
▁booming	-12.2099
mrkr	-12.2099
hey	-12.2101
mann	-12.2102
wise	-12.2103
cryptocom	-12.2105
peak	-12.2109
damn	-12.211
john	-12.2111
▁reload	-12.2111
▁gosh	-12.2113
dean	-12.2118
poll	-12.2118
rip	-12.2119
scalp	-12.2122
209	-12.2124
fmc	-12.2124
485	-12.2127
calvinbenson	-12.2133
▁exhaust	-12.2133
clementinebby	-12.2133
flarewallet	-12.2133
lagitfhm	-12.2133
numerous	-12.2133
▁british	-12.2133
▁cautious	-12.2133
▁fraudulent	-12.2133
opioid	-12.2133
▁lagging	-12.2133
eadsy	-12.2133
▁robust	-12.2133
▁subsidies	-12.2133
poverty	-12.2133
racism	-12.2133
theswitch	-12.2133
alcohol	-12.2133
sxtc	-12.2133
▁diverse	-12.2133
▁kidding	-12.2134
▁dunkin	-12.2134
228	-12.2135
▁export	-12.2136
▁republicans	-12.2137
▁decliners	-12.2138
ears	-12.2139
▁manipulate	-12.2141
▁screaming	-12.2142
▁+33%	-12.2145
shopify	-12.2148
▁harassed	-12.2149
▁$10.00	-12.2149
▁❤️??	-12.215
▁tits	-12.2151
▁8300	-12.2155
enzc	-12.2155
usdchf	-12.2156
vnet	-12.2158
gender	-12.216
midas	-12.2162
rgn	-12.2162
4980	-12.2166
▁expanded	-12.2166
⚠️⚠️	-12.217
▁discovered	-12.2171
athm	-12.2171
▁walking	-12.2184
lil	-12.2185
opening	-12.2186
▁approve	-12.219
▁operational	-12.2192
crown	-12.2192
247	-12.2193
ppi	-12.2197
1.05	-12.2199
▁bankers	-12.2202
clne	-12.2203
0-50%	-12.2203
▁classes	-12.2205
qtm	-12.2206
microcap	-12.2209
▁figured	-12.221
build	-12.2211
tthemoney	-12.2211
▁(+0.5	-12.2213
237	-12.2214
3.75	-12.2221
pcn	-12.2222
1400	-12.2227
vlka	-12.2236
devon	-12.2245
blog	-12.2245
quant	-12.2255
solution	-12.2257
contract	-12.2258
fresh	-12.2259
deutsche	-12.226
thousands	-12.226
momentum	-12.226
japan	-12.2262
stl	-12.2262
dave	-12.2263
▁motherf	-12.2264
heating	-12.2266
electronics	-12.2271
▁neither	-12.2274
▁optimism	-12.2274
▁seamless	-12.2274
▁vulnerable	-12.2274
mmnff	-12.2274
ntdoy	-12.2274
▁transplant	-12.2274
▁passenger	-12.2274
▁slump	-12.2274
shield	-12.2274
bkyi	-12.2274
vvpr	-12.2274
falcon	-12.2274
vtgn	-12.2274
gpft	-12.2274
▁banned	-12.2274
turtle	-12.2275
▁chatroom	-12.2275
▁governor	-12.2275
permian	-12.2276
rgen	-12.2277
stockmarketcrash	-12.2277
▁serving	-12.2278
▁pharmacy	-12.2278
idxx	-12.2279
▁dynamics	-12.2279
campbell	-12.228
▁awful	-12.2281
▁coward	-12.2284
▁screwed	-12.2284
▁realization	-12.2285
csgp	-12.2285
▁leaked	-12.2289
rubi	-12.229
vaping	-12.2293
▁disc	-12.2297
▁1.000.000	-12.23
▁voters	-12.2302
oih	-12.2302
▁indicated	-12.2305
▁68%	-12.2311
vnom	-12.2313
▁deeper	-12.2314
283	-12.2319
368	-12.2321
russia	-12.2322
weekend	-12.2323
guru	-12.2324
krtx	-12.2325
1.31	-12.2329
▁collecting	-12.2335
1.37	-12.2339
crime	-12.2341
sync	-12.2342
babyy	-12.2343
ppy	-12.2343
1.45	-12.2357
soph	-12.2357
dsgt	-12.236
iron	-12.2365
▁4/2	-12.2366
▁brad	-12.2378
▁weaker	-12.2384
technical	-12.2386
▁crashing	-12.2387
▁trail	-12.2387
266	-12.2388
ipc	-12.2389
▁chose	-12.239
intel	-12.2394
▁separate	-12.2394
rrrr	-12.2395
omar	-12.2395
ronica	-12.2396
itude	-12.2403
won	-12.2404
tbt	-12.2406
8.50	-12.2407
candle	-12.2407
number	-12.2408
cva	-12.2411
ryo	-12.2414
▁absurd	-12.2417
digiassets	-12.2417
michigan	-12.2417
▁activist	-12.2417
▁naughty	-12.2417
phantom	-12.2417
▁kpmg	-12.2417
▁animation	-12.2417
▁spook	-12.2417
▁continental	-12.2417
▁liberty	-12.2417
jwca	-12.2417
▁alleged	-12.2417
▁agenda	-12.2417
cathay	-12.2417
▁outrage	-12.2417
afmd	-12.2417
khrn	-12.2417
▁newbies	-12.2417
▁concert	-12.2417
▁defined	-12.2417
nwc	-12.2417
▁saturn	-12.2418
398	-12.2418
bznt	-12.2419
soda	-12.2419
▁ipad	-12.242
567	-12.2421
▁prayers	-12.2421
▁eight	-12.2422
▁1800	-12.2423
urg	-12.2423
▁delight	-12.2423
▁emotional	-12.2425
akro	-12.2425
▁hoax	-12.2427
loop	-12.2436
precision	-12.2437
▁wearing	-12.2438
dlpn	-12.244
maticnetwork	-12.244
▁automatic	-12.2444
▁%23	-12.2446
cfgx	-12.2451
bitmart	-12.2455
▁safest	-12.2462
chronic	-12.2465
▁span	-12.2466
ocp	-12.2468
▁beware	-12.2469
▁abuser	-12.2471
musk	-12.2473
pfg	-12.2478
▁($10	-12.2478
▁$2.2	-12.2481
tsro	-12.2484
caas	-12.2484
eyeg	-12.2485
▁awhile	-12.2501
▁chg	-12.2504
▁.004	-12.2508
valu	-12.2522
▁14:00	-12.2523
gcap	-12.2525
="	-12.2528
▁0.00002	-12.2534
cripto	-12.2535
holder	-12.2535
gua	-12.2541
omc	-12.2543
25.00	-12.2554
▁consume	-12.2556
second	-12.2557
dwp	-12.2557
̲	-12.2561
▁challenging	-12.2561
▁explanation	-12.2561
▁explosion	-12.2561
▁relevant	-12.2561
▁reservation	-12.2561
▁suspension	-12.2561
?‍?‍?‍?	-12.2561
▁sacrific	-12.2561
▁taiwan	-12.2561
▁victory	-12.2562
optimus	-12.2562
douglas	-12.2562
▁kevin	-12.2562
uoa	-12.2563
▁3/4	-12.2564
▁airport	-12.2564
uamm	-12.2564
▁tagged	-12.2564
mariana	-12.2564
▁signature	-12.2565
about	-12.2568
pure	-12.2568
investigated	-12.2569
html	-12.257
closing	-12.257
bayry	-12.2571
▁strain	-12.2572
gahc	-12.2573
vicr	-12.2573
bwa	-12.2574
thankyou	-12.2576
biph	-12.2576
▁+41%	-12.2578
virginia	-12.2579
cohu	-12.258
iac	-12.258
gogo	-12.2583
▁normally	-12.2583
cfrx	-12.2585
▁rbc	-12.2586
bmr	-12.2587
10.7%	-12.2589
▁shower	-12.2589
cult	-12.2596
validator	-12.2598
spgi	-12.2599
45.00	-12.2599
return	-12.2599
10,000,000	-12.2602
imux	-12.2603
spoil	-12.2609
juice	-12.2611
---------------	-12.2612
tock	-12.2615
knight	-12.2617
▁suggesting	-12.2619
20,000	-12.2628
drum	-12.263
!!!!???	-12.2631
republican	-12.2633
2,500	-12.2638
pnat	-12.2639
200%	-12.2646
bepro	-12.2648
91%	-12.2652
diod	-12.2653
korea	-12.2655
venus	-12.2656
▁hav	-12.2662
▁wasting	-12.2662
825	-12.2665
ksm	-12.2672
mbi	-12.2676
nzd	-12.2684
▁accus	-12.2685
▁31%	-12.2688
▁2007	-12.2688
psti	-12.269
▁emotion	-12.27
238	-12.2705
computer	-12.2708
vikram	-12.2708
▁tunnel	-12.2708
atingvaluabletxs	-12.2709
klickzie	-12.2709
pantyhose	-12.2709
wednesdaywisdom	-12.2709
▁collaborate	-12.2709
▁conviction	-12.2709
▁distortion	-12.2709
▁emancipat	-12.2709
▁enemies	-12.2709
▁⬇⬇	-12.2709
▁atlanta	-12.2709
unnamed	-12.2709
▁traction	-12.2709
▁crook	-12.2709
▁transport	-12.271
▁fwd	-12.271
482	-12.271
▁factories	-12.271
▁command	-12.2711
▁burger	-12.2712
bopo	-12.2713
blis	-12.2713
tailor	-12.2713
carboncredit	-12.2713
▁desktop	-12.2714
ifrx	-12.2714
chsb	-12.2714
sohu	-12.2714
footworship	-12.2716
dewm	-12.2717
aawc	-12.2717
cycn	-12.2718
spcb	-12.2722
▁brace	-12.2725
▁rival	-12.2726
aqst	-12.2727
gden	-12.2728
▁deployed	-12.2729
drea	-12.2731
cio	-12.2732
▁goodmorning	-12.2732
▁hanging	-12.2738
fcpa	-12.2739
▁outdoor	-12.2739
ozk	-12.2747
developer	-12.275
trup	-12.2755
813	-12.2757
jean	-12.2761
sogo	-12.2763
lord	-12.2763
drug	-12.2768
525	-12.277
177	-12.2776
usual	-12.2777
▁longterm	-12.2778
cni	-12.2779
273	-12.2782
0.00%	-12.2783
pacd	-12.2786
fud	-12.2786
▁screener	-12.2786
vtx	-12.279
dorm	-12.2791
570	-12.2791
▁(4)	-12.2793
basic	-12.28
0.00000	-12.2804
speed	-12.2812
vue	-12.2818
jeff	-12.2823
184	-12.2828
767	-12.283
molly	-12.2833
repo	-12.2833
▁modern	-12.2834
bmx	-12.2844
zoo	-12.2844
▁obsess	-12.2845
337	-12.2846
1.24	-12.2849
▁investigate	-12.285
22.5	-12.2851
wgr	-12.2852
shark	-12.2854
⭐	-12.2856
charge	-12.2857
leronlimab	-12.2858
▁canaccord	-12.2858
▁cultivation	-12.2858
▁piggies	-12.2858
▁unchanged	-12.2858
▁applied	-12.2858
▁innocent	-12.2858
▁celgene	-12.2858
▁drove	-12.2858
▁jason	-12.2858
happyeaster	-12.2858
▁dramatically	-12.2858
mdmp	-12.2858
▁webcast	-12.2859
▁flipping	-12.2859
nlok	-12.2859
▁orange	-12.286
▁appearance	-12.286
▁revisit	-12.286
▁refresh	-12.286
▁roadster	-12.286
▁unfold	-12.2861
▁lied	-12.2861
vlns	-12.2862
▁popping	-12.2862
▁+28%	-12.2864
babydoll	-12.2865
0.70	-12.2866
monet	-12.2866
▁bottle	-12.2866
belle	-12.2867
bmra	-12.2868
▁(+3	-12.2871
cayla	-12.2872
▁reasonable	-12.2872
▁palm	-12.2875
dcix	-12.2875
▁victim	-12.2876
▁carefully	-12.2876
0.94	-12.288
milton	-12.2881
▁mh	-12.2881
▁african	-12.2883
usecase	-12.2888
job	-12.2889
730	-12.2891
enable	-12.2892
▁takeover	-12.2893
rssf	-12.2894
▁steven	-12.2894
rvx	-12.2897
performance	-12.2897
▁destroying	-12.2898
mobility	-12.2901
iness	-12.2903
▁treated	-12.2906
▁svc	-12.2907
0.45	-12.2911
▁environmental	-12.2912
▁pmi	-12.2913
306	-12.2916
nxe	-12.2917
▁⭕️	-12.2919
sql	-12.292
233	-12.2923
▁failing	-12.2924
kera	-12.2924
cdk	-12.2927
uti	-12.2935
anz	-12.2938
172	-12.294
cyh	-12.2942
meso	-12.2944
0.47	-12.2953
40,000	-12.2953
miller	-12.2966
5.3%	-12.2969
xpo	-12.2971
4.99	-12.2975
860	-12.2977
hui	-12.2985
rnn	-12.2987
mash	-12.2987
wlt	-12.2997
fsm	-12.2998
0,0	-12.3004
millennial	-12.3005
▁danger	-12.3005
▁150%	-12.3007
censor	-12.3009
cashappinbio	-12.3009
conferencing	-12.3009
♥️♥️♥️	-12.3009
▁offshore	-12.3009
puzzle	-12.3009
▁bruce	-12.3009
▁denied	-12.3009
ibdpartner	-12.3009
▁nationwide	-12.3009
▁farmers	-12.301
vtl	-12.301
▁iraq	-12.301
▁lmfao	-12.301
▁davidson	-12.3012
▁statistics	-12.3012
pfpt	-12.3012
▁communist	-12.3012
▁secretary	-12.3012
▁-44%	-12.3012
▁dress	-12.3013
tmrc	-12.3013
secret	-12.3014
mtp	-12.3015
winmq	-12.3015
ofi	-12.3018
everything	-12.3018
multiple	-12.3018
turbo	-12.3019
▁hunting	-12.302
▁cheapest	-12.302
claire	-12.302
another	-12.302
▁publishers	-12.3021
safu	-12.3022
chuck	-12.3024
▁jobless	-12.3025
square	-12.3025
empr	-12.3032
▁comeback	-12.3034
chelle	-12.3034
better	-12.3036
epaz	-12.3036
final	-12.3037
gwre	-12.3041
▁78%	-12.3049
pending	-12.305
▁+25%	-12.3052
rius	-12.3054
atwt	-12.3057
fldm	-12.3058
▁milk	-12.3058
444	-12.3064
tronix	-12.3069
ntrust	-12.3073
aog	-12.3078
pdf	-12.3079
▁explaining	-12.3081
crai	-12.309
xrc	-12.3091
ika	-12.3105
770	-12.3114
▁gooo	-12.3115
cee	-12.3119
(#	-12.3121
ander	-12.3123
ocul	-12.3124
cff	-12.3143
chip	-12.3148
775	-12.3156
iswh	-12.3157
anxiety	-12.3163
lovethyneighbor	-12.3163
sociopath	-12.3163
▁annoying	-12.3163
▁dissident	-12.3163
▁flavor	-12.3163
▁generator	-12.3163
▁horrifying	-12.3163
▁medtronic	-12.3163
▁survival	-12.3163
massadoption	-12.3163
ç	-12.3163
▁demonstrate	-12.3163
▁graduate	-12.3163
aerospace	-12.3163
▁(~$9	-12.3163
▁gateway	-12.3163
▁prosper	-12.3164
graphite	-12.3164
▁awake	-12.3164
mdgl	-12.3164
▁costello	-12.3164
dvmt	-12.3165
tomdf	-12.3165
holochain	-12.3165
▁jonas	-12.3165
▁promoting	-12.3166
activate	-12.3167
▁payroll	-12.3167
vygr	-12.3167
telehealth	-12.3167
▁kindness	-12.3167
mxim	-12.3167
▁$0.12	-12.3168
▁rebrand	-12.3169
wafu	-12.317
▁peek	-12.317
nouv	-12.317
industrial	-12.3174
dtss	-12.3174
rvlt	-12.3175
crowdfunding	-12.3176
bound	-12.3176
nlsn	-12.3176
should	-12.3177
airlines	-12.3177
donations	-12.3177
changing	-12.3177
▁bite	-12.3178
cryo	-12.3178
?‍♀️	-12.3179
friendly	-12.3179
justice	-12.318
peck	-12.3182
blockchaingames	-12.3184
grmn	-12.3185
▁$1.30	-12.3185
▁congratulation	-12.3186
color	-12.3187
▁hahaha	-12.3188
▁virtually	-12.3188
fwon	-12.319
worx	-12.3192
0.85	-12.3192
fem	-12.3193
▁crying	-12.3193
▁??????????????	-12.3198
▁stakers	-12.32
1.06	-12.3205
anip	-12.3207
▁wealthy	-12.3208
needed	-12.321
254	-12.3214
▁hodling	-12.3214
vhi	-12.3218
roy	-12.3219
sporting	-12.3225
▁smack	-12.323
marco	-12.3236
blower	-12.3239
▁fixing	-12.3243
▁nope	-12.3249
weat	-12.3252
nbix	-12.3256
rlf	-12.3263
▁older	-12.327
760	-12.3271
▁manipulat	-12.3274
fwp	-12.3275
jks	-12.3278
▁weaken	-12.328
▁manufacture	-12.3283
cml	-12.3284
0.49	-12.3293
nextera	-12.3293
1.34	-12.3295
large	-12.3299
▁refuse	-12.3305
717	-12.3308
desp	-12.3319
⌚	-12.3319
appropriate	-12.3319
sommurplz	-12.3319
sourpatch	-12.3319
virtualrehab	-12.3319
▁variation	-12.3319
▁autonomy	-12.3319
▁chapek	-12.3319
▁disagree	-12.3319
▁obligation	-12.3319
▁supercharger	-12.3319
▁intended	-12.3319
▁◾️	-12.3319
▁baird	-12.3319
▁cigna	-12.332
autism	-12.332
monsanto	-12.332
▁angry	-12.332
▁coupon	-12.332
▁2020-06-1	-12.3321
▁forgotten	-12.3321
sprkl	-12.3321
▁adress	-12.3321
▁presidential	-12.3323
anime	-12.3325
marcus	-12.3325
▁bofa	-12.3325
sponsor	-12.3326
▁dying	-12.3326
blph	-12.3327
▁curse	-12.3327
▁girlfriend	-12.3328
▁electricity	-12.3328
▁acct	-12.3328
proofof	-12.3329
doom	-12.333
▁capitalism	-12.3332
▁hunters	-12.3334
440	-12.3335
california	-12.3338
generation	-12.3338
voice	-12.3341
0.34	-12.3347
whiteslave	-12.3348
snss	-12.335
▁stacked	-12.3354
▁+30%	-12.3354
asianfindom	-12.3358
▁0.005	-12.3359
▁bind	-12.336
▁?❤️?	-12.3364
july	-12.3364
grass	-12.3365
prto	-12.3368
227	-12.3371
frag	-12.3376
▁moral	-12.3378
ucle	-12.3381
zum	-12.3382
geist	-12.3386
▁.0001	-12.3387
▁8/1	-12.3388
▁nah	-12.3392
yten	-12.3397
clbk	-12.3398
quad	-12.3399
arnab	-12.3401
quoted	-12.3403
▁0.20	-12.3406
dab	-12.3409
▁teeth	-12.3412
iah	-12.3414
clear	-12.342
loo	-12.3429
1.35	-12.3431
169	-12.3433
tool	-12.344
libra	-12.3442
▁compo	-12.3443
▁6500	-12.3452
780	-12.3457
totrade	-12.3461
sfm	-12.3462
▁thrive	-12.3472
bitch	-12.3473
▁screw	-12.3476
acdvf	-12.3478
°	-12.3478
▁capabilities	-12.3478
▁optimistic	-12.3478
▁regulated	-12.3478
▁streak	-12.3478
▁temporary	-12.3478
▁turnaround	-12.3478
spiderman	-12.3478
▁ignoring	-12.3478
▁zelcore	-12.3478
▁chunk	-12.3478
▁length	-12.3478
bithumbglobal	-12.3478
▁citex	-12.3478
cartoon	-12.3479
▁legendary	-12.3479
yacht	-12.3479
differ	-12.3479
▁glory	-12.3479
▁remarkable	-12.348
799	-12.348
elect	-12.348
tlra	-12.348
▁bidding	-12.3481
ssft	-12.3481
cabot	-12.3482
dnli	-12.3483
▁pennyland	-12.3483
▁sunny	-12.3484
▁hldg	-12.3484
jbl	-12.3484
fightron	-12.3487
zbra	-12.3488
imgn	-12.349
oasis	-12.3491
psyc	-12.3493
vtk	-12.3495
lpi	-12.35
argentina	-12.3501
affiliate	-12.3501
analytics	-12.3502
▁awaiting	-12.3506
canopy	-12.3506
mike	-12.3507
april	-12.3508
▁scandal	-12.3511
pcty	-12.3512
hill	-12.3512
▁reduc	-12.3513
460	-12.3513
▁bloody	-12.3514
▁stealing	-12.3516
167	-12.3517
0.05%	-12.3519
▁stall	-12.352
gryo	-12.3524
sorl	-12.3529
ridge	-12.3534
bread	-12.3534
carrie	-12.3542
▁cashback	-12.3543
720	-12.3544
$$$$$$$$	-12.3545
trtl	-12.3545
▁translate	-12.3547
▁stex	-12.3555
env	-12.3559
atnx	-12.3562
tronsr	-12.3565
monkey	-12.3572
▁trendy	-12.3574
670	-12.3578
▁readers	-12.3581
▁arks	-12.3584
975	-12.3589
boli	-12.3593
▁huh	-12.3596
928	-12.3599
(12	-12.3604
▁0.004	-12.3604
▁contra	-12.3613
acor	-12.3614
▁dragg	-12.3618
modn	-12.3619
▁calculate	-12.3621
rhoc	-12.3626
274	-12.3627
▁1-100	-12.3629
waxp	-12.3633
blocker	-12.3634
▁origin	-12.3636
odp	-12.3637
▁exploit	-12.3639
authentic	-12.3639
lasvagas	-12.3639
notherdayanother	-12.3639
reversemerger	-12.3639
▁acquiring	-12.3639
▁conclusion	-12.3639
▁encouraging	-12.3639
▁humanitarian	-12.3639
▁necessities	-12.3639
▁stunning	-12.3639
⚡️⚡️⚡️	-12.3639
electricvehicle	-12.3639
▁purchasing	-12.3639
chastity	-12.3639
▁closure	-12.3639
▁silicon	-12.3639
▁embrace	-12.3639
▁restrictions	-12.3639
▁eagle	-12.364
▁taycan	-12.364
▁connectivity	-12.364
wearables	-12.364
▁vanguard	-12.364
ebola	-12.364
treosmerchant	-12.364
▁aircraft	-12.364
▁varian	-12.364
madison	-12.3641
cadjpy	-12.3641
▁popped	-12.3641
nymt	-12.3641
▁$1700)	-12.3641
▁resolution	-12.3642
▁mindset	-12.3642
blockfolio	-12.3642
digitalmarketing	-12.3644
▁framework	-12.3644
ffhl	-12.3644
▁finra	-12.3645
ciix	-12.3646
▁severely	-12.3646
336	-12.3647
walk	-12.3647
▁moderate	-12.3647
chanel	-12.3648
▁sharply	-12.3648
▁capitalization	-12.3649
▁brick	-12.3649
fosl	-12.3651
abet	-12.3651
arcade	-12.3653
mito	-12.3653
xiv	-12.3653
yinn	-12.3653
▁wisely	-12.3659
spank	-12.3662
▁lockup	-12.3664
review	-12.3664
upro	-12.3666
royalties	-12.3668
▁engaged	-12.3669
portfolio	-12.3669
camera	-12.3669
ecosystem	-12.3669
▁homework	-12.3672
▁justify	-12.3672
trgp	-12.3672
everyone	-12.3673
national	-12.3674
2.27	-12.3675
creator	-12.3676
ooooo	-12.3677
▁laughing	-12.3678
▁tall	-12.369
▁cest	-12.3696
ncordinaryshares	-12.37
zzz	-12.3709
predictive	-12.3715
cub	-12.3718
lift	-12.3718
xwp	-12.372
quotes	-12.3721
▁.40	-12.3721
0.88	-12.3726
159	-12.3726
muni	-12.3731
0.95	-12.3741
500.00	-12.3753
▁2023	-12.3757
exr	-12.377
▁1:1	-12.3771
785	-12.3783
463	-12.3784
▁-1.9	-12.3787
ledge	-12.3788
talo	-12.3792
pnw	-12.3793
luk	-12.3794
chill	-12.3796
asln	-12.3796
▁sustain	-12.3797
▁particular	-12.3798
robotaxi	-12.3799
▁5-10	-12.3801
▁jeffree	-12.3803
brighterir	-12.3803
cleveland	-12.3803
principle	-12.3803
▁circulation	-12.3803
▁dispensaries	-12.3803
▁hurricane	-12.3803
▁marathon	-12.3803
▁respectively	-12.3803
grpn	-12.3803
▁tractor	-12.3803
mcafee	-12.3803
▁strive	-12.3803
▁amended	-12.3803
lounge	-12.3803
greatagain	-12.3804
▁candlestick	-12.3804
▁digest	-12.3804
medicalmarijuana	-12.3804
kdng	-12.3804
▁minister	-12.3805
??✈?	-12.3806
▁intact	-12.3806
nndm	-12.3807
▁particularly	-12.3808
▁-28%	-12.3809
1.21	-12.3811
srdp	-12.3811
lambo	-12.3811
lse	-12.3812
▁oem	-12.3813
videogames	-12.3813
▁properly	-12.3814
▁bath	-12.3815
▁accused	-12.3817
▁historically	-12.3819
maybe	-12.382
kitten	-12.3824
▁pivotal	-12.3825
pgny	-12.3826
trill	-12.3826
▁cheet	-12.3828
▁executed	-12.3828
hlx	-12.3829
brain	-12.3831
yolo	-12.3832
buyingnudes	-12.3834
1.55	-12.3834
freak	-12.3837
emerging	-12.3838
▁manipulated	-12.3838
analyst	-12.3838
referral	-12.3838
trafficking	-12.3839
powell	-12.3841
▁$17/	-12.3843
▁stacking	-12.3848
316	-12.385
chub	-12.3852
xrpcommunity	-12.3858
xlr	-12.386
▁performed	-12.386
!!️!!️!!️	-12.3861
▁($500	-12.3873
chief	-12.3883
swingtrade	-12.3898
▁heck	-12.3899
729	-12.3902
▁portal	-12.3904
768	-12.3906
deja	-12.3914
1.58	-12.3916
ausa	-12.3917
cwi	-12.3918
dcac	-12.3919
967	-12.3934
howard	-12.3944
xsn	-12.3945
ldos	-12.3946
flr	-12.3952
wayl	-12.3957
ventilator	-12.3966
└	-12.397
colombia	-12.397
▁doubling	-12.397
▁liverpool	-12.397
▁durable	-12.397
▁funeral	-12.397
▁medication	-12.397
zgnx	-12.397
tmbxf	-12.397
neuroscience	-12.397
▁envision	-12.3971
mktx	-12.3971
▁enrich	-12.3971
▁institute	-12.3971
▁kpop	-12.3971
cova	-12.3972
▁disgu	-12.3972
▁realistic	-12.3978
tgna	-12.3979
lxrx	-12.3981
cmpy	-12.3983
kodk	-12.3983
▁warranty	-12.3983
amrx	-12.3986
385	-12.3987
▁$0.22	-12.3987
▁trailer	-12.3991
president	-12.3994
▁stole	-12.3995
▁publication	-12.3995
hunty	-12.3997
medtech	-12.4
▁+19%	-12.4001
cryptosignals	-12.4003
emn	-12.4004
▁insanely	-12.4005
hrl	-12.4005
ubid	-12.4007
xmx	-12.4009
lottery	-12.401
▁mineral	-12.401
correct	-12.4011
insurance	-12.4011
▁donors	-12.4012
turkey	-12.4013
father	-12.4014
tipping	-12.4015
▁audi	-12.4018
confirmed	-12.4018
395	-12.4022
610	-12.4022
[...]
