<unk>	0
<s>	0
</s>	0
<MASK>	0
<PAD>	0
<UNK>	0
▁$	-2.09467
▁	-3.38734
▁URL	-3.4167
▁#	-3.50628
_	-4.06457
.	-4.09418
T	-4.12762
USER	-4.12844
A	-4.12844
s	-4.19587
:	-4.40314
,	-4.43614
▁rt	-4.48862
aapl	-4.59972
▁to	-4.92625
fb	-4.98511
▁in	-5.03855
t	-5.06488
▁the	-5.08653
▁a	-5.24169
▁on	-5.30666
▁for	-5.32229
'	-5.36163
goog	-5.36544
d	-5.38232
$	-5.40301
amzn	-5.40548
...	-5.4322
▁of	-5.45437
▁-	-5.46178
;	-5.52924
-	-5.57492
c	-5.71763
?	-5.76277
▁and	-5.78239
▁is	-5.84394
stocks	-5.87802
b	-5.8958
!	-6.00619
amp	-6.02543
ing	-6.03275
▁inc	-6.03345
▁(	-6.04966
▁stock	-6.0688
▁you	-6.12513
msft	-6.12544
p	-6.12772
)	-6.14774
m	-6.15209
spy	-6.18984
baba	-6.20586
▁at	-6.22274
ed	-6.23335
▁...	-6.24343
▁apple	-6.2627
▁buy	-6.29746
v	-6.29896
stock	-6.31331
twtr	-6.31783
▁&	-6.32646
▁will	-6.3455
bac	-6.41517
▁i	-6.42313
▁it	-6.43563
/	-6.46747
▁with	-6.48718
▁this	-6.52567
f	-6.52824
nflx	-6.53219
ge	-6.53285
▁up	-6.53651
tsla	-6.55118
▁are	-6.56877
▁stocks	-6.57302
pcln	-6.57399
k	-6.61707
▁new	-6.62708
a	-6.62895
jpm	-6.6364
n	-6.64157
gt	-6.64276
googl	-6.65641
▁market	-6.65935
▁more	-6.67518
▁news	-6.68668
e	-6.68762
▁be	-6.70227
▁from	-6.70473
x	-6.71201
▁have	-6.7153
▁our	-6.71859
▁7	-6.72229
intc	-6.72628
nasdaq	-6.73565
▁by	-6.74216
ko	-6.77667
xom	-6.78775
dis	-6.80574
▁"	-6.80844
▁out	-6.81043
▁here	-6.83333
▁should	-6.83828
▁l	-6.86292
to	-6.87083
▁facebook	-6.8866
l	-6.90222
mcd	-6.90321
&	-6.90376
▁today	-6.91542
wmt	-6.91931
▁u	-6.92565
▁now	-6.9327
qqq	-6.93596
grpn	-6.96639
r	-6.97207
▁google	-6.9724
▁--	-6.98859
▁earnings	-6.99
▁2015	-6.99026
y	-7.00455
▁talks	-7.00928
▁1	-7.01824
csco	-7.02105
▁or	-7.02197
"	-7.02357
ba	-7.02875
▁3	-7.03061
▁step	-7.03696
pfe	-7.04018
investing	-7.04769
jnj	-7.05064
▁over	-7.05386
i	-7.07545
cvx	-7.08248
pennystocks	-7.08451
▁that	-7.08504
o	-7.08665
▁as	-7.09065
▁top	-7.09423
h	-7.10712
▁co	-7.11749
1	-7.12392
finance	-7.12992
▁@	-7.14235
▁like	-7.1506
▁see	-7.16134
stockmarket	-7.16944
cat	-7.17621
▁2	-7.1876
▁-&	-7.19379
▁my	-7.19513
▁trade	-7.19865
vz	-7.21686
▁watch	-7.22222
ly	-7.22263
▁we	-7.22553
▁get	-7.22677
3	-7.23134
pg	-7.23798
er	-7.23848
▁day	-7.24487
g	-7.25174
invest	-7.25252
▁price	-7.25421
▁de	-7.2544
▁via	-7.25605
celg	-7.25675
▁corp	-7.26362
4	-7.27085
ma	-7.27247
es	-7.27534
▁bought	-7.27809
▁has	-7.28891
2	-7.30686
’	-7.30973
share	-7.31077
hd	-7.31105
apple	-7.31347
▁why	-7.31378
▁5	-7.3177
▁your	-7.31959
tradeideas	-7.33343
▁amazon	-7.33978
wfc	-7.34431
▁updated	-7.34696
▁them	-7.34773
ibm	-7.35919
▁p	-7.3612
▁shares	-7.36998
▁all	-7.37378
▁trading	-7.37418
trading	-7.39643
gpro	-7.40568
▁last	-7.41026
▁high	-7.42072
▁next	-7.42639
▁what	-7.42999
gs	-7.43121
mrk	-7.43656
▁instead	-7.4617
▁oculus	-7.46743
▁read	-7.47324
▁options	-7.474
▁how	-7.47966
▁can	-7.49039
mu	-7.49244
mo	-7.49796
▁me	-7.49835
▁sell	-7.50514
▁company	-7.50822
▁week	-7.50897
▁no	-7.51148
▁short	-7.52388
▁big	-7.52429
yhoo	-7.52491
▁chart	-7.54226
re	-7.54804
amgn	-7.54887
▁just	-7.54942
▁not	-7.55972
lnkd	-7.56525
!!	-7.56722
z	-7.56926
w	-7.57934
▁10	-7.58144
ap	-7.58282
▁s	-7.58587
▁4	-7.58886
u	-7.58928
ebay	-7.58988
▁free	-7.59418
dia	-7.59572
in	-7.59732
▁us	-7.59893
▁about	-7.62238
▁its	-7.62354
▁time	-7.6283
▁but	-7.63609
▁an	-7.63829
▁after	-7.64326
abbv	-7.67304
▁do	-7.68424
▁am	-7.68484
▁gain	-7.68852
▁share	-7.6893
▁click	-7.69015
▁great	-7.69029
stockaction	-7.69895
uso	-7.71229
▁en	-7.7128
▁analyst	-7.72014
▁down	-7.72732
5	-7.72771
gild	-7.72781
▁research	-7.73158
▁pick	-7.73259
options	-7.7326
▁q	-7.73883
▁was	-7.74043
▁one	-7.75166
nke	-7.7565
▁year	-7.76221
unh	-7.76965
▁long	-7.77049
mmm	-7.77112
bidu	-7.77819
▁so	-7.78116
nyse	-7.78736
▁if	-7.78858
▁6	-7.79335
▁iphone	-7.79827
▁tech	-7.80421
▁check	-7.80643
gld	-7.80652
j	-7.81249
▁make	-7.81434
▁could	-7.81521
▁video	-7.81604
iwm	-7.81632
▁bank	-7.81894
▁looking	-7.81939
▁low	-7.83524
▁microsoft	-7.83826
st	-7.84425
▁re	-7.84699
▁billion	-7.85626
▁sales	-7.85784
q	-7.8581
0	-7.86625
cmcsa	-7.86923
on	-7.87466
▁daily	-7.87712
orcl	-7.87873
▁alert	-7.89403
▁update	-7.89986
▁than	-7.90281
▁trending	-7.92238
▁dividend	-7.92269
th	-7.92922
▁these	-7.93005
al	-7.93024
▁c	-7.93046
utx	-7.93135
▁pm	-7.93625
▁board	-7.93929
bp	-7.94327
ll	-7.95176
▁view	-7.95414
spx	-7.95633
pep	-7.95777
6	-7.95921
▁some	-7.96176
▁rocky	-7.9671
▁group	-7.97065
▁dow	-7.97244
▁open	-7.97461
▁money	-7.98657
▁into	-7.98855
us	-7.98933
▁trend	-8.00393
lt	-8.01245
▁good	-8.01851
▁off	-8.02509
gm	-8.02891
▁w	-8.0302
▁picks	-8.03296
▁call	-8.03419
sbux	-8.03769
▁want	-8.04003
▁find	-8.04154
▁says	-8.04475
▁target	-8.04589
▁alerts	-8.05169
▁$8	-8.05607
▁look	-8.05711
▁go	-8.05945
so	-8.06472
▁report	-8.07116
▁e	-8.07697
te	-8.07712
▁y	-8.078
▁best	-8.07926
▁most	-8.0827
▁latest	-8.0945
▁hold	-8.09822
▁still	-8.10762
▁h	-8.10784
▁also	-8.11693
▁la	-8.11865
▁el	-8.12407
▁back	-8.1253
groupon	-8.12691
wk	-8.12834
▁going	-8.12976
▁volume	-8.13033
▁cap	-8.13192
7	-8.13538
▁don	-8.13842
▁join	-8.15042
axp	-8.15094
▁ceo	-8.15099
▁'	-8.15205
▁2014	-8.15212
▁~	-8.15712
pm	-8.16063
▁groupon	-8.1715
]	-8.17166
▁change	-8.17625
slb	-8.1886
▁se	-8.19472
▁alibaba	-8.19631
an	-8.19665
▁vs	-8.19954
▁try	-8.20281
ngcg	-8.20954
▁may	-8.20987
▁penny	-8.21038
▁deal	-8.21284
▁+	-8.21833
100	-8.22022
داو	-8.22201
▁option	-8.22253
▁must	-8.22332
▁“	-8.22476
de	-8.22491
▁info	-8.23267
▁close	-8.23294
▁data	-8.23339
▁they	-8.2346
▁since	-8.23472
▁calls	-8.23556
9	-8.23719
▁2016	-8.2393
▁52	-8.24118
▁their	-8.24167
▁china	-8.24322
+	-8.24482
fcx	-8.24661
▁[	-8.24684
▁live	-8.2472
aa	-8.25
xlf	-8.25135
en	-8.25169
▁|	-8.25249
▁first	-8.26007
ال	-8.26228
▁growth	-8.27397
▁got	-8.27465
8	-8.27574
▁ideas	-8.27731
▁bid	-8.27767
▁bullish	-8.28356
ms	-8.2847
▁take	-8.28566
▁x	-8.28639
▁america	-8.28906
▁para	-8.29518
se	-8.2976
do	-8.30042
▁rating	-8.30178
▁investors	-8.30585
money	-8.31179
▁ask	-8.32471
▁message	-8.32553
vxx	-8.32605
research	-8.32754
cl	-8.33312
cmg	-8.33373
▁morning	-8.33442
▁weekly	-8.33483
▁9	-8.33561
15	-8.34253
rt	-8.34475
▁f	-8.34692
spotthexph	-8.34862
▁monday	-8.35128
▁8	-8.35321
lmt	-8.35762
▁analysis	-8.35951
▁coming	-8.36873
ن	-8.37205
▁buying	-8.37267
▁oil	-8.37388
▁fund	-8.38005
abx	-8.3803
rig	-8.38155
▁gains	-8.38481
▁would	-8.38699
un	-8.39164
ci	-8.39262
▁worth	-8.39862
dd	-8.40145
ل	-8.40265
▁when	-8.40715
ve	-8.40993
tgt	-8.41019
▁million	-8.41042
▁investor	-8.41279
▁intel	-8.41689
%	-8.41829
▁very	-8.42696
▁hei	-8.42852
▁b	-8.43152
daytrading	-8.43285
ا	-8.43484
up	-8.43594
▁energy	-8.43752
sdrl	-8.4382
▁mobile	-8.43936
▁selling	-8.44
”	-8.4453
▁ahead	-8.44574
it	-8.4459
▁early	-8.44652
▁huge	-8.44696
tza	-8.45682
▁markets	-8.45714
▁think	-8.45746
▁–	-8.46012
xle	-8.46079
▁twitter	-8.4678
▁value	-8.46836
▁500	-8.46858
▁weeks	-8.46931
pennystock	-8.4702
▁large	-8.47045
▁/	-8.47885
le	-8.47993
▁companies	-8.48169
▁reports	-8.48341
▁size	-8.48781
▁r	-8.48862
sh	-8.49714
▁revenue	-8.49884
▁list	-8.49929
ibb	-8.49937
▁give	-8.49993
▁que	-8.50017
top	-8.50036
▁friday	-8.5008
▁need	-8.50138
iaci	-8.5029
slv	-8.50933
oil	-8.51422
▁del	-8.51512
▁htt	-8.5157
▁profit	-8.51677
▁ltd	-8.5189
qcom	-8.51968
ups	-8.52142
▁strong	-8.52148
▁o	-8.52169
ers	-8.52557
ea	-8.52666
(	-8.52905
▁pay	-8.53349
▁app	-8.53392
▁right	-8.53508
▁higher	-8.53716
ri	-8.5405
cop	-8.54576
no	-8.54587
▁ishares	-8.54923
management	-8.55053
▁johnson	-8.55096
▁quarter	-8.55184
▁set	-8.5523
gd	-8.55398
ar	-8.55542
▁review	-8.56014
▁world	-8.56015
▁been	-8.56043
▁start	-8.56274
▁opinions	-8.56549
mart	-8.56949
▁•	-8.56996
biib	-8.56998
feye	-8.57026
▁months	-8.57186
▁sector	-8.57317
▁cisco	-8.57425
▁corporation	-8.57485
the	-8.57905
hon	-8.57956
▁play	-8.58228
▁only	-8.58427
tech	-8.58492
▁did	-8.58523
ne	-8.58608
mdt	-8.58968
am	-8.5933
ng	-8.59988
▁way	-8.60118
▁technical	-8.60384
▁thursday	-8.60461
bbry	-8.61137
▁algos	-8.6114
▁who	-8.61359
▁tweet	-8.61434
▁business	-8.61603
ra	-8.61751
▁un	-8.61933
▁cash	-8.62487
500	-8.62552
▁ex	-8.62669
▁highway	-8.62998
ت	-8.63744
▁street	-8.63981
ua	-8.64004
▁win	-8.64155
▁disney	-8.6466
siri	-8.64898
at	-8.64977
▁pre	-8.65247
▁m	-8.65269
▁holding	-8.65422
▁analyze	-8.65819
▁might	-8.65887
fxi	-8.65934
▁active	-8.66074
▁sigma	-8.6615
usd	-8.66235
▁follow	-8.66446
▁winners	-8.66598
or	-8.66979
▁etf	-8.67006
▁per	-8.6701
▁much	-8.67245
▁rate	-8.67268
▁ht	-8.67307
▁crossfinder	-8.67399
▁watchlist	-8.67586
▁potential	-8.6776
tlt	-8.67912
gdx	-8.68048
▁please	-8.68128
▁wal	-8.68249
video	-8.6839
▁wall	-8.68639
ta	-8.68651
▁financials	-8.6867
▁spdr	-8.68849
ش	-8.69023
▁subscribe	-8.69107
china	-8.69169
▁home	-8.69388
▁14	-8.69558
▁100	-8.69604
ung	-8.6999
;&	-8.70499
ul	-8.70599
gg	-8.706
▁movers	-8.70614
▁n	-8.70686
▁tuesday	-8.70875
▁j	-8.71052
▁know	-8.7118
exc	-8.71279
▁current	-8.71558
▁february	-8.71808
day	-8.72097
▁pro	-8.72273
tweets	-8.72375
▁hit	-8.7257
▁investing	-8.72621
▁there	-8.72659
▁days	-8.72711
▁love	-8.72843
),	-8.73058
▁real	-8.73088
▁trades	-8.73511
el	-8.73615
30	-8.73662
▁keep	-8.73867
▁con	-8.73971
ticker	-8.74132
bhp	-8.74687
▁portfolio	-8.74702
news	-8.74796
▁general	-8.74816
▁full	-8.74886
▁yield	-8.75004
▁12	-8.7503
▁lx	-8.75041
▁recent	-8.75132
▁los	-8.75218
▁move	-8.75223
▁too	-8.75284
▁yesterday	-8.75636
ry	-8.75739
وب	-8.75832
▁he	-8.76103
▁other	-8.76124
▁pfizer	-8.76269
ic	-8.76316
facebook	-8.7661
▁investment	-8.77085
earnings	-8.77228
dow	-8.77594
20	-8.77697
na	-8.77778
▁20	-8.77907
hpq	-8.78014
▁again	-8.78039
hal	-8.78048
▁wednesday	-8.78205
▁11	-8.78326
ir	-8.78593
▁systems	-8.78641
trv	-8.789
lo	-8.78966
out	-8.79088
▁post	-8.7909
▁put	-8.79353
▁made	-8.79937
▁another	-8.80027
as	-8.80129
▁su	-8.80363
quant	-8.80427
▁service	-8.80582
term	-8.80677
co	-8.80694
▁use	-8.80706
▁electric	-8.80842
!!!	-8.80921
ex	-8.80962
markets	-8.81065
▁tomorrow	-8.8117
▁major	-8.81344
nvs	-8.81575
▁support	-8.81773
ro	-8.81816
▁years	-8.82022
▁=	-8.82119
▁positions	-8.82255
▁30	-8.82396
▁people	-8.82555
▁results	-8.82787
▁forum	-8.82788
▁under	-8.8281
google	-8.83022
▁technology	-8.831
dal	-8.8327
▁insider	-8.8349
▁gold	-8.84049
ca	-8.84277
ه	-8.84336
▁come	-8.84445
▁capital	-8.84979
aig	-8.85013
nt	-8.85147
10	-8.85172
tm	-8.8565
is	-8.86394
bud	-8.86856
dust	-8.87032
sp	-8.87036
▁date	-8.87142
▁help	-8.87213
▁position	-8.87265
▁performance	-8.87431
▁fa	-8.87493
▁watching	-8.87578
▁ipo	-8.87927
▁citigroup	-8.8807
▁assets	-8.88327
▁mcdonald	-8.88538
14	-8.88865
▁story	-8.89201
mkt	-8.89355
▁index	-8.89355
=	-8.89542
50	-8.89594
▁details	-8.89754
▁nice	-8.89818
):	-8.89849
▁before	-8.89946
▁sa	-8.90205
▁)	-8.9022
id	-8.90408
▁breaking	-8.90442
market	-8.90463
16	-8.90839
▁small	-8.90987
▁january	-8.91002
▁g	-8.91035
▁chase	-8.91241
▁eps	-8.91265
▁pt	-8.91685
gmcr	-8.91706
eem	-8.91757
*	-8.91845
ch	-8.92191
▁jpmorgan	-8.92335
جو	-8.92379
▁sold	-8.92411
myec	-8.9247
▁proshares	-8.92609
▁traders	-8.9276
▁bad	-8.92955
nem	-8.93193
▁morgan	-8.93537
▁show	-8.93579
ty	-8.93626
▁making	-8.9378
▁social	-8.9385
brk	-8.9396
0.	-8.94115
ver	-8.94275
▁hot	-8.94376
▁average	-8.94475
chtr	-8.94501
amd	-8.94751
sny	-8.94835
▁updates	-8.94959
▁exxon	-8.94965
sentiquant	-8.95184
▁bull	-8.95243
..."	-8.95337
fnma	-8.95441
#	-8.95453
▁had	-8.95499
▁15	-8.95613
▁well	-8.95668
ting	-8.95855
emc	-8.95865
▁plc	-8.95894
time	-8.95895
▁trust	-8.95913
ter	-8.95921
▁ma	-8.96088
▁looks	-8.96467
▁trigger	-8.96618
ion	-8.96631
ie	-8.96873
نز	-8.96963
be	-8.97375
13	-8.97566
limit	-8.97579
▁better	-8.97593
▁analysts	-8.97701
▁*	-8.97786
▁track	-8.97805
▁march	-8.97864
▁visit	-8.98073
▁mo	-8.98154
ation	-8.98253
able	-8.98619
▁($	-8.98894
▁da	-8.98964
os	-8.99281
fslr	-8.99318
▁select	-8.99559
▁past	-8.99579
▁est	-8.99802
▁ge	-8.99888
▁le	-8.99919
chl	-9.00028
▁millones	-9.00045
▁above	-9.00045
▁featured	-9.00393
djia	-9.00398
▁own	-9.00437
▁highs	-9.00532
nd	-9.00832
▁car	-9.01097
aep	-9.01141
amba	-9.01216
▁game	-9.01335
cap	-9.01448
▁coca	-9.01578
▁fed	-9.01762
▁october	-9.01804
€	-9.01861
kmi	-9.02023
▁getting	-9.02147
il	-9.0231
▁filings	-9.02322
li	-9.02573
ce	-9.02913
si	-9.03091
swks	-9.03141
▁banks	-9.03258
▁global	-9.03582
▁record	-9.03595
▁ad	-9.03801
act	-9.03938
▁hft	-9.03947
bmy	-9.03964
ment	-9.0398
chk	-9.04141
▁stores	-9.04351
▁saw	-9.04444
▁%	-9.04451
tbt	-9.04502
2,	-9.04622
▁april	-9.04635
▁his	-9.04869
▁puts	-9.04996
cost	-9.05012
▁stake	-9.05157
vrx	-9.05477
▁verizon	-9.0558
▁tv	-9.05731
▁tim	-9.05766
dy	-9.06492
▁posts	-9.06846
▁v	-9.06881
2.	-9.0714
crm	-9.07291
▁prices	-9.0731
duk	-9.07321
1%	-9.07808
▁breakout	-9.07975
▁lower	-9.07988
all	-9.08068
▁exchange	-9.08084
▁considering	-9.08141
fe	-9.08369
ur	-9.08453
▁holdings	-9.08487
▁which	-9.08527
da	-9.08636
▁li	-9.08726
aal	-9.0874
yelp	-9.08897
▁..	-9.08905
▁credit	-9.08993
▁charts	-9.09642
gain	-9.09673
▁beats	-9.09721
slw	-9.09739
▁todays	-9.09937
▁users	-9.09955
exceeded	-9.09991
▁far	-9.10071
▁really	-9.10383
▁mobil	-9.10829
uwti	-9.1084
clf	-9.10864
▁bearish	-9.10869
▁ipad	-9.10938
19	-9.10985
div	-9.11155
▁ready	-9.11277
ni	-9.11363
▁millardos	-9.11933
ctix	-9.11934
▁boeing	-9.12011
mon	-9.12072
sco	-9.12164
microsoft	-9.12233
▁soon	-9.12366
£	-9.12495
teambillionaire	-9.12495
▁biggest	-9.12599
tna	-9.12639
trade	-9.12791
azn	-9.12832
received	-9.12854
▁media	-9.12945
go	-9.13078
la	-9.13568
buy	-9.13696
lly	-9.13703
5%	-9.13715
regn	-9.1377
wealth	-9.13916
economy	-9.1399
▁ratio	-9.14186
overvalued	-9.14202
▁internet	-9.14269
▁let	-9.14275
▁things	-9.14458
▁add	-9.14644
▁chevron	-9.14677
cola	-9.14777
wallstreet	-9.15067
ewj	-9.15086
▁sign	-9.15267
ti	-9.15319
uvxy	-9.15357
▁parse	-9.15364
▁rise	-9.15376
▁subscribers	-9.15503
▁month	-9.15528
▁br	-9.15774
▁end	-9.15844
bk	-9.15908
▁less	-9.1605
xlu	-9.16067
▁summary	-9.16231
ط	-9.16819
▁gas	-9.16997
▁action	-9.17152
luv	-9.17179
▁ago	-9.17208
im	-9.17335
▁near	-9.17351
▁ca	-9.1736
▁por	-9.1772
▁launch	-9.17735
▁profits	-9.17859
mine	-9.17889
hft	-9.17992
▁direxion	-9.18004
▁two	-9.18126
man	-9.18196
equity	-9.18229
soundcloud	-9.18303
we	-9.18365
▁break	-9.18772
▁phone	-9.18806
▁50	-9.18812
study	-9.18848
▁bosocial	-9.18903
▁beat	-9.19112
▁visa	-9.19131
xiv	-9.19132
▁future	-9.19172
▁fargo	-9.19215
nee	-9.19291
▁key	-9.19322
▁even	-9.19549
ddd	-9.19618
▁said	-9.19831
▁united	-9.19938
▁retail	-9.1999
18	-9.20321
▁tick	-9.2033
fit	-9.20672
▁jobs	-9.20726
40	-9.20727
▁financial	-9.20996
▁where	-9.2113
nugt	-9.2122
▁bear	-9.2125
financial	-9.21349
▁trial	-9.2135
▁wells	-9.21442
xlv	-9.21501
agn	-9.21535
▁part	-9.21575
▁management	-9.21687
xlk	-9.21727
personal	-9.21998
rs	-9.22234
pe	-9.22309
▁extreme	-9.22578
▁boost	-9.22584
▁cloud	-9.22611
line	-9.22764
▁does	-9.22887
▁interest	-9.22892
ive	-9.22984
▁strategy	-9.23038
▁run	-9.23194
▁eod	-9.23205
▁announces	-9.23444
▁في	-9.23518
▁members	-9.23959
bby	-9.24045
nse	-9.24088
▁access	-9.2415
▁na	-9.24347
▁wow	-9.24833
mnkd	-9.24853
pcg	-9.24903
▁thinking	-9.24996
uup	-9.25127
▁suggest	-9.25157
é	-9.25222
▁plan	-9.25239
▁head	-9.25247
amazon	-9.25275
▁k	-9.25319
tion	-9.25411
▁bo	-9.25482
iphone	-9.25618
▁giants	-9.25877
mc	-9.26104
▁nasdaq	-9.26276
liquidity	-9.26397
نف	-9.26724
scty	-9.26726
▁android	-9.2673
▁mark	-9.26849
xi	-9.26915
60	-9.27173
@	-9.27285
me	-9.27438
▁op	-9.27456
avgo	-9.28082
▁any	-9.28087
hyg	-9.28097
▁tweets	-9.28163
et	-9.28327
jnk	-9.28413
▁caterpillar	-9.28479
11	-9.28528
▁music	-9.28842
rad	-9.28953
▁june	-9.29057
est	-9.29258
low	-9.29312
▁weekend	-9.29399
▁futures	-9.29527
▁while	-9.29626
▁sunday	-9.29692
▁answer	-9.29712
one	-9.29835
tvix	-9.29865
▁same	-9.30086
ión	-9.30112
▁patent	-9.30171
▁perform	-9.30309
▁power	-9.30446
▁awesome	-9.30485
▁quotes	-9.30523
00	-9.30683
▁biotech	-9.30696
ia	-9.30792
▁sentiment	-9.31044
▁risk	-9.31119
▁say	-9.31218
▁few	-9.31339
twx	-9.31428
▁‘	-9.31738
np	-9.31861
07	-9.31876
▁ba	-9.31881
singe	-9.31936
br	-9.32011
fl	-9.3205
car	-9.32085
▁were	-9.32143
ha	-9.32631
12	-9.32775
▁american	-9.32975
17	-9.33188
▁webinar	-9.33205
▁turn	-9.33256
ent	-9.33347
dinvestor	-9.33357
mnst	-9.33451
▁drug	-9.33651
▁cut	-9.33742
ppl	-9.33758
pbr	-9.33765
▁platinum	-9.33792
financialnews	-9.3381
▁many	-9.33897
▁changes	-9.34019
▁prev	-9.34022
▁100%	-9.34041
xly	-9.34085
xlb	-9.34112
wfm	-9.34152
acn	-9.34184
▁newsletter	-9.34305
futures	-9.34425
bn	-9.34491
▁samsung	-9.34673
sune	-9.347
ual	-9.34764
dji	-9.34793
▁rally	-9.34862
▁depot	-9.34885
▁walt	-9.35154
▁te	-9.35165
7%	-9.35306
▁expected	-9.35325
ql	-9.35532
nvda	-9.35557
▁cook	-9.35563
▁bp	-9.35605
▁green	-9.35607
isrg	-9.35964
ck	-9.36067
▁$200	-9.3611
expe	-9.36178
eurusd	-9.3627
▁work	-9.3633
▁team	-9.36375
txn	-9.36638
▁compra	-9.36657
ag	-9.36912
▁december	-9.36984
sso	-9.37018
06	-9.37091
▁release	-9.37219
nte	-9.37225
▁sin	-9.37243
xlp	-9.37273
apc	-9.37299
▁al	-9.37328
▁offer	-9.37341
▁trader	-9.37513
cy	-9.37687
▁drop	-9.37688
hi	-9.37878
ity	-9.3788
ant	-9.37956
ía	-9.38024
▁outlook	-9.38105
▁merck	-9.38369
▁stop	-9.38691
▁13	-9.39034
▁super	-9.3914
▁closed	-9.39155
▁listen	-9.39191
pro	-9.39194
son	-9.39358
gtat	-9.39447
▁filing	-9.39527
fi	-9.39555
▁jan	-9.39717
▁bell	-9.39738
▁19	-9.39783
▁class	-9.39888
wynn	-9.40302
gold	-9.4039
king	-9.40462
dhr	-9.40501
23	-9.40531
▁eye	-9.40553
▁:)	-9.4061
▁living	-9.40655
cvs	-9.40804
he	-9.40876
▁plans	-9.40912
▁sh	-9.40942
▁everyone	-9.41038
▁term	-9.41152
ies	-9.41258
▁already	-9.41405
▁$10	-9.41471
ft	-9.41524
80	-9.4172
▁store	-9.41764
jcp	-9.41786
▁level	-9.41807
▁focus	-9.41813
▁closing	-9.42541
▁every	-9.42588
▁case	-9.42597
gi	-9.42647
live	-9.42657
znga	-9.42923
goto	-9.43292
fin	-9.43351
▁ju	-9.43443
▁fall	-9.43443
▁total	-9.43491
▁ios	-9.43604
▁red	-9.43606
▁millionaires	-9.43642
um	-9.43679
▁chat	-9.43679
▁oversold	-9.43691
smh	-9.43731
and	-9.43756
house	-9.43756
▁ft	-9.43784
70	-9.43798
▁alphabet	-9.43983
▁bond	-9.4406
fv	-9.44073
▁celgene	-9.44077
▁acquire	-9.44092
▁tell	-9.44123
▁services	-9.44181
mat	-9.44248
▁won	-9.44352
21	-9.44462
▁25	-9.44691
▁expect	-9.44722
bo	-9.44946
90	-9.45001
;--	-9.45113
▁man	-9.45219
abt	-9.45289
▁health	-9.45363
rd	-9.45373
twitter	-9.45416
▁industry	-9.45636
bhi	-9.45637
▁strategies	-9.45646
▁lose	-9.45722
▁against	-9.45733
▁sells	-9.45748
▁di	-9.4586
▁sec	-9.45916
▁+0.	-9.45945
▁dollar	-9.46033
▁yet	-9.46083
mm	-9.46131
▁netflix	-9.46136
gdxj	-9.46201
ndx	-9.46203
24	-9.46249
▁remember	-9.46426
au	-9.46452
▁upside	-9.46486
sne	-9.46616
newsletter	-9.46637
▁hedge	-9.4673
mbly	-9.46851
25	-9.46906
▁levels	-9.47042
▁moving	-9.47562
▁releases	-9.4768
▁comment	-9.47733
big	-9.47735
33	-9.47846
▁estimates	-9.47946
▁highest	-9.48098
▁lo	-9.48198
URL	-9.48297
▁ultra	-9.48424
▁maduro	-9.48425
sft	-9.48447
▁venezuela	-9.48576
▁rio	-9.48672
▁saturday	-9.487
aria	-9.48731
▁mu	-9.48766
▁buzz	-9.48832
mi	-9.48844
45	-9.48903
48	-9.48953
for	-9.48983
tsm	-9.48989
▁seeking	-9.49001
end	-9.4921
▁percent	-9.49235
fdx	-9.49248
▁both	-9.49587
9%	-9.49628
nxpi	-9.49659
fx	-9.49745
▁pa	-9.49754
ugaz	-9.49809
ep	-9.4988
22	-9.49882
▁working	-9.49921
▁massive	-9.50056
▁st	-9.50175
▁return	-9.50207
lin	-9.50213
donde	-9.50223
btu	-9.50375
▁oracle	-9.50391
kr	-9.50396
ga	-9.50398
▁then	-9.50433
▁views	-9.50454
atvi	-9.50625
▁everything	-9.50717
ny	-9.50883
26	-9.50983
▁comcast	-9.50991
2015	-9.51225
▁special	-9.51298
va	-9.51443
ru	-9.51556
▁tachyon	-9.51711
hsbc	-9.51711
▁gets	-9.5174
▁room	-9.51822
▁broke	-9.51837
▁pe	-9.51916
09	-9.52063
▁nuevo	-9.52129
▁statement	-9.52137
▁drops	-9.52176
fr	-9.52274
▁her	-9.52477
▁yahoo	-9.52592
▁mayor	-9.52619
lvs	-9.52777
▁amgen	-9.5297
▁descendi	-9.52971
▁hope	-9.53001
xli	-9.53197
▁added	-9.53265
vix	-9.53381
▁whatsapp	-9.53471
▁line	-9.53477
▁fire	-9.53567
5.	-9.53738
▁learn	-9.53807
hedging	-9.53821
fintech	-9.53841
nokiax	-9.53867
▁fast	-9.53901
vlo	-9.53921
▁sale	-9.53941
▁ka	-9.543
3%	-9.54345
▁little	-9.54449
met	-9.54503
vti	-9.54621
▁names	-9.5463
▁ta	-9.54657
uco	-9.54719
▁below	-9.54837
▁cost	-9.5485
ibd	-9.54867
▁dr	-9.54891
▁makes	-9.54904
▁interesting	-9.55008
▁event	-9.55055
▁behind	-9.55108
sa	-9.55112
twc	-9.55152
47	-9.55208
cr	-9.55331
27	-9.55364
ip	-9.55506
28	-9.55597
po	-9.55916
ate	-9.56029
03	-9.56369
▁190	-9.56376
▁abbvie	-9.56416
▁doesn	-9.56451
▁signal	-9.5652
▁zuckerberg	-9.56851
▁relative	-9.56851
iy	-9.57215
▁av	-9.57287
mdlz	-9.57734
▁international	-9.57734
▁second	-9.57734
etn	-9.57756
ad	-9.57776
."	-9.57858
off	-9.57867
bx	-9.57963
▁online	-9.57992
▁gamble	-9.58179
▁medicamentos	-9.58179
brcm	-9.58187
▁ytd	-9.58193
▁become	-9.58203
▁around	-9.58254
,000	-9.58255
▁plus	-9.583
pl	-9.58362
▁16	-9.58377
fa	-9.58422
▁sure	-9.58443
▁point	-9.58554
tot	-9.58612
sds	-9.58635
thc	-9.58799
ado	-9.59017
▁national	-9.59075
▁recap	-9.59169
▁through	-9.59207
llo	-9.59269
▁reported	-9.59523
▁embraer	-9.59524
▁technologies	-9.59524
dvn	-9.59549
▁wants	-9.59786
tqqq	-9.59877
ful	-9.59882
ish	-9.60092
rio	-9.60271
▁cheap	-9.60307
▁niños	-9.60431
▁windows	-9.60543
▁war	-9.60702
▁bet	-9.60797
▁life	-9.60808
29	-9.60846
rds	-9.6085
▁cáncer	-9.60888
smn	-9.60983
fed	-9.61088
ó	-9.61233
usb	-9.61246
▁ever	-9.61394
▁wedge	-9.61444
▁others	-9.61632
per	-9.61661
▁account	-9.61705
▁bounce	-9.61807
99	-9.61812
ste	-9.61879
▁reiterated	-9.61947
▁smartphone	-9.62027
▁air	-9.621
▁resistance	-9.62271
م	-9.62394
▁du	-9.62516
68	-9.6262
su	-9.62741
lulu	-9.62748
ewz	-9.62775
▁communications	-9.62859
▁24	-9.62983
6.	-9.63007
▁ya	-9.63189
▁goldman	-9.63226
down	-9.63309
▁nearly	-9.6332
min	-9.6361
▁iphones	-9.63656
ح	-9.63672
▁july	-9.63761
less	-9.63801
ice	-9.63875
nq	-9.63879
tmus	-9.63884
▁system	-9.63932
bb	-9.63972
▁needs	-9.64072
▁given	-9.6409
^	-9.64141
í	-9.64141
year	-9.64142
hemp	-9.6429
▁proct	-9.64299
via	-9.64306
mex	-9.64403
▁blog	-9.6459
و	-9.64783
new	-9.64844
).	-9.64996
▁guaire	-9.65094
almost	-9.65096
ecig	-9.6516
ol	-9.65304
▁raised	-9.65341
▁notes	-9.65392
▁positive	-9.65574
▁taking	-9.65582
trip	-9.65589
▁seen	-9.65842
tasr	-9.6606
biotech	-9.66083
rai	-9.66119
di	-9.66138
▁income	-9.66148
fxe	-9.66206
▁net	-9.66252
ance	-9.66461
panw	-9.66587
5.00	-9.66713
▁consumer	-9.6672
age	-9.66783
dps	-9.66789
▁ro	-9.66817
▁september	-9.67021
89	-9.67061
▁push	-9.67088
bethe	-9.67286
ibio	-9.6737
46	-9.67378
▁public	-9.67509
▁important	-9.67511
mobile	-9.67581
▁gap	-9.67658
of	-9.67664
plug	-9.68081
love	-9.68133
▁shows	-9.68185
ec	-9.68198
▁mi	-9.68206
▁mar	-9.68207
▁thanks	-9.68234
▁page	-9.68269
hanging	-9.68447
hold	-9.68635
▁hi	-9.68669
700	-9.68792
rtn	-9.68979
▁easy	-9.68988
▁left	-9.69007
▁tax	-9.69318
estan	-9.69335
▁finally	-9.69526
ho	-9.69592
▁tickers	-9.69707
pay	-9.69824
vo	-9.69898
▁bottom	-9.69985
36	-9.70006
85	-9.70025
▁sp	-9.70202
▁despi	-9.70531
-$	-9.70749
▁upgraded	-9.70776
:11	-9.70805
▁europe	-9.70874
using	-9.70986
▁half	-9.71005
▁test	-9.71043
app	-9.71047
com	-9.71137
▁$100	-9.71307
str	-9.71355
▁cent	-9.71421
▁undervalued	-9.715
▁-1	-9.7156
spxl	-9.71613
▁miners	-9.71721
emr	-9.71798
▁po	-9.71815
▁those	-9.72011
csiq	-9.72015
hov	-9.72345
42	-9.72392
ph	-9.72412
▁stay	-9.72561
▁range	-9.72604
▁18	-9.72642
▁form	-9.72709
▁invest	-9.72761
yum	-9.72765
▁lead	-9.72786
by	-9.72857
if	-9.73023
▁something	-9.73039
▁foll	-9.73039
▁double	-9.73045
▁network	-9.73104
▁away	-9.73235
tpac	-9.73272
▁hard	-9.73292
▁thing	-9.73348
▁talk	-9.73404
con	-9.73474
:00	-9.73512
xl	-9.73551
corporate	-9.73554
sqqq	-9.73586
nyx	-9.73629
37	-9.73697
premarket	-9.7384
▁receive	-9.73859
08	-9.73894
ten	-9.73986
df	-9.73987
▁dis	-9.73994
▁2013	-9.74111
nov	-9.74117
▁minutes	-9.74162
nok	-9.74186
▁lost	-9.74278
pharma	-9.74385
▁انتحاري	-9.74601
sentishift	-9.74601
▁pretty	-9.74601
rg	-9.74624
▁jones	-9.74676
▁im	-9.74712
db	-9.74724
01	-9.74747
▁reporting	-9.74827
▁barclays	-9.7483
▁search	-9.7485
▁starting	-9.74872
▁acquisition	-9.74907
▁hours	-9.74949
rax	-9.74958
ief	-9.74962
ada	-9.75006
▁november	-9.75127
▁explica	-9.75128
▁never	-9.75146
now	-9.75205
▁reason	-9.75221
▁21	-9.75335
▁—	-9.75372
oxy	-9.75598
ian	-9.75791
jblu	-9.75867
▁products	-9.75982
0.01	-9.76144
▁hits	-9.76166
tra	-9.76171
mpieza	-9.76188
tr	-9.76193
glw	-9.76231
▁breakt	-9.76243
key	-9.76263
38	-9.76301
▁launches	-9.76315
rr	-9.76362
▁project	-9.76403
rn	-9.76539
jd	-9.76606
0.02	-9.76617
▁likely	-9.76648
️	-9.76722
hznp	-9.76723
▁august	-9.76723
ns	-9.76756
▁block	-9.76922
erx	-9.77017
▁comp	-9.77226
▁true	-9.77247
▁resources	-9.77261
▁deberia	-9.77262
▁continues	-9.77328
cybr	-9.77332
▁jump	-9.774
000	-9.77605
ig	-9.77704
▁si	-9.77775
ý	-9.77801
مستشا	-9.77801
▁avoid	-9.77801
wba	-9.77805
▁momentum	-9.77805
▁//	-9.77858
shak	-9.77969
▁lol	-9.78099
▁build	-9.78104
pr	-9.78144
dtv	-9.7817
???	-9.78219
▁pop	-9.78261
▁hav	-9.78397
75	-9.7853
adx	-9.78587
xbi	-9.7859
▁ha	-9.78597
▁split	-9.7866
port	-9.78678
rsp	-9.78706
▁office	-9.78741
▁apps	-9.78787
len	-9.78895
رك	-9.78945
ah	-9.79352
update	-9.79388
▁-0.	-9.79412
▁beverage	-9.7944
▁opportunity	-9.79551
▁wait	-9.7977
▁mastercard	-9.79815
io	-9.79842
55	-9.7985
dxj	-9.79881
▁happy	-9.79892
mp	-9.79913
▁court	-9.79994
ew	-9.8007
▁product	-9.80161
nk	-9.80182
wu	-9.80208
▁outperform	-9.80367
المالي	-9.80548
sndk	-9.80553
▁idea	-9.80579
59	-9.80625
▁+1	-9.80752
alk	-9.80798
▁cu	-9.80947
▁200	-9.81091
▁ownership	-9.81108
bio	-9.81155
▁yes	-9.8118
▁bar	-9.81421
▁$500	-9.81432
dg	-9.8158
mor	-9.81676
nat	-9.81817
▁merger	-9.81825
▁cuts	-9.81856
bid	-9.81928
aol	-9.81976
mg	-9.81985
gsk	-9.82022
31	-9.82068
pa	-9.82113
lu	-9.82208
1:	-9.8223
▁conference	-9.82234
wtw	-9.82283
free	-9.82333
▁such	-9.82339
▁black	-9.82512
65	-9.82601
▁lot	-9.82776
▁she	-9.82839
▁once	-9.82929
stx	-9.82983
pch	-9.83012
ashr	-9.8316
vale	-9.83173
▁17	-9.8322
▁mean	-9.83234
88	-9.83235
cb	-9.83291
▁decline	-9.83381
▁wins	-9.8341
next	-9.83467
poil	-9.83494
abb	-9.83627
rsx	-9.83646
mar	-9.83753
lb	-9.84057
chart	-9.84115
iwatch	-9.84118
▁amazing	-9.84139
▁numbers	-9.84251
▁ra	-9.84262
▁hour	-9.84302
▁doing	-9.8432
43	-9.8435
ff	-9.84384
blue	-9.84454
▁because	-9.84526
▁cancer	-9.84569
wmih	-9.84576
follow	-9.84651
▁guy	-9.84723
air	-9.84949
▁miss	-9.84972
nolo	-9.85081
ana	-9.85215
▁times	-9.8525
▁es	-9.85309
▁0.	-9.85326
nu	-9.85357
▁smart	-9.85401
▁chinese	-9.85423
▁ch	-9.85742
-1	-9.85828
bbl	-9.85851
▁increases	-9.85927
▁being	-9.86006
ev	-9.86101
▁tesla	-9.86241
tropa	-9.86282
abc	-9.86311
▁jim	-9.86316
▁auto	-9.86351
44	-9.865
.1	-9.86503
▁300	-9.86523
▁schlumberger	-9.86538
▁based	-9.8658
pi	-9.86586
▁goes	-9.86716
▁mac	-9.86759
jnug	-9.86872
▁popular	-9.86872
adbe	-9.8693
57	-9.86959
▁cable	-9.86991
trader	-9.87056
▁shareholders	-9.87084
▁finds	-9.87194
39	-9.87266
▁opening	-9.87277
79	-9.87351
▁عملي	-9.87468
▁secret	-9.87468
\	-9.87469
▁interview	-9.87469
ray	-9.87587
unp	-9.87657
eg	-9.87672
get	-9.87713
▁buys	-9.8776
▁ال	-9.87851
ine	-9.88
▁during	-9.88067
▁pharmaceuticals	-9.88077
▁ads	-9.88241
▁quote	-9.88386
cvc	-9.88515
▁2.	-9.88658
▁available	-9.88669
▁crazy	-9.88669
▁cramer	-9.88669
ner	-9.88917
energy	-9.88946
cag	-9.89011
▁26	-9.89018
res	-9.89088
▁whats	-9.89167
ial	-9.89186
ward	-9.8924
ber	-9.89252
▁among	-9.89277
▁care	-9.89287
▁email	-9.89291
05	-9.89327
took	-9.89368
ach	-9.8958
rl	-9.89607
ja	-9.89671
▁newsxom	-9.89699
▁lockheed	-9.89753
box	-9.8982
▁couple	-9.89885
▁aug	-9.89907
▁enter	-9.90034
lta	-9.90133
bev	-9.90353
forex	-9.90414
▁partners	-9.90419
▁1,	-9.90455
▁seeing	-9.90516
▁0.10	-9.90553
▁vix	-9.90587
wm	-9.90699
▁500%	-9.90724
▁th	-9.90914
itb	-9.90943
▁song	-9.90965
efa	-9.90997
▁reasons	-9.91005
52-	-9.91019
/2	-9.91026
▁60	-9.91097
▁note	-9.91098
}	-9.91115
▁pattern	-9.91115
▁philstockworld	-9.91115
▁upcoming	-9.91116
lea	-9.91155
foxa	-9.91226
97	-9.9141
lp	-9.91486
gequ	-9.915
▁old	-9.91505
▁10%	-9.91647
▁increase	-9.91652
▁fight	-9.9171
cc	-9.91726
▁ratings	-9.91737
▁entry	-9.91739
▁program	-9.9174
▁martin	-9.91744
▁breakfast	-9.91746
csx	-9.91901
ary	-9.92018
▁dreams	-9.92186
▁50%	-9.92206
▁......	-9.92259
ee	-9.92329
cecaf	-9.92362
▁$20	-9.92409
▁profitable	-9.92413
▁80	-9.92768
▁increased	-9.92824
▁upgrades	-9.92907
67	-9.92959
best	-9.9313
em	-9.9322
▁loss	-9.93396
▁security	-9.93442
eog	-9.93528
34	-9.93571
▁valuation	-9.93577
▁posted	-9.93609
ill	-9.9363
▁bigger	-9.9365
gra	-9.93674
▁bill	-9.93825
▁sur	-9.9388
▁$$$	-9.93974
|	-9.94016
▁save	-9.94016
▁returns	-9.94024
▁moves	-9.94033
▁weak	-9.94094
iyr	-9.94174
▁strength	-9.94207
lgnd	-9.94261
hc	-9.94284
▁five	-9.94335
gen	-9.94369
▁state	-9.94405
bib	-9.94442
rex	-9.94448
▁pharma	-9.94514
watch	-9.94516
▁micron	-9.94538
ton	-9.94573
▁pain	-9.9458
kors	-9.94684
bax	-9.94781
▁reach	-9.94849
▁icahn	-9.94902
otc	-9.94927
avxl	-9.94974
ة	-9.94984
dba	-9.95008
▁$12	-9.95115
▁raises	-9.95129
32	-9.95266
serv	-9.95348
tic	-9.95418
▁demand	-9.95432
xx	-9.95475
▁buyback	-9.95518
cf	-9.95709
der	-9.95717
▁channel	-9.9574
gl	-9.95827
▁2000	-9.96015
▁80...	-9.96042
hn	-9.96051
gr	-9.96167
▁impact	-9.96201
:10	-9.96316
ipo	-9.96425
▁due	-9.96433
bl	-9.965
vod	-9.96577
▁book	-9.96594
▁competition	-9.9685
▁twice	-9.96852
ym	-9.96875
alibaba	-9.96881
ence	-9.96885
mco	-9.96895
om	-9.96994
▁equity	-9.97014
gu	-9.9707
nc	-9.97107
▁waiting	-9.97134
eron	-9.9714
▁isn	-9.97157
cri	-9.97199
35	-9.97299
icn	-9.97422
▁beneficia	-9.97507
alxn	-9.97509
▁pull	-9.97524
▁limited	-9.97525
ign	-9.97616
▁exclusive	-9.97635
ub	-9.97704
▁signals	-9.97784
tf	-9.97898
za	-9.97931
▁fbi	-9.97997
ash	-9.98068
▁annual	-9.9817
▁preview	-9.98213
▁oct	-9.98256
vi	-9.98376
▁reviews	-9.98381
fast	-9.98463
amat	-9.98524
▁growing	-9.98737
sre	-9.98752
▁vi	-9.988
comp	-9.9881
land	-9.98817
crox	-9.98843
▁score	-9.98906
ood	-9.99045
▁sees	-9.99131
▁eu	-9.9922
▁star	-9.99328
den	-9.99381
ze	-9.99405
col	-9.99455
▁crude	-9.99508
▁chatroom	-9.9951
ai	-9.99533
ld	-9.99537
nuan	-9.99611
▁notable	-9.99653
▁believe	-9.9966
▁2,	-9.99672
▁va	-9.998
▁opinion	-9.99913
▁cboe	-9.9995
che	-10.001
mb	-10.0013
▁silver	-10.0013
▁correction	-10.0019
▁steve	-10.0023
skx	-10.0024
▁funds	-10.0043
juno	-10.0049
▁sent	-10.005
▁23	-10.0056
▁dennyt	-10.0086
▁spotted	-10.0086
▁movement	-10.0091
▁+2	-10.0108
bre	-10.0114
▁drive	-10.0123
pot	-10.0137
78	-10.014
77	-10.0157
87	-10.0163
▁medtronic	-10.0202
▁bring	-10.0203
dish	-10.0215
spxs	-10.022
٤	-10.0224
▁earlier	-10.0224
▁federal	-10.0224
▁sachs	-10.0225
ax	-10.0229
▁buffett	-10.0231
▁losing	-10.0241
▁min	-10.0241
▁ni	-10.0243
▁cool	-10.0262
ling	-10.0288
▁season	-10.029
▁multiple	-10.0293
▁2012	-10.0297
▁6,	-10.0309
cake	-10.0313
▁software	-10.0316
▁card	-10.0319
arna	-10.0319
cam	-10.0344
▁[$	-10.0354
path	-10.0355
▁leaders	-10.0358
▁consensus	-10.0363
▁worst	-10.0363
▁kill	-10.0366
profits	-10.037
back	-10.038
▁russia	-10.0393
▁expand	-10.041
53	-10.0412
▁seems	-10.0415
▁screen	-10.0417
txh	-10.042
á	-10.0424
ye	-10.0425
my	-10.0433
▁three	-10.0434
nn	-10.044
▁tonight	-10.0446
▁prime	-10.0448
japan	-10.0451
▁late	-10.0453
md	-10.0453
▁0	-10.0455
▁mil	-10.0458
cof	-10.0463
▁feb	-10.0466
▁hd	-10.0469
1,	-10.0476
▁interested	-10.0478
/14	-10.0486
gas	-10.0488
▁night	-10.049
02	-10.0491
bi	-10.0495
gn	-10.0499
angel	-10.0499
ey	-10.05
▁customers	-10.0506
psx	-10.0515
nna	-10.0516
▁continue	-10.0527
▁youtube	-10.0528
▁currently	-10.0532
▁fly	-10.054
ay	-10.0541
woo	-10.0551
▁fda	-10.0556
▁rated	-10.0557
net	-10.0568
▁asset	-10.0571
investor	-10.0571
hy	-10.0574
hum	-10.0576
▁medical	-10.0576
gis	-10.0578
▁solar	-10.058
▁20%	-10.0584
54	-10.0595
▁surprise	-10.0602
gaz	-10.0604
56	-10.063
▁purchase	-10.0642
ac	-10.0643
▁natural	-10.0648
▁stocktwits	-10.0648
▁single	-10.0648
▁hike	-10.065
blk	-10.0666
oih	-10.0667
▁mini	-10.0679
ron	-10.0686
69	-10.069
rk	-10.0692
84	-10.0697
▁fri	-10.0697
ewy	-10.0699
▁india	-10.0707
▁didn	-10.0711
▁industrial	-10.0716
dri	-10.0719
▁zacks	-10.072
▁altria	-10.072
▁alpha	-10.072
qui	-10.072
▁wonder	-10.0721
▁baby	-10.0722
▁photos	-10.0726
▁mid	-10.073
hr	-10.0731
▁filed	-10.0734
ster	-10.0747
intel	-10.0761
▁ea	-10.0763
tri	-10.077
▁esta	-10.0777
▁unitedhealth	-10.0781
aet	-10.0784
ssnlf	-10.0793
▁challenge	-10.0793
▁emerging	-10.0793
▁weakness	-10.0794
hack	-10.0796
ween	-10.0802
$]	-10.0805
▁advertising	-10.081
▁monthly	-10.0813
ssys	-10.082
▁tek	-10.0821
xrt	-10.0821
▁guys	-10.0839
76	-10.085
▁paid	-10.0864
vltc	-10.0867
▁max	-10.0869
▁28	-10.0871
▁flow	-10.0874
▁intl	-10.0877
2%	-10.0881
▁yo	-10.0885
93	-10.0892
▁playing	-10.0902
▁ki	-10.0915
▁information	-10.0917
▁david	-10.0926
▁forecast	-10.094
commerce	-10.0941
▁different	-10.0941
▁gilead	-10.0941
▁pepsico	-10.0941
well	-10.0949
upro	-10.0958
(4)	-10.0966
mer	-10.0971
zu	-10.0971
▁bhp	-10.0972
ffiv	-10.1016
pypl	-10.1016
erbb	-10.1028
▁compare	-10.1028
▁nyse	-10.1029
hlf	-10.103
fox	-10.1042
week	-10.1044
ery	-10.1046
mos	-10.1054
▁job	-10.1056
scan	-10.1056
▁novartis	-10.1059
cree	-10.1066
▁wed	-10.1067
~	-10.1078
ens	-10.1088
ier	-10.109
▁crash	-10.1091
rf	-10.1097
▁lows	-10.1106
prod	-10.1118
▁points	-10.1119
apa	-10.1135
rti	-10.1145
▁rest	-10.1147
ipad	-10.1149
cg	-10.1155
▁ag	-10.116
nw	-10.117
▁ph	-10.1171
49	-10.1172
cx	-10.1174
ot	-10.1184
▁downgraded	-10.1194
150	-10.1198
▁pr	-10.1198
altr	-10.1198
cnbc	-10.1212
51	-10.1213
▁grow	-10.1214
▁include	-10.1217
66	-10.1219
hes	-10.1225
wag	-10.1234
▁+1.	-10.1237
▁com	-10.1238
💰	-10.1242
▁velocityshares	-10.1243
svxy	-10.1243
▁triple	-10.1244
▁exit	-10.1254
▁cr	-10.1259
▁walmart	-10.1267
mac	-10.1297
ress	-10.1301
dividend	-10.1302
▁payments	-10.1313
ions	-10.1313
▁guru	-10.1321
ltd	-10.1322
ist	-10.1323
▁rule	-10.1326
jdst	-10.1328
▁$11	-10.1336
ard	-10.1337
▁mortgage	-10.1345
▁sl	-10.1352
▁ho	-10.1355
▁link	-10.1357
ure	-10.1361
ow	-10.1372
▁girl	-10.1373
tek	-10.1376
▁send	-10.1376
▁pass	-10.1387
ran	-10.1387
58	-10.1391
▁order	-10.1396
▁lawsuit	-10.1397
▁stanley	-10.1397
▁vectors	-10.1397
▁expectations	-10.1397
▁wsj	-10.1398
▁brand	-10.1398
▁unit	-10.1401
▁rev	-10.1407
rum	-10.1407
tur	-10.141
lng	-10.1411
▁streaming	-10.1419
▁mas	-10.142
ible	-10.1421
▁missed	-10.1424
eum	-10.1428
98	-10.1444
▁issues	-10.1445
▁economy	-10.1455
▁debt	-10.1462
▁dropped	-10.1476
▁agreement	-10.1476
ez	-10.1478
▁mon	-10.1481
▁san	-10.1486
yod	-10.1497
▁act	-10.1498
▁29	-10.1506
▁touch	-10.151
▁healthcare	-10.1513
sen	-10.1513
▁dip	-10.1516
▁ja	-10.1526
vrs	-10.1527
que	-10.1527
sgm	-10.1528
op	-10.1546
01,	-10.1547
▁chairman	-10.1554
▁snapshot	-10.1554
▁until	-10.1554
▁nothing	-10.1555
vic	-10.1558
▁neutral	-10.1561
lm	-10.1566
dwti	-10.1567
▁gu	-10.1578
clr	-10.1579
▁devices	-10.1584
4%	-10.1589
▁instagram	-10.16
ati	-10.1601
mx	-10.1605
▁citi	-10.1608
▁japan	-10.1614
▁revenues	-10.1623
lox	-10.1624
ks	-10.1625
tan	-10.1627
▁space	-10.1628
▁wrong	-10.1634
▁history	-10.1634
esrx	-10.1634
▁pennystock	-10.1636
▁partner	-10.1643
▁deals	-10.1644
▁contract	-10.165
tho	-10.165
▁ten	-10.1653
▁pc	-10.1662
▁pri	-10.1673
rcl	-10.1675
fy	-10.1675
▁young	-10.1678
ab	-10.1683
▁upgrade	-10.1683
portfolio	-10.1699
opk	-10.171
▁ways	-10.171
▁name	-10.1712
dhi	-10.1713
ω	-10.1714
▁organized	-10.1714
▁possible	-10.1714
ilmn	-10.1714
▁chaos	-10.1714
▁create	-10.1721
▁study	-10.1728
mtw	-10.1734
▁27	-10.1735
ka	-10.1739
▁z	-10.174
61	-10.1741
jo	-10.1743
▁building	-10.1749
2.5	-10.175
▁millionaire	-10.1751
irb	-10.1753
aem	-10.1757
▁ti	-10.1773
▁side	-10.178
▁falls	-10.1787
▁place	-10.1794
ziop	-10.1794
▁dump	-10.1796
▁member	-10.1796
hl	-10.1801
ewg	-10.1804
▁spin	-10.1805
▁fine	-10.1805
▁jacke	-10.1818
0,000	-10.1823
▁shit	-10.1831
bil	-10.1836
▁website	-10.1844
▁thoughts	-10.1864
tor	-10.1867
▁guidance	-10.1875
▁reaffirm	-10.1875
▁wireless	-10.1876
magine	-10.1876
▁multi	-10.1876
lr	-10.1889
▁bulls	-10.1891
▁employees	-10.1895
ky	-10.19
▁food	-10.1907
▁em	-10.1913
▁venture	-10.1917
are	-10.1917
52	-10.1926
▁jo	-10.1927
exel	-10.194
nrg	-10.1941
▁sub	-10.1953
zz	-10.1955
ulta	-10.1955
▁longer	-10.1956
∞	-10.1957
▁battle	-10.1957
▁danrocks	-10.1957
▁platform	-10.1957
▁--&	-10.1959
▁vetr	-10.1959
play	-10.1971
▁estimate	-10.1973
xrx	-10.1975
▁astrazeneca	-10.1985
▁digital	-10.2021
▁face	-10.2024
ftr	-10.2025
▁clear	-10.2033
▁executive	-10.204
☮	-10.204
▁simple	-10.204
▁non	-10.2051
wc	-10.2052
▁α	-10.2068
▁الأ	-10.2078
▁highlights	-10.2079
▁banking	-10.2079
▁et	-10.2093
ally	-10.2095
▁costs	-10.2097
▁nokia	-10.2114
dstudent	-10.2115
cbm	-10.2119
sentiment	-10.2122
💯	-10.2123
ॐ	-10.2123
0%	-10.2125
▁orders	-10.2127
spls	-10.213
yr	-10.2131
akam	-10.2135
▁swing	-10.2141
▁surge	-10.2143
hot	-10.2152
--	-10.2154
ick	-10.2162
▁os	-10.2163
▁dec	-10.2165
▁content	-10.2166
ات	-10.2172
ي	-10.2185
▁oh	-10.2198
▁mkt	-10.2201
▁john	-10.2207
seekingalpha	-10.2207
о	-10.2207
ض	-10.2207
▁production	-10.2212
▁roll	-10.2232
ite	-10.2241
lar	-10.2243
wa	-10.2246
▁downgrades	-10.2251
val	-10.2261
ical	-10.2275
arias	-10.2283
▁cover	-10.2284
▁course	-10.2292
nvax	-10.2293
▁local	-10.2293
coh	-10.2293
win	-10.2298
▁22	-10.2302
▁marketing	-10.2303
like	-10.2307
our	-10.2308
les	-10.2308
1.5	-10.2319
▁tablet	-10.2326
har	-10.2337
kite	-10.234
pain	-10.2344
2016	-10.2348
▁las	-10.2355
▁announce	-10.2356
▁(+	-10.2358
ight	-10.2367
▁lift	-10.2367
las	-10.2372
6%	-10.2374
▁securities	-10.2378
▁activity	-10.2378
▁dvd	-10.2378
▁critical	-10.238
▁sykes	-10.2383
drug	-10.2384
▁least	-10.2385
highway	-10.2386
300	-10.2387
▁mcdonalds	-10.2388
▁traded	-10.239
book	-10.2395
gme	-10.2396
vmw	-10.2397
▁holiday	-10.2407
▁mining	-10.2412
cbs	-10.2412
▁bu	-10.2422
iep	-10.2429
ج	-10.2429
ou	-10.2438
vsp	-10.2446
▁analyz	-10.2452
cel	-10.2453
▁buyout	-10.2457
▁ب	-10.2457
rw	-10.2463
▁always	-10.2464
▁across	-10.2464
95	-10.2465
soda	-10.247
▁trying	-10.2476
tal	-10.2481
▁within	-10.2483
hh	-10.2491
▁done	-10.2508
▁fuck	-10.251
:17	-10.2517
91	-10.2519
hong	-10.2521
long	-10.2522
kong	-10.2525
▁agree	-10.2528
0.00	-10.2541
myl	-10.2541
cu	-10.2542
▁box	-10.2543
cv	-10.2554
▁maybe	-10.2561
wl	-10.2563
▁dream	-10.2564
86	-10.2607
▁ا	-10.2613
data	-10.262
▁final	-10.2632
▁chief	-10.2639
▁cross	-10.264
/2014	-10.2646
▁uk	-10.2648
jan	-10.2652
▁told	-10.2657
!!!!	-10.2657
▁globally	-10.2664
▁webcast	-10.2668
▁etc	-10.2674
▁success	-10.2676
sti	-10.27
▁breaks	-10.2724
nikkei	-10.2727
jnpr	-10.2727
▁solid	-10.2727
urated	-10.2727
▁maturit	-10.2727
▁algorithms	-10.2728
grcu	-10.2728
▁sciences	-10.2729
ham	-10.2732
▁stream	-10.2735
▁firm	-10.2736
tw	-10.2743
$$$	-10.275
▁feel	-10.2757
fn	-10.2761
94	-10.2764
pnc	-10.2765
era	-10.2768
cal	-10.2768
ors	-10.2773
96	-10.2779
nx	-10.2799
ubs	-10.2812
▁40	-10.2816
▁original	-10.2816
64	-10.2817
▁warren	-10.2817
▁4,000%	-10.2819
fg	-10.2823
pf	-10.2823
has	-10.2826
▁apr	-10.2829
yy	-10.2831
uri	-10.2833
nbg	-10.2835
▁started	-10.2837
gogo	-10.2838
gps	-10.2838
▁vote	-10.2838
▁meeting	-10.284
▁spread	-10.2847
▁web	-10.2847
ear	-10.2849
part	-10.2857
pn	-10.2861
ness	-10.2871
▁die	-10.2872
gh	-10.289
▁nov	-10.2901
▁approval	-10.2906
▁congrats	-10.2906
nasty	-10.2907
bwp	-10.2907
▁combo	-10.2907
tap	-10.2907
▁probe	-10.2916
▁city	-10.2919
▁inter	-10.2925
▁bi	-10.2935
;3	-10.2937
appl	-10.2938
▁question	-10.2938
▁gen	-10.2942
▁dividends	-10.2944
▁surface	-10.2949
bms	-10.2962
adp	-10.2965
04	-10.2981
41	-10.2985
▁wrap	-10.2993
▁safe	-10.2997
dr	-10.2997
▁favorite	-10.2998
▁ultrashort	-10.2998
▁provide	-10.3006
pre	-10.3008
▁boom	-10.302
ous	-10.303
ftse	-10.3033
not	-10.3035
▁cnbc	-10.3035
ox	-10.3052
int	-10.3054
▁lots	-10.3064
cht	-10.3067
vr	-10.3075
▁hate	-10.3081
tso	-10.3083
gb	-10.3084
▁fl	-10.3089
▁issue	-10.3089
▁deutsche	-10.3089
▁pricing	-10.3089
dltr	-10.309
▁partnership	-10.3091
1.00	-10.3092
▁ga	-10.3092
hp	-10.3098
73	-10.3101
▁dead	-10.3106
▁dj	-10.3115
▁cat	-10.3124
▁intraday	-10.313
cisco	-10.3131
▁went	-10.3133
▁offering	-10.3151
pped	-10.3157
cad	-10.3159
4.00	-10.316
▁blue	-10.317
200	-10.3172
ع	-10.3181
▁reality	-10.3186
noc	-10.3186
vfc	-10.3187
▁losses	-10.3193
kmb	-10.3202
▁priceline	-10.3203
81	-10.3205
lx	-10.3213
ntap	-10.3217
▁fun	-10.3218
▁present	-10.3221
▁01	-10.3221
▁hire	-10.3221
▁db	-10.3222
▁meet	-10.3228
kin	-10.3228
admd	-10.3232
let	-10.3236
.6%	-10.3242
ated	-10.3251
beat	-10.3257
▁cyber	-10.3274
▁states	-10.3274
zo	-10.3275
▁anyone	-10.3278
8%	-10.3279
▁whole	-10.3288
cbis	-10.3289
dfs	-10.3296
▁rates	-10.3303
▁offers	-10.3309
▁discuss	-10.3314
▁control	-10.3315
agio	-10.3318
teva	-10.3335
cov	-10.334
spg	-10.335
▁adding	-10.3355
▁house	-10.3355
px	-10.3358
ica	-10.3361
how	-10.3367
50%	-10.3368
▁ne	-10.3369
مس	-10.3369
▁rising	-10.337
iz	-10.337
▁guide	-10.337
▁rollout	-10.3371
▁pi	-10.3373
▁self	-10.3378
alerts	-10.3391
bsx	-10.3391
mas	-10.3392
▁charter	-10.3393
oc	-10.3405
water	-10.3421
bit	-10.3424
▁fu	-10.3434
wen	-10.3438
▁ok	-10.345
▁revs	-10.3463
®	-10.3465
▁billiton	-10.3465
▁treasury	-10.3465
▁utilities	-10.3465
а	-10.3465
▁floor	-10.3465
▁chance	-10.3466
fighting	-10.3472
▁tips	-10.3473
ando	-10.3482
▁mill	-10.3486
▁edge	-10.3498
any	-10.3501
▁model	-10.3502
▁rock	-10.3511
▁inside	-10.3516
liq	-10.3517
bank	-10.3537
anf	-10.3545
دي	-10.3547
lock	-10.3549
ctl	-10.3551
▁usa	-10.3555
▁probably	-10.3561
▁trillion	-10.3561
vrtx	-10.3561
fizz	-10.3563
▁bofa	-10.3563
▁setting	-10.357
▁fi	-10.3575
▁tre	-10.3579
cml	-10.3584
tel	-10.3587
▁rules	-10.3588
▁problem	-10.3605
▁21,	-10.3606
side	-10.3609
—	-10.3613
▁jack	-10.3625
fo	-10.3625
ration	-10.3655
▁rumors	-10.3656
▁cc	-10.3657
▁including	-10.3658
▁perfect	-10.3658
н	-10.3658
▁giving	-10.3658
▁guess	-10.3658
▁settlement	-10.3659
▁enough	-10.3659
▁rich	-10.3659
▁shot	-10.3671
▁announcement	-10.3671
??	-10.3673
▁45	-10.368
▁ar	-10.3683
aud	-10.3684
nsc	-10.3695
▁leading	-10.3703
▁margin	-10.3704
▁ke	-10.3708
hit	-10.3708
3.5	-10.3712
ide	-10.3718
▁hop	-10.3724
2.50	-10.3741
▁bit	-10.3743
▁wars	-10.3744
▁number	-10.3747
▁bra	-10.3752
▁oi	-10.3756
à	-10.3756
ebola	-10.3756
▁wild	-10.3756
▁attend	-10.3757
▁pullback	-10.3757
▁shake	-10.376
72	-10.3761
▁des	-10.3769
▁llc	-10.377
▁winner	-10.3775
▁gone	-10.3779
2.00	-10.3787
▁feed	-10.3792
▁confirms	-10.38
fold	-10.3813
uc	-10.3823
▁tri	-10.3825
je	-10.3829
**	-10.3831
▁without	-10.3831
mro	-10.3833
lh	-10.3838
over	-10.3839
▁bio	-10.3846
▁bloomberg	-10.3855
▁deuda	-10.3855
usdjpy	-10.3855
▁york	-10.3856
▁msci	-10.3856
▁chain	-10.386
adm	-10.3861
▁round	-10.3864
▁iwatch	-10.3864
▁misses	-10.3867
pmcb	-10.3878
two	-10.3886
cnc	-10.3888
dog	-10.3898
startups	-10.3918
🔥	-10.3929
san	-10.393
▁08	-10.3936
ind	-10.3946
▁brands	-10.3949
drinks	-10.3951
▁horizon	-10.3955
rxmd	-10.3955
▁initial	-10.3955
bwld	-10.3955
▁slow	-10.3962
syn	-10.3963
▁14,	-10.3968
gx	-10.3974
▁semiconductor	-10.3981
tsl	-10.3983
▁honeywell	-10.3985
mw	-10.3992
han	-10.3997
▁tra	-10.4001
▁amid	-10.4001
▁talking	-10.4002
eat	-10.4009
hoo	-10.4012
spxu	-10.4012
▁cars	-10.4013
▁used	-10.4016
flo	-10.4021
[	-10.4024
▁drag	-10.4024
▁former	-10.4039
iv	-10.4041
▁03	-10.4048
mic	-10.4049
rgld	-10.4051
ptr	-10.4056
ava	-10.4056
▁government	-10.4056
gbpusd	-10.4056
▁third	-10.4056
▁exec	-10.4063
▁each	-10.4064
uk	-10.407
▁adds	-10.4082
body	-10.4084
▁released	-10.4089
oo	-10.4096
▁blackberry	-10.41
▁article	-10.411
▁user	-10.4127
▁saying	-10.4128
▁dan	-10.4139
ries	-10.414
wr	-10.4141
▁motors	-10.4155
ace	-10.4156
▁private	-10.4158
▁pump	-10.4159
gdp	-10.4162
▁pot	-10.4164
pnra	-10.4164
▁comes	-10.4169
ating	-10.418
ndo	-10.4181
ble	-10.4187
▁hu	-10.4198
afl	-10.4198
▁paying	-10.4215
ship	-10.4216
oke	-10.4218
wy	-10.4224
€$	-10.4238
▁28,	-10.4239
az	-10.4257
xhb	-10.4263
emini	-10.4303
▁videos	-10.4305
els	-10.4305
phm	-10.4327
▁30%	-10.4329
ue	-10.4336
cha	-10.4346
▁$16	-10.4346
5,	-10.435
joy	-10.435
vote	-10.4352
▁leads	-10.4356
ى	-10.4365
١	-10.4365
▁suisse	-10.4365
▁philip	-10.4366
▁warner	-10.4367
trtc	-10.4367
▁kick	-10.4378
▁2015040	-10.4378
:25	-10.4389
▁31	-10.4389
btc	-10.4394
ever	-10.4403
▁goal	-10.4404
▁mistakes	-10.4416
▁targets	-10.4451
▁russell	-10.4452
▁hack	-10.4455
▁rbc	-10.4458
▁four	-10.447
`	-10.447
٢٠	-10.4471
▁opportunities	-10.4471
▁therapeutics	-10.4471
▁morris	-10.4471
▁attack	-10.4471
▁arm	-10.4471
▁precio	-10.4472
halo	-10.4475
▁carl	-10.4478
wn	-10.4484
▁ve	-10.4486
▁imo	-10.4491
▁advanced	-10.4491
▁changed	-10.4492
رب	-10.4494
▁ev	-10.4494
wo	-10.4502
▁bubble	-10.4506
▁though	-10.4513
suti	-10.452
sil	-10.4531
ley	-10.4533
▁giant	-10.4535
▁moment	-10.454
24%	-10.4544
▁thank	-10.4553
nv	-10.4555
ę	-10.4577
▁currency	-10.4577
▁reduce	-10.4577
▁stories	-10.4577
▁discount	-10.4577
▁catch	-10.4583
▁invi	-10.4588
▁200%	-10.459
ino	-10.4591
▁19,	-10.4591
tu	-10.4598
▁deep	-10.4601
▁southern	-10.4605
▁volatility	-10.4631
fis	-10.4635
ept	-10.4638
▁dier	-10.4643
aks	-10.466
▁consider	-10.4661
▁را	-10.4663
aci	-10.4666
see	-10.4667
hcp	-10.4668
▁contracts	-10.467
alu	-10.4671
28%	-10.4676
work	-10.4678
.....	-10.4681
¥	-10.4684
ق	-10.4684
▁airlines	-10.4685
optionstrategies	-10.4685
▁dynamics	-10.4685
ix	-10.4687
bf	-10.4695
▁spending	-10.4701
▁materials	-10.4712
▁hay	-10.472
▁sites	-10.472
boom	-10.4727
tex	-10.4731
▁aim	-10.4736
▁cell	-10.4749
▁device	-10.4752
traders	-10.4754
lab	-10.4762
▁che	-10.4773
حقق	-10.4793
▁initiate	-10.4793
▁president	-10.4793
▁بع	-10.4794
▁rank	-10.4794
▁settle	-10.4794
▁من	-10.4795
▁delivery	-10.48
ju	-10.4804
ر	-10.482
star	-10.4822
▁👍	-10.4824
▁area	-10.483
▁vale	-10.4842
▁lu	-10.4847
▁chip	-10.4856
payx	-10.4864
20%	-10.4871
▁lowered	-10.4874
▁forward	-10.4878
usa	-10.4901
▁phones	-10.4902
и	-10.4903
▁fool	-10.4903
▁development	-10.4904
▁الم	-10.4905
bmrn	-10.4906
▁stand	-10.4909
ome	-10.4912
▁fell	-10.4913
blog	-10.4922
▁road	-10.4927
iot	-10.4928
▁gar	-10.4929
▁produce	-10.493
▁replace	-10.4937
just	-10.4937
▁2%	-10.4937
xon	-10.4947
▁anti	-10.496
.4%	-10.498
schw	-10.4989
108	-10.4991
vid	-10.4995
mbi	-10.4995
▁decrease	-10.5014
▁valuable	-10.5014
▁negative	-10.5014
▁transaction	-10.5014
dnkn	-10.5014
▁jeff	-10.5015
▁90	-10.5016
▁cfo	-10.502
▁vía	-10.5023
▁wish	-10.5025
applewatch	-10.5026
kthi	-10.5029
▁gr	-10.5037
▁official	-10.5037
bg	-10.5048
▁glass	-10.5049
▁5%	-10.5049
cot	-10.5055
▁means	-10.5081
ero	-10.5087
▁center	-10.5091
▁law	-10.5092
real	-10.5092
▁files	-10.5095
vis	-10.5096
▁site	-10.511
cig	-10.512
iii	-10.5121
▁shift	-10.5124
▁dogs	-10.5124
▁improve	-10.5125
▁asap	-10.5125
▁prospectus	-10.5127
▁الصفق	-10.5127
▁spook	-10.5127
▁expiration	-10.5129
tracker	-10.5129
cor	-10.5134
tsn	-10.5137
ui	-10.5137
▁someone	-10.5138
dig	-10.5144
25%	-10.5148
vol	-10.5149
fxy	-10.5154
lys	-10.5166
سج	-10.5171
▁gi	-10.5172
way	-10.518
▁turned	-10.5191
▁brea	-10.5193
▁questions	-10.52
▁raise	-10.5206
▁jet	-10.5206
▁unveils	-10.5222
▁tool	-10.5222
▁virtual	-10.5232
▁him	-10.5236
▁monitor	-10.524
▁starbucks	-10.524
▁north	-10.524
rank	-10.5241
▁barron	-10.5241
srpt	-10.5241
▁flat	-10.5243
ang	-10.5245
▁»	-10.5262
.25	-10.5264
▁starts	-10.5274
away	-10.5274
▁spreads	-10.5292
▁grab	-10.5294
▁loo	-10.5295
--&	-10.5297
▁found	-10.5311
▁balls	-10.5316
cm	-10.5322
▁applications	-10.5323
▁bears	-10.5325
vel	-10.5339
▁$5,000	-10.5344
her	-10.5344
dax	-10.5344
▁threat	-10.5344
▁complete	-10.5348
♥	-10.5354
▁bobirw	-10.5355
▁tired	-10.5355
▁gift	-10.5356
▁actually	-10.5357
▁teach	-10.5357
▁trans	-10.5359
fdn	-10.536
▁downside	-10.5361
read	-10.5364
world	-10.5367
agen	-10.5368
ios	-10.5375
gnw	-10.5376
▁feature	-10.5391
deck	-10.5394
▁biz	-10.5417
▁cola	-10.5417
▁mt	-10.5418
▁force	-10.5422
adr	-10.5423
▁como	-10.5426
sq	-10.5433
▁matter	-10.5438
kbe	-10.5439
▁roba	-10.5442
hog	-10.5449
qid	-10.545
▁friends	-10.5456
▁una	-10.546
▁11,	-10.5461
kss	-10.5462
▁friend	-10.5466
▁1/2	-10.5469
▁baidu	-10.5471
▁reversal	-10.5471
adi	-10.5472
▁takeover	-10.5474
▁according	-10.5475
▁replay	-10.5477
infuse	-10.5477
operating	-10.548
{	-10.5484
▁seek	-10.5492
▁spot	-10.5495
py	-10.5499
▁ny	-10.5504
look	-10.5504
▁vol	-10.5508
▁lets	-10.5509
▁mad	-10.5512
ita	-10.552
▁sense	-10.5523
▁fe	-10.5524
▁leg	-10.5527
tip	-10.5528
stz	-10.5528
1.8	-10.5536
زو	-10.5539
kh	-10.555
▁fail	-10.5564
▁!!!	-10.5569
-15	-10.5571
▁changer	-10.5581
▁je	-10.5584
▁retirement	-10.5585
▁knows	-10.5587
▁vanguard	-10.5589
▁اما	-10.5589
▁speak	-10.559
▁pursu	-10.559
▁coverage	-10.559
▁1984	-10.559
▁blow	-10.5595
▁euro	-10.5597
0.5	-10.56
▁pros	-10.5605
reuters	-10.5606
ctrp	-10.5607
hrl	-10.5611
▁$1,000	-10.5612
▁shorts	-10.5614
guy	-10.5623
lv	-10.5629
▁drone	-10.563
oi	-10.5631
▁heard	-10.5633
!!!!!	-10.5637
cas	-10.5642
▁investments	-10.5654
00%	-10.5666
700%	-10.5668
grek	-10.567
rop	-10.567
emp	-10.5674
can	-10.5674
cur	-10.5684
ize	-10.5688
ker	-10.5697
gan	-10.5701
▁quick	-10.5701
▁6%	-10.5702
corrupción	-10.5708
muzikkzone	-10.5708
mdcn	-10.5708
▁slide	-10.5709
ali	-10.5713
pwr	-10.5714
chile	-10.5715
hjoe	-10.5715
ake	-10.572
▁legal	-10.5725
insy	-10.5731
gene	-10.5732
▁host	-10.5734
lake	-10.5734
qe	-10.5741
▁34	-10.5746
▁15%	-10.5747
trades	-10.575
dbc	-10.5762
high	-10.5769
life	-10.579
▁print	-10.5796
▁ppl	-10.5801
▁weight	-10.5808
▁payment	-10.5809
wi	-10.5813
ization	-10.5824
zq	-10.5827
education	-10.5828
ç	-10.5828
▁movie	-10.5829
▁pressure	-10.5829
▁games	-10.5829
▁duke	-10.5831
▁south	-10.5832
▁held	-10.5832
▁enjoy	-10.5834
aph	-10.5838
▁nyc	-10.5841
▁signs	-10.5845
eu	-10.5849
bh	-10.5855
unt	-10.5856
america	-10.586
arc	-10.5879
adt	-10.588
pir	-10.5884
rp	-10.5889
▁aka	-10.5915
ete	-10.5921
open	-10.593
▁setup	-10.594
wdc	-10.5948
▁planning	-10.5951
▁express	-10.5951
▁download	-10.5954
xlnx	-10.5961
▁rises	-10.5968
breaking	-10.5989
▁boy	-10.5996
sell	-10.5997
▁testing	-10.6009
orly	-10.602
nav	-10.6024
▁99	-10.6035
▁gov	-10.6047
drys	-10.6055
▁hand	-10.6056
connect	-10.6074
▁regret	-10.6074
globalgoodemi	-10.6074
▁extend	-10.6074
▁rebound	-10.6075
jkt	-10.6075
npt	-10.6077
cure	-10.6083
nta	-10.6083
▁training	-10.6083
nh	-10.6084
nwg	-10.6086
12%	-10.6087
fxcm	-10.6087
▁canada	-10.6088
acad	-10.6092
▁fans	-10.6096
ido	-10.6097
▁asia	-10.6098
▁leader	-10.6106
review	-10.6108
▁mode	-10.6111
himx	-10.6111
quarter	-10.6112
▁har	-10.6115
▁gre	-10.6118
but	-10.6118
don	-10.6119
ura	-10.6132
▁par	-10.6142
▁48	-10.6149
▁along	-10.6151
▁35	-10.6152
▁27,	-10.6157
ces	-10.6167
▁mis	-10.6196
▁+3	-10.6198
▁birthday	-10.6199
の	-10.6199
▁commentary	-10.6201
mpc	-10.621
▁thestreet	-10.6214
vision	-10.6219
▁press	-10.6227
viab	-10.6233
▁7-2	-10.6237
retail	-10.6241
▁🔥	-10.6245
tile	-10.6247
▁downgrade	-10.6259
/7	-10.6266
▁core	-10.627
▁hey	-10.6279
kca	-10.6279
cci	-10.6288
ya	-10.6296
▁benefit	-10.6302
tv	-10.6312
▁mind	-10.6312
▁(#	-10.6324
invesment	-10.6326
▁further	-10.6326
🎶	-10.6326
▁billionaire	-10.6326
▁judge	-10.6326
▁calendar	-10.6326
jwn	-10.6331
▁debut	-10.6333
▁cantor	-10.6335
نت	-10.6341
▁killer	-10.6342
ient	-10.6353
tar	-10.6357
gp	-10.6361
▁fy	-10.6366
▁ride	-10.6369
▁driving	-10.6369
▁solutions	-10.6371
▁ban	-10.64
▁engine	-10.6402
row	-10.6405
▁compete	-10.6411
▁contra	-10.6414
▁earn	-10.6414
▁10-	-10.6417
▁heat	-10.6426
▁base	-10.6429
trx	-10.643
▁hai	-10.6433
▁ah	-10.6434
/$	-10.6441
▁dd	-10.6445
▁tests	-10.6448
peg	-10.645
2014	-10.6451
gulf	-10.6454
▁wanna	-10.6454
fda	-10.6456
▁downtrend	-10.6456
▁$100,000	-10.6458
▁fourth	-10.6458
ceo	-10.6459
ben	-10.646
eye	-10.646
ufc	-10.6461
sky	-10.6462
mma	-10.6464
crus	-10.6468
▁losers	-10.6472
▁mega	-10.6473
▁intelligence	-10.6474
▁3%	-10.6479
▁covered	-10.648
▁terms	-10.6483
shop	-10.6488
stone	-10.6488
mux	-10.6494
cmi	-10.6495
iff	-10.6501
ern	-10.651
▁messenger	-10.651
▁lp	-10.6511
what	-10.6512
▁articles	-10.6514
▁king	-10.6514
bro	-10.6528
eyes	-10.6542
▁3,	-10.6542
8,	-10.6542
▁millions	-10.6553
ari	-10.6559
7,	-10.6565
▁networks	-10.6568
core	-10.6581
▁interactive	-10.6584
▁jefferies	-10.6584
epzm	-10.6584
canadian	-10.6584
تعل	-10.6584
▁bezos	-10.6584
▁crisis	-10.6584
▁powershares	-10.6584
▁previous	-10.6584
▁series	-10.6587
▁13,	-10.659
▁workers	-10.6592
▁headlines	-10.6592
▁hear	-10.6594
east	-10.6594
▁taxes	-10.6602
▁soar	-10.6606
achn	-10.6615
adsk	-10.6615
▁rose	-10.6615
▁family	-10.6615
▁iron	-10.6617
auy	-10.6623
dell	-10.6639
sap	-10.6642
breakout	-10.6642
▁17,	-10.6645
ina	-10.6651
▁gran	-10.6652
▁race	-10.6665
hun	-10.6665
loco	-10.668
▁innovation	-10.6697
wbo	-10.6701
▁minute	-10.6705
▁equal	-10.6715
▁premium	-10.6715
▁staples	-10.6715
▁timothy	-10.6715
▁attractive	-10.6715
cash	-10.6716
▁10:30	-10.6716
▁💯	-10.6716
▁party	-10.6719
att	-10.6722
▁gopro	-10.6727
pet	-10.6747
stt	-10.6755
▁buybacks	-10.6758
vips	-10.6765
▁tru	-10.6772
form	-10.6774
shw	-10.6776
mail	-10.6776
price	-10.6783
angi	-10.6801
▁premarket	-10.6806
▁07	-10.6821
▁22,	-10.6825
gnc	-10.6829
▁wh	-10.6831
▁02	-10.6833
oas	-10.6835
sina	-10.6837
ccl	-10.6839
▁pu	-10.6841
▁luck	-10.6842
option	-10.6842
▁fan	-10.6844
▁begins	-10.6846
ney	-10.6846
▁junior	-10.6849
▁pipeline	-10.6849
▁qualcomm	-10.6849
▁trouble	-10.6849
▁supply	-10.6849
pcyc	-10.6849
inch	-10.6852
vu	-10.6853
▁cor	-10.6855
▁buyers	-10.6866
▁sick	-10.6867
▁sony	-10.6872
feat	-10.6874
whr	-10.6876
pic	-10.6882
kbio	-10.6883
▁student	-10.6895
logi	-10.6897
.2%	-10.6897
▁ticker	-10.6897
▁4%	-10.6918
.8%	-10.6921
pxd	-10.6923
exam	-10.6932
vgi	-10.6933
▁eyes	-10.6933
▁id	-10.6939
▁design	-10.6947
lia	-10.6956
vc	-10.6958
cit	-10.6972
▁maker	-10.6972
▁wa	-10.6977
▁basic	-10.6983
▁brazil	-10.6984
▁pdvsa	-10.6984
▁survey	-10.6984
▁generation	-10.6984
▁tickerlens	-10.6984
▁stuff	-10.6984
▁saving	-10.6984
fosl	-10.6984
▁decade	-10.6984
▁piper	-10.6985
▁giveaway	-10.6986
ler	-10.6987
▁common	-10.6988
hbi	-10.6988
▁fact	-10.6998
realtime	-10.7
hx	-10.7
▁wi	-10.7006
▁came	-10.7017
ren	-10.7026
▁etfs	-10.7035
cra	-10.7038
agg	-10.7056
disca	-10.7057
should	-10.7059
music	-10.706
▁4,	-10.7064
▁announced	-10.7065
stream	-10.707
▁economic	-10.7082
ico	-10.7086
▁ftse	-10.7087
emn	-10.7111
▁forget	-10.7113
spreadbetting	-10.7121
▁increasing	-10.7121
▁phase	-10.7121
▁mixed	-10.7121
inc	-10.7123
light	-10.7124
▁24,	-10.7124
chi	-10.7134
▁allow	-10.7136
today	-10.714
bbby	-10.7144
bin	-10.7145
▁else	-10.7157
por	-10.7161
rwc	-10.7161
▁measures	-10.7166
symc	-10.7166
old	-10.7173
▁flag	-10.7174
▁hat	-10.7181
vx	-10.7184
gate	-10.7185
.3%	-10.7196
22%	-10.7197
ara	-10.7208
▁men	-10.7211
▁land	-10.7211
ile	-10.7217
hill	-10.7218
▁trends	-10.7232
ñ	-10.7237
,600%	-10.7245
▁65	-10.725
.10	-10.7253
qihu	-10.726
▁equities	-10.726
▁icymi	-10.726
▁leahanne	-10.726
gwph	-10.726
т	-10.726
▁serious	-10.726
bitcoin	-10.726
▁session	-10.726
▁failure	-10.726
ln	-10.7262
?"	-10.7262
▁morningstar	-10.7263
▁trap	-10.7265
eric	-10.7265
wlst	-10.7267
cer	-10.7273
▁350%	-10.7274
ame	-10.7277
▁ur	-10.7278
mix	-10.7285
▁8-	-10.7292
▁fang	-10.7299
pping	-10.7303
▁uni	-10.7305
ori	-10.7307
oy	-10.7308
founder	-10.731
ger	-10.7316
▁9,	-10.7316
▁businesses	-10.7319
ego	-10.7319
cnx	-10.7322
cho	-10.7328
▁hep	-10.7333
wmb	-10.7335
kre	-10.7338
zion	-10.734
▁jp	-10.734
ntes	-10.7342
▁8,	-10.7348
azo	-10.7351
▁opens	-10.7352
▁les	-10.7357
led	-10.7358
▁advisors	-10.7369
aught	-10.7396
▁algo	-10.7398
★	-10.74
ø	-10.74
▁commercial	-10.74
▁computer	-10.74
▁poised	-10.74
▁paypal	-10.74
▁declare	-10.74
▁nigga	-10.7401
▁impressive	-10.7401
nbix	-10.7401
▁flash	-10.7401
ctsh	-10.7403
▁hurt	-10.7404
▁privacy	-10.7405
gy	-10.741
bonus	-10.7411
▁20+	-10.742
▁pls	-10.7421
▁cure	-10.7423
▁15,	-10.7427
▁fuel	-10.7429
ruba	-10.743
you	-10.7432
▁solo	-10.7436
ei	-10.7438
▁later	-10.7439
incy	-10.7447
▁overall	-10.7447
mck	-10.7456
▁log	-10.7468
hu	-10.7473
▁claims	-10.7475
1,000	-10.7479
!!!!!!	-10.7481
bis	-10.7489
▁imp	-10.7489
▁falling	-10.749
analysis	-10.7494
▁plays	-10.7495
hou	-10.7497
▁thurs	-10.7497
▁firms	-10.7499
▁tu	-10.7505
▁1-	-10.7506
intu	-10.7508
ngg	-10.7518
▁fix	-10.7521
▁deliver	-10.7521
atch	-10.7521
roja	-10.7529
elli	-10.7532
hub	-10.7533
▁tr	-10.7536
▁avg	-10.7542
psychology	-10.7543
earthquake	-10.7543
mrvl	-10.7543
عقد	-10.7543
▁folks	-10.7543
▁balance	-10.7543
grmn	-10.7543
▁shipping	-10.7543
▁tough	-10.7544
▁buck	-10.7545
▁suit	-10.7549
▁xbox	-10.755
▁uptrend	-10.7551
rla	-10.7553
ave	-10.756
▁yellen	-10.7561
1|	-10.7562
▁stat	-10.7562
amc	-10.7568
▁introduce	-10.7573
aro	-10.7576
▁fundamental	-10.7576
▁bot	-10.7576
:-0.	-10.7581
▁thu	-10.7598
trn	-10.7601
▁highly	-10.7604
▁quality	-10.7606
▁finding	-10.7617
▁migh	-10.7618
tif	-10.7633
hin	-10.7638
webinar	-10.7643
▁photo	-10.7645
▁lines	-10.7646
piration	-10.7655
▁lowers	-10.766
war	-10.7666
▁wave	-10.7682
wll	-10.7683
▁shareholder	-10.7685
mgm	-10.7685
▁tip	-10.7687
▁recommend	-10.7687
ability	-10.7687
い	-10.7688
▁nadella	-10.7688
▁school	-10.7688
▁industries	-10.7688
▁shoud	-10.7688
▁entire	-10.7688
▁más	-10.7688
▁اسبوعي	-10.7689
▁$5,000+	-10.7692
royalty	-10.7693
▁gho	-10.7693
▁combined	-10.7699
▁consumers	-10.7701
▁significant	-10.7704
mdy	-10.7707
xop	-10.7718
▁smartphones	-10.7724
▁12,	-10.7728
▁toyota	-10.7732
.04	-10.7742
82	-10.7746
▁cal	-10.7748
▁death	-10.7758
fsl	-10.7759
vnq	-10.776
rna	-10.7761
mont	-10.7764
esv	-10.7765
.11	-10.7782
👍	-10.7793
boeing	-10.7794
board	-10.7795
dw	-10.7796
▁likes	-10.7796
wall	-10.781
▁plant	-10.7812
▁(1	-10.7815
urs	-10.7818
▁employee	-10.7834
▁digit	-10.7834
▁director	-10.7834
▁display	-10.7835
fitb	-10.7835
▁120	-10.7835
pacific	-10.7835
▁catalyst	-10.7835
▁expansion	-10.7835
▁summer	-10.7835
▁parcel	-10.7836
bigdata	-10.7837
mjm	-10.7837
▁dominate	-10.7846
▁button	-10.7848
▁main	-10.7848
▁10,	-10.7848
cuba	-10.7867
htz	-10.787
-4	-10.7873
▁customer	-10.7875
▁wo	-10.7876
▁05	-10.7876
▁1000	-10.7885
▁au	-10.7899
wai	-10.7899
leg	-10.7912
▁micro	-10.7912
ncia	-10.7916
ora	-10.7929
apol	-10.7931
ام	-10.7936
)'	-10.7945
windows	-10.7948
dic	-10.7954
▁sta	-10.7955
▁disappoint	-10.7963
▁faces	-10.7963
seas	-10.7964
cla	-10.7967
cool	-10.7971
▁23,	-10.7972
ized	-10.7979
▁binary	-10.7985
▁piece	-10.7985
▁hiring	-10.7985
▁treatment	-10.7985
▁running	-10.7985
68%	-10.7986
tjx	-10.7986
▁defense	-10.7988
dnax	-10.7991
▁changing	-10.7999
▁zi	-10.7999
▁loaded	-10.8001
sai	-10.8007
▁artificial	-10.8008
▁siri	-10.8016
▁features	-10.8029
nor	-10.8035
▁56	-10.8039
coo	-10.8041
actives	-10.8057
▁issued	-10.806
▁sanofi	-10.8061
▁wide	-10.8076
▁rec	-10.8077
▁bro	-10.8079
▁reiterate	-10.809
▁tue	-10.809
business	-10.8104
walmart	-10.8105
▁charge	-10.8109
35%	-10.8113
▁rumor	-10.8119
point	-10.8123
aeo	-10.8123
fro	-10.8131
wat	-10.8131
ف	-10.8134
▁broad	-10.8136
tutorial	-10.8136
▁except	-10.8136
▁club	-10.8137
▁monster	-10.8137
▁incredible	-10.8137
▁electronic	-10.8138
ark	-10.8138
▁safety	-10.8138
▁begin	-10.8139
▁decision	-10.8139
▁somebody	-10.8141
▁cha	-10.8142
▁industrials	-10.8145
shld	-10.8146
▁estate	-10.8149
▁inbev	-10.8149
▁cont	-10.815
▁$400	-10.8152
cli	-10.8155
▁reminds	-10.8161
uth	-10.8163
cme	-10.8165
▁brings	-10.8167
▁cards	-10.8167
▁crush	-10.8171
بر	-10.8175
▁poor	-10.8185
cmp	-10.8192
wal	-10.8197
cent	-10.8197
2)	-10.8201
▁55	-10.8203
bcs	-10.8209
rá	-10.8211
▁margins	-10.8217
ade	-10.8218
▁bol	-10.8219
ire	-10.822
flex	-10.8232
avp	-10.8233
this	-10.8235
short	-10.8239
emi	-10.8239
▁bl	-10.8244
bnd	-10.8253
door	-10.8257
▁foods	-10.8263
bullish	-10.8264
▁award	-10.8266
berg	-10.8268
▁spend	-10.8268
flt	-10.8269
ise	-10.827
▁sea	-10.8275
ims	-10.8281
▁closes	-10.8283
▁comparison	-10.829
▁institutional	-10.829
▁central	-10.829
▁heavy	-10.8291
▁recommendation	-10.8291
france	-10.8292
▁motor	-10.8298
▁hitting	-10.8302
▁fill	-10.8307
▁hoy	-10.8313
fire	-10.8314
fisv	-10.8319
3.000	-10.8319
▁faster	-10.832
nb	-10.8321
▁fibonacci	-10.8331
▁weigh	-10.8334
dva	-10.8336
fdo	-10.8337
▁shorting	-10.834
▁son	-10.8346
tsx	-10.8348
ator	-10.8355
▁protect	-10.8361
bce	-10.8372
▁18,	-10.8376
los	-10.8378
▁mm	-10.8387
▁mom	-10.8389
penn	-10.8397
▁approve	-10.84
▁exp	-10.8401
hrs	-10.8407
▁radio	-10.8407
jones	-10.8415
drn	-10.8418
▁broker	-10.8419
green	-10.8426
cien	-10.843
based	-10.8439
▁beyond	-10.8446
▁restaurants	-10.8446
▁london	-10.8446
▁spring	-10.8447
▁zero	-10.8447
▁protection	-10.8448
▁cents	-10.8449
krft	-10.845
lam	-10.8451
▁dre	-10.8454
▁promo	-10.8456
tle	-10.8458
▁2008	-10.8465
▁holy	-10.847
▁424	-10.8472
fcel	-10.8477
▁write	-10.8481
▁fit	-10.8486
itu	-10.8488
▁thinks	-10.849
▁leak	-10.8498
▁bla	-10.8498
rht	-10.85
wins	-10.8503
cfd	-10.8505
clx	-10.8507
▁daytrade	-10.8509
▁mess	-10.8514
rost	-10.8515
▁overweight	-10.8515
▁gaming	-10.8526
▁38	-10.8528
▁coke	-10.853
▁direct	-10.8533
▁mr	-10.8536
▁greece	-10.8538
alle	-10.8548
uch	-10.8553
▁analytics	-10.8554
swi	-10.8554
▁comments	-10.8561
▁sept	-10.8563
▁fears	-10.8566
cloud	-10.8571
yellen	-10.8587
jack	-10.8589
mcp	-10.8593
fu	-10.8599
pla	-10.86
▁1.2	-10.8601
hole	-10.8604
lnx	-10.8605
е	-10.8605
🙌	-10.8605
с	-10.8605
▁linkedin	-10.8605
▁policy	-10.8605
▁año	-10.8605
▁reserve	-10.8606
splk	-10.8606
jdsu	-10.8607
▁roundup	-10.8608
▁midday	-10.8609
▁personal	-10.861
▁sprint	-10.8613
▁itself	-10.8613
▁fcc	-10.8614
▁count	-10.8614
▁fre	-10.8614
▁forbes	-10.8615
▁+6	-10.8618
▁cowen	-10.8619
aez	-10.8637
dwa	-10.8651
than	-10.8653
bll	-10.8657
▁light	-10.8657
1999	-10.8661
▁400%	-10.8661
soxl	-10.8664
▁galaxy	-10.8664
▁moments	-10.867
▁40%	-10.8677
▁explains	-10.8691
alo	-10.8691
more	-10.8693
▁water	-10.8695
haha	-10.8698
#$	-10.8702
▁watched	-10.8711
sph	-10.8718
7.00	-10.8719
tmf	-10.8725
▁predicts	-10.8726
bbd	-10.8726
▁16,	-10.8736
pppi	-10.8743
▁band	-10.8745
minute	-10.8753
▁beating	-10.8755
hours	-10.8766
▁progress	-10.8766
▁inverse	-10.8766
ctxs	-10.8766
▁exelon	-10.8766
▁winning	-10.8766
mhys	-10.8767
▁macbook	-10.8767
jazz	-10.8769
▁remix	-10.8771
▁letter	-10.8775
hsy	-10.8775
pli	-10.8776
▁reaction	-10.8776
▁rival	-10.878
▁2009	-10.878
▁remain	-10.8782
wing	-10.8785
isis	-10.8787
▁imbalances	-10.881
hip	-10.8812
▁momo	-10.8825
""	-10.8827
▁20150	-10.8832
nue	-10.8837
fitx	-10.885
shpg	-10.885
▁heart	-10.8851
▁calling	-10.8853
stem	-10.8856
▁rip	-10.8857
game	-10.8861
▁310	-10.8863
▁prepare	-10.8865
▁يس	-10.8865
▁sto	-10.8871
right	-10.8875
phot	-10.8877
▁dollars	-10.8889
etfs	-10.8895
▁thi	-10.8896
▁happen	-10.8901
mh	-10.8901
▁sources	-10.891
▁{	-10.8911
cie	-10.892
android	-10.8924
volume	-10.8925
hca	-10.8926
▁advantage	-10.893
▁anheuser	-10.893
▁construction	-10.893
▁either	-10.893
eqix	-10.893
▁fiscal	-10.893
▁peeps	-10.893
▁anything	-10.893
▁radar	-10.893
cldx	-10.8931
▁cause	-10.8931
etsy	-10.8932
▁dimon	-10.8935
chu	-10.8937
disney	-10.8938
▁90%	-10.8939
nda	-10.8939
▁spam	-10.8941
▁retailers	-10.8942
ents	-10.8944
vgt	-10.8945
▁copy	-10.8946
▁leave	-10.8947
busch	-10.8947
profit	-10.8951
▁shack	-10.8954
nic	-10.899
arg	-10.9002
▁kind	-10.9003
16%	-10.9007
fcs	-10.9011
stk	-10.9012
▁nat	-10.9015
wear	-10.902
▁learning	-10.9024
gyp	-10.9042
▁turning	-10.9045
▁jumps	-10.9056
tmo	-10.9061
rok	-10.9062
▁joe	-10.9066
▁خ	-10.9066
par	-10.9072
xel	-10.9073
424	-10.9075
etr	-10.9076
▁3-	-10.9078
▁remains	-10.9084
store	-10.9084
▁tha	-10.9093
し	-10.9097
▁destroy	-10.9097
▁taiwan	-10.9097
▁weather	-10.9097
►	-10.9097
😍	-10.9097
▁component	-10.9097
▁explore	-10.9097
▁spotlight	-10.9097
▁korea	-10.9097
▁women	-10.9098
▁operations	-10.9098
▁fresh	-10.9099
▁stopped	-10.91
▁noise	-10.9104
eur	-10.9107
fnfg	-10.9108
acc	-10.9109
▁hello	-10.9109
logging	-10.9111
,000,000	-10.9121
▁fv	-10.9121
ncr	-10.9133
ele	-10.915
▁exxonmobil	-10.9155
hk	-10.9158
quad	-10.9158
دن	-10.916
nus	-10.9161
viv	-10.9163
infn	-10.9169
nfx	-10.9172
nbl	-10.9175
▁adj	-10.9183
▁cup	-10.9188
oa	-10.9209
,000%	-10.9221
head	-10.9233
.92	-10.924
itw	-10.9247
▁marc	-10.9259
▁links	-10.9259
▁throw	-10.9264
▁usd	-10.9266
▁competitor	-10.9266
▁flaunt	-10.9266
▁hardware	-10.9266
▁stifel	-10.9266
😎	-10.9266
▁alcoa	-10.9266
thrx	-10.9267
▁fitbit	-10.9267
ira	-10.9267
▁color	-10.9269
▁forecasts	-10.9269
manipulation	-10.927
shift	-10.9271
urbn	-10.9272
▁babe	-10.9274
▁pos	-10.9275
power	-10.9276
▁enterprise	-10.9287
▁20,	-10.9292
▁arrived	-10.9294
armh	-10.9295
▁founded	-10.9296
▁lack	-10.9297
month	-10.9304
▁startup	-10.9311
▁role	-10.9319
▁drugs	-10.9323
▁white	-10.9325
maker	-10.9328
emb	-10.9336
▁champ	-10.9341
▁experience	-10.9347
▁closer	-10.9358
cco	-10.9361
▁cree	-10.9364
▁rais	-10.9365
elt	-10.9368
▁telecom	-10.9368
▁plane	-10.9374
ago	-10.9374
rut	-10.9377
▁directv	-10.938
cbi	-10.9388
ture	-10.9388
▁04	-10.9391
cab	-10.9393
syy	-10.9401
▁europea	-10.9403
▁favor	-10.9409
ois	-10.9411
ecl	-10.942
34%	-10.9428
cray	-10.9432
dividends	-10.9432
▁bus	-10.9434
ike	-10.9437
قترب	-10.9439
▁california	-10.9439
▁cycle	-10.9439
▁chunk	-10.9439
qrvo	-10.9439
▁antitrust	-10.9439
▁decide	-10.944
hban	-10.944
source	-10.944
kgc	-10.9441
▁thru	-10.9441
dpz	-10.9442
epi	-10.9448
tesla	-10.9451
▁jour	-10.9456
promo	-10.947
45%	-10.9472
▁27%	-10.9481
ctic	-10.9487
▁unusual	-10.9495
▁mtg	-10.9495
▁six	-10.9499
▁recently	-10.9505
▁tele	-10.9506
home	-10.9507
kau	-10.9507
ere	-10.9518
calm	-10.952
.05	-10.9523
70%	-10.9527
iau	-10.9529
nation	-10.9529
▁shopping	-10.9534
(2)	-10.9539
etf	-10.9542
▁leap	-10.9543
▁tie	-10.9546
retweet	-10.9548
▁yields	-10.956
▁thought	-10.9568
▁wit	-10.9574
▁phil	-10.9584
dks	-10.9598
▁sep	-10.96
▁load	-10.9603
twt	-10.9604
٩	-10.9614
▁berkshire	-10.9614
▁document	-10.9614
▁effort	-10.9614
▁exposure	-10.9614
▁squeeze	-10.9614
▁straight	-10.9614
▁subscription	-10.9614
▁كسر	-10.9614
▁pivot	-10.9614
▁appeal	-10.9614
▁worse	-10.9614
▁metro	-10.9615
▁implie	-10.9615
▁steal	-10.9615
icpt	-10.9615
▁nike	-10.9616
iag	-10.9617
▁وي	-10.9618
▁paper	-10.9618
late	-10.9619
▁beta	-10.9621
▁tienen	-10.9621
▁unveil	-10.9623
▁bpt	-10.9624
▁source	-10.9626
vets	-10.9629
▁selloff	-10.9636
▁understanding	-10.9637
▁notice	-10.9639
▁bru	-10.9644
▁manager	-10.9645
▁fade	-10.9646
hgu	-10.9655
▁pcs	-10.9655
:41	-10.9656
.35	-10.9657
▁human	-10.9658
▁sky	-10.9661
ين	-10.9666
snp	-10.9667
espr	-10.9671
nds	-10.9673
▁bets	-10.9673
▁buyer	-10.9678
reached	-10.968
investment	-10.9681
66%	-10.9687
ism	-10.9688
pru	-10.9692
▁75%	-10.9694
cnp	-10.9703
▁events	-10.9704
3.3	-10.9707
yo	-10.9712
fully	-10.9728
▁110	-10.9742
▁patients	-10.9751
change	-10.9752
▁2,000	-10.9752
15%	-10.9755
▁37	-10.9755
codi	-10.9757
log	-10.9771
stores	-10.9777
kit	-10.978
▁hol	-10.9787
▁ubs	-10.9789
ona	-10.9792
muchomacho	-10.9793
▁request	-10.9793
▁wisdom	-10.9793
▁attention	-10.9793
▁crudo	-10.9793
yoku	-10.9793
▁album	-10.9793
▁defend	-10.9793
▁james	-10.9793
▁warning	-10.9793
nght	-10.9793
climate	-10.9795
ewh	-10.9795
101	-10.9797
▁95	-10.9797
odp	-10.9798
▁bln	-10.9799
hrb	-10.9804
▁master	-10.9806
ching	-10.981
▁soars	-10.9816
technology	-10.9818
▁encryption	-10.9821
hq	-10.9826
▁west	-10.9835
▁cmo	-10.9841
▁stick	-10.9843
wday	-10.9856
▁readers	-10.9876
▁haven	-10.9884
▁1.42	-10.989
▁quit	-10.989
egi	-10.9892
fls	-10.9906
-1,	-10.9906
swn	-10.9929
lyb	-10.9932
cnq	-10.9935
uber	-10.9936
list	-10.9948
▁understand	-10.995
🏆	-10.9974
quantheta	-10.9974
▁jaffray	-10.9974
aqxp	-10.9974
▁fortune	-10.9975
kndi	-10.9975
▁dropping	-10.9975
▁accept	-10.9975
▁shoot	-10.9976
▁stress	-10.9977
▁breakdown	-10.9979
▁tradingroom	-10.9979
▁vence	-10.998
asefi	-10.998
▁2017	-10.9983
▁tank	-10.9992
▁reache	-10.9994
▁related	-11.0006
▁code	-11.0007
▁hearing	-11.0008
cemp	-11.0014
macro	-11.0015
wb	-11.0023
amtd	-11.0024
▁effect	-11.0028
▁pen	-11.0033
fang	-11.0035
▁middle	-11.0036
gue	-11.0036
▁aren	-11.004
▁esp	-11.0041
start	-11.0042
▁80%	-11.0043
360	-11.005
▁problems	-11.0075
***	-11.0077
▁presents	-11.0083
von	-11.0084
vy	-11.0085
▁29,	-11.0091
▁type	-11.0095
morn	-11.0098
unca	-11.0101
vii	-11.0104
▁pero	-11.0107
ore	-11.0108
agnc	-11.0109
▁5,000	-11.0123
iran	-11.0126
0.50	-11.013
cia	-11.0134
▁kar	-11.0145
▁process	-11.0153
▁300%	-11.0157
▁tracking	-11.0158
ー	-11.016
☺	-11.016
ú	-11.016
в	-11.016
▁10:59:2	-11.016
▁featuring	-11.016
▁community	-11.016
▁silicon	-11.016
merrill	-11.016
▁sorry	-11.016
▁ladies	-11.016
▁shut	-11.016
fcau	-11.016
eca	-11.016
socialmedia	-11.016
audio	-11.0161
▁supertrades	-11.0161
▁version	-11.0163
▁panic	-11.0163
prgo	-11.0164
▁sw	-11.0164
▁carefully	-11.0164
▁knew	-11.0165
▁delivers	-11.0167
bdx	-11.0169
pcp	-11.0169
▁wtf	-11.0172
ola	-11.0176
8.00	-11.0178
mission	-11.018
▁fake	-11.018
rch	-11.0187
▁walk	-11.0194
billion	-11.0201
▁hands	-11.0204
را	-11.0209
ttc	-11.0219
meme	-11.0219
▁tape	-11.0222
▁union	-11.023
▁90.00	-11.0231
▁ends	-11.0234
▁pan	-11.0238
▁patents	-11.0245
cares	-11.0245
▁4-	-11.025
came	-11.0274
stj	-11.0276
ida	-11.0285
▁hart	-11.0296
unit	-11.0296
non	-11.0304
▁yr	-11.0312
▁compar	-11.0324
▁acc	-11.033
▁hor	-11.0332
ppg	-11.0332
itc	-11.0335
▁25,	-11.0336
▁delay	-11.0337
▁400	-11.0338
л	-11.0348
ijjp	-11.0348
mcmoran	-11.0348
▁indicator	-11.0348
▁welcome	-11.0348
jrjc	-11.0348
▁exactly	-11.0348
commodities	-11.0349
.50+	-11.0349
▁worldwide	-11.0349
brcd	-11.035
▁contest	-11.035
0.3	-11.0351
mxim	-11.0351
ain	-11.0354
lqd	-11.0354
mjna	-11.0355
dte	-11.0358
▁dolar	-11.0362
▁discussion	-11.0362
▁sink	-11.0362
asna	-11.0363
wsm	-11.0366
cyt	-11.0366
▁hype	-11.0368
▁$130	-11.037
▁1.18	-11.0377
▁sar	-11.0381
▁pue	-11.0386
▁player	-11.0392
dollar	-11.0394
alphabet	-11.0395
within	-11.0398
recent	-11.0401
▁turns	-11.0405
farm	-11.041
avy	-11.0413
.03	-11.0419
▁💎	-11.0419
mond	-11.0421
▁bs	-11.0423
vtr	-11.0424
▁newest	-11.0429
jg	-11.044
▁priced	-11.044
195.00	-11.0451
▁vr	-11.0463
msi	-11.0463
cio	-11.0467
hat	-11.0468
▁coal	-11.0469
▁severa	-11.0469
▁approach	-11.0516
xoma	-11.0517
scco	-11.0524
embr	-11.0524
golden	-11.0524
pom	-11.0526
▁doubt	-11.0528
▁54	-11.053
▁accelerate	-11.0541
▁aerospace	-11.0541
▁relevancy	-11.0541
▁strategic	-11.0541
▁motley	-11.0541
▁switch	-11.0541
▁biotechnology	-11.0541
▁honest	-11.0541
▁blood	-11.0541
▁fearful	-11.0541
▁betapro	-11.0542
mchp	-11.0543
▁sheet	-11.0544
▁zone	-11.0544
▁0.06	-11.0545
copper	-11.055
▁repeated	-11.0551
▁wallet	-11.0554
▁nextera	-11.0555
▁powerful	-11.056
▁hint	-11.056
jah	-11.0564
▁66	-11.0565
arm	-11.0568
cq	-11.0571
▁earns	-11.0574
▁word	-11.0578
wft	-11.0579
▁soft	-11.0581
ewa	-11.0581
▁accounts	-11.0584
▁patient	-11.0585
make	-11.0588
ipg	-11.0592
checkout	-11.0593
gpc	-11.0593
income	-11.0599
▁drones	-11.0599
▁port	-11.0606
rse	-11.061
▁setups	-11.061
activ	-11.0614
party	-11.0615
▁reading	-11.0624
▁75	-11.0627
▁pushing	-11.0637
▁reviewing	-11.0639
▁discusse	-11.0642
▁fair	-11.0642
▁concerns	-11.0663
▁shop	-11.0664
▁ali	-11.0666
own	-11.0671
▁pure	-11.0675
sale	-11.0677
▁sand	-11.0688
▁tablets	-11.0689
itt	-11.0701
▁expects	-11.0705
.49	-11.0706
▁reuters	-11.0708
▁obama	-11.0709
ك	-11.071
▁plug	-11.071
var	-11.0712
▁30,	-11.0712
33%	-11.0719
▁predict	-11.0729
oducto	-11.0731
▁smartwatch	-11.0731
▁liquid	-11.0735
pico	-11.0736
employment	-11.0737
prmtx	-11.0737
rhhby	-11.0737
▁scenario	-11.0737
▁similar	-11.0737
▁straddle	-11.0737
▁worry	-11.0737
tcehy	-11.0737
▁earth	-11.0737
▁reverse	-11.0737
gbsn	-11.0737
▁expert	-11.0737
▁shakers	-11.0739
▁mojo	-11.074
▁prior	-11.0741
6.00	-11.0742
▁opp	-11.075
dxd	-11.0753
▁stops	-11.0756
syk	-11.0756
endp	-11.0758
▁happened	-11.0761
▁yoy	-11.0767
▁fish	-11.0768
▁tap	-11.0773
▁works	-11.0775
▁manufacturing	-11.0775
fas	-11.0779
▁trump	-11.0779
▁field	-11.0781
▁develop	-11.0782
▁ain	-11.0788
sig	-11.079
print	-11.0792
▁fear	-11.0795
lph	-11.08
cpb	-11.0801
▁recall	-11.0805
▁mal	-11.0805
why	-11.0814
eix	-11.0817
▁strangles	-11.082
laz	-11.0821
oled	-11.0821
cde	-11.0824
osk	-11.0824
▁wwdc	-11.0826
▁hod	-11.0834
▁wind	-11.0834
wec	-11.0852
▁600	-11.0856
566	-11.0858
lnc	-11.0861
lit	-11.0868
▁1.5	-11.0872
🔥🔥	-11.0876
imax	-11.0882
rbs	-11.0883
rsh	-11.0912
sits	-11.0913
▁tum	-11.0918
ato	-11.093
style	-11.0933
▁awards	-11.0936
â	-11.0936
propaganda	-11.0937
ı	-11.0937
▁battery	-11.0937
▁michael	-11.0937
▁oppenheimer	-11.0937
▁voice	-11.0937
▁client	-11.0937
▁lg	-11.0937
▁dozen	-11.094
▁لل	-11.0941
mkc	-11.0943
invn	-11.0949
hsp	-11.095
awk	-11.0951
▁sch	-11.0957
▁están	-11.0958
▁zel	-11.0961
ssri	-11.0968
▁loses	-11.097
chs	-11.0981
phone	-11.0988
wbc	-11.099
:44	-11.0992
▁kid	-11.0996
▁satis	-11.0996
germany	-11.1004
cboe	-11.1007
chevron	-11.1007
prime	-11.1011
ether	-11.1016
cbl	-11.1016
:45	-11.1016
drone	-11.1021
▁hum	-11.1028
▁era	-11.1031
900	-11.1036
kl	-11.1037
wage	-11.104
mark	-11.1049
▁250	-11.1057
ads	-11.1059
▁sam	-11.1059
avo	-11.1066
ative	-11.1066
dco	-11.1067
▁64	-11.1068
▁12/	-11.1069
▁sounds	-11.1075
▁recover	-11.1081
baa	-11.1096
▁itunes	-11.1098
▁acquisitions	-11.1111
▁dil	-11.1113
iendo	-11.1113
▁fraud	-11.1119
indu	-11.1124
▁checkout	-11.1128
▁ken	-11.1128
▁retire	-11.114
▁brokers	-11.1141
δ	-11.1141
▁bernstein	-11.1141
▁rallies	-11.1141
▁unilever	-11.1141
▁declining	-11.1141
gluu	-11.1141
▁satya	-11.1141
▁crack	-11.1141
▁nomura	-11.1141
▁gana	-11.1141
▁transform	-11.1141
itmn	-11.1141
▁debate	-11.1141
▁edition	-11.1142
▁ground	-11.1142
oncology	-11.1143
▁burn	-11.1143
▁09:3	-11.1143
▁jake	-11.1144
hcti	-11.1145
▁spent	-11.1145
hfc	-11.1147
sirg	-11.1148
▁gates	-11.1148
▁gave	-11.1149
▁revealed	-11.1149
▁;)	-11.1153
science	-11.1154
prediction	-11.1157
put	-11.1157
gddy	-11.1157
crew	-11.1163
aan	-11.1164
▁react	-11.1166
yndx	-11.1188
▁machine	-11.1197
▁application	-11.1198
▁reveals	-11.1203
▁gainers	-11.1207
103	-11.121
▁compet	-11.1216
▁weil	-11.1218
ria	-11.1218
verizon	-11.122
▁engineer	-11.1224
grx	-11.1234
3.00	-11.1234
▁ski	-11.1235
▁earning	-11.1238
rian	-11.1244
ional	-11.125
▁named	-11.1262
▁pagar	-11.1264
main	-11.1268
▁park	-11.1279
▁clean	-11.1283
lick	-11.1295
▁tree	-11.1296
bcr	-11.1298
▁ran	-11.1299
▁god	-11.1301
▁sy	-11.1301
wearables	-11.1318
▁unlock	-11.1319
▁lock	-11.1329
▁jun	-11.1329
▁disrupt	-11.1331
▁happens	-11.1331
▁125	-11.1335
▁australia	-11.1335
ohi	-11.1345
▁grand	-11.1347
rh	-11.1348
р	-11.1349
briankrzanich	-11.1349
▁ambarella	-11.1349
▁collaboration	-11.1349
▁danaher	-11.1349
▁excellent	-11.1349
▁expensive	-11.1349
▁immigrants	-11.1349
😈	-11.1349
▁figure	-11.1349
▁mexico	-11.1349
estaría	-11.1349
▁ugly	-11.135
bldp	-11.135
nws	-11.135
lgf	-11.135
klac	-11.135
graph	-11.135
▁acess	-11.1351
▁honor	-11.1352
3.9	-11.1355
sjm	-11.1358
▁shell	-11.1363
▁suck	-11.1363
▁invite	-11.1366
▁purchases	-11.1366
▁vario	-11.1368
▁60%	-11.1372
▁followers	-11.1375
fomc	-11.1378
expd	-11.1394
fhn	-11.1409
alr	-11.1415
ihs	-11.1416
▁smaller	-11.1416
▁gdp	-11.1425
▁risks	-11.143
onnn	-11.1431
bot	-11.1433
insider	-11.1442
▁chips	-11.1443
meet	-11.1444
rest	-11.1444
▁vers	-11.1445
acm	-11.1445
▁nest	-11.1448
▁successful	-11.1454
iw	-11.1457
د	-11.1461
elle	-11.1463
▁headed	-11.1481
0$	-11.1485
vmc	-11.1486
hawk	-11.15
▁median	-11.1505
1500	-11.1505
crx	-11.1522
kan	-11.1525
nati	-11.153
vnt	-11.1533
▁person	-11.1537
▁tag	-11.155
wel	-11.155
-14	-11.1552
▁bonds	-11.1556
▁units	-11.1558
drc	-11.1562
enheim	-11.1562
symbol	-11.1562
▁accurate	-11.1562
▁alstom	-11.1562
▁campaign	-11.1562
▁disaster	-11.1562
▁satellite	-11.1562
▁university	-11.1562
lqmt	-11.1562
▁profile	-11.1562
▁storage	-11.1562
▁goldcorp	-11.1562
▁segment	-11.1562
▁achieve	-11.1562
▁mountain	-11.1562
vtae	-11.1562
atml	-11.1562
▁carrier	-11.1563
medica	-11.1564
▁banco	-11.1564
plan	-11.1566
istic	-11.1568
▁match	-11.1568
▁markman	-11.1569
▁mixtape	-11.1569
▁costco	-11.157
dgc	-11.157
113	-11.1572
2.20.	-11.1574
▁anticipated	-11.1574
▁.02	-11.158
uthr	-11.1582
▁qu	-11.1587
▁students	-11.1588
eva	-11.1589
akr	-11.1593
▁valued	-11.1594
exas	-11.1598
▁failed	-11.1599
ities	-11.1604
enta	-11.1605
nbr	-11.1611
71%	-11.1611
▁wage	-11.1611
qtm	-11.1613
72%	-11.1618
ksu	-11.1622
▁rolling	-11.1624
wri	-11.1626
▁strike	-11.1627
3.50	-11.163
ese	-11.1633
▁flying	-11.1635
hst	-11.1638
ium	-11.1639
neck	-11.1641
▁startups	-11.1644
edj	-11.1659
health	-11.1661
▁$1.3	-11.1663
imate	-11.1679
6.50	-11.17
fxc	-11.1714
▁machines	-11.1719
nsrg	-11.1721
▁drink	-11.1723
23%	-11.1724
▁map	-11.1726
frc	-11.1728
sni	-11.1732
▁fac	-11.1733
slh	-11.1734
cern	-11.1736
irm	-11.1738
mtb	-11.174
▁ben	-11.1748
▁enterprises	-11.1753
=&	-11.1761
▁rivals	-11.1763
bita	-11.1769
▁sim	-11.1771
.83	-11.1779
な	-11.1779
♥♥	-11.1779
budeboy	-11.1779
▁difference	-11.1779
▁shipments	-11.1779
▁struggle	-11.1779
▁dorsey	-11.1779
▁suffer	-11.1779
▁visual	-11.1779
▁swiss	-11.1779
▁charges	-11.1779
▁travel	-11.178
dowjones	-11.1781
▁gross	-11.1782
▁sharp	-11.1782
dyax	-11.1783
mil	-11.179
▁arts	-11.1796
.32	-11.18
▁qtr	-11.1802
ious	-11.1803
▁gear	-11.1808
▁rappin	-11.1809
▁125%	-11.1811
mnk	-11.1819
inve	-11.1823
▁front	-11.1824
pps	-11.1828
▁intra	-11.1835
even	-11.1837
kar	-11.1837
▁books	-11.1842
▁christmas	-11.1845
7.50	-11.1846
▁crowd	-11.1849
▁sound	-11.185
aon	-11.1856
▁sun	-11.1857
▁valuations	-11.1861
jci	-11.1862
▁americans	-11.1863
▁800%	-11.187
▁thur	-11.187
▁2)	-11.187
ula	-11.1874
europe	-11.1879
group	-11.1883
cma	-11.1884
samsung	-11.1887
rol	-11.1894
nve	-11.1904
▁asked	-11.1906
▁snapchat	-11.1915
▁created	-11.1919
hpt	-11.1921
▁launched	-11.1927
▁advice	-11.1927
xme	-11.1934
50.00	-11.1934
▁breach	-11.1937
▁wages	-11.1941
tril	-11.1942
illa	-11.1943
▁plunge	-11.1955
0.000	-11.1963
here	-11.1965
▁pin	-11.1967
44%	-11.197
▁pea	-11.197
tree	-11.1974
kup	-11.1979
▁800	-11.1982
ü	-11.1983
dgi	-11.1983
mz	-11.1998
michel	-11.1999
か	-11.2001
peanuts	-11.2002
▁maintain	-11.2002
▁pandora	-11.2002
▁venezolano	-11.2002
tkmr	-11.2002
ѻ	-11.2002
starwars	-11.2002
▁valley	-11.2002
▁period	-11.2002
▁together	-11.2002
▁zuck	-11.2002
frozen	-11.2002
▁yrs	-11.2002
vdsi	-11.2002
▁sharing	-11.2002
yinn	-11.2003
▁dominion	-11.2003
▁activist	-11.2003
▁displays	-11.2005
becoming	-11.2005
▁psw	-11.2005
cnr	-11.2006
▁fastest	-11.2007
kbh	-11.2008
▁bright	-11.2009
▁fous	-11.2009
42%	-11.2012
▁4:00	-11.2024
date	-11.2031
men	-11.2031
ptc	-11.2033
21:	-11.2034
▁server	-11.2036
▁till	-11.2041
bkw	-11.2042
kuma	-11.2045
rock	-11.2046
pix	-11.205
0.8	-11.2051
▁healthy	-11.2054
cah	-11.2055
roll	-11.2057
▁13%	-11.2065
exr	-11.2065
▁broken	-11.2073
▁picture	-11.2077
-2014	-11.2081
mdr	-11.2082
▁deck	-11.2089
kkr	-11.2098
spr	-11.2102
▁dear	-11.2108
▁computing	-11.2109
cell	-11.2109
avg	-11.2112
exp	-11.2117
black	-11.2118
▁lessons	-11.2121
▁loans	-11.2121
▁clip	-11.2123
targets	-11.2124
ibo	-11.2128
án	-11.2141
investors	-11.2143
▁larger	-11.2148
reg	-11.215
russ	-11.2158
▁continu	-11.2159
healthcare	-11.2159
▁maps	-11.2164
fall	-11.2174
again	-11.2178
67%	-11.2185
ists	-11.2186
under	-11.2188
coke	-11.2192
uz	-11.2195
▁128	-11.2196
bah	-11.2196
▁92	-11.2199
▁dm	-11.22
post	-11.2201
abmd	-11.2203
▁affect	-11.2209
crc	-11.221
clvs	-11.221
▁tx	-11.222
▁royal	-11.2222
ß	-11.2229
▁11:59:2	-11.2229
▁myecheck	-11.2229
▁square	-11.2229
▁الله	-11.2229
😂	-11.2229
ë	-11.2229
д	-11.2229
▁dispute	-11.2229
▁barril	-11.2229
nowplaying	-11.2229
gww	-11.2229
▁rather	-11.2229
▁motorola	-11.2229
▁draw	-11.2229
▁underperform	-11.223
▁william	-11.223
mwip	-11.2231
▁tabs	-11.2231
▁mapping	-11.2231
▁robot	-11.2232
dgx	-11.2232
▁(+18	-11.2234
▁crest	-11.2237
condor	-11.2238
▁chris	-11.2239
▁membership	-11.2239
▁compares	-11.2241
▁decent	-11.2242
▁brain	-11.2242
▁completely	-11.2243
ford	-11.2249
▁ball	-11.225
▁38%	-11.2253
epd	-11.2254
▁7%	-11.2261
▁hunt	-11.2262
▁ignore	-11.2262
race	-11.2262
txt	-11.2265
zts	-11.2267
hard	-11.2268
▁biosimilar	-11.2269
etfc	-11.2272
▁hell	-11.228
▁trim	-11.2283
▁lights	-11.2289
%!	-11.229
▁fucking	-11.2293
الأ	-11.2293
nwl	-11.2294
pop	-11.2295
bias	-11.2304
yours	-11.2306
fxa	-11.2307
mid	-11.2317
hrg	-11.2319
name	-11.2322
▁driver	-11.2329
▁8%	-11.2331
chat	-11.2335
30%	-11.2336
tck	-11.2337
.63	-11.2337
▁domin	-11.234
▁suppliers	-11.2344
cog	-11.2351
▁ku	-11.2355
yield	-11.2357
▁conf	-11.2368
▁hopes	-11.237
,400	-11.2371
▁sex	-11.2378
▁pictures	-11.2383
amr	-11.2394
▁agrees	-11.2397
oooo	-11.2399
tsco	-11.2402
elect	-11.2403
69%	-11.2406
aos	-11.2409
▁tune	-11.2418
▁correct	-11.2419
.62	-11.2423
36%	-11.2424
gotta	-11.2424
▁ending	-11.2431
iro	-11.2441
too	-11.2442
chop	-11.2447
grub	-11.2457
▁pepsi	-11.2461
ذ	-11.2461
▁foot	-11.2461
∆	-11.2461
к	-11.2461
▁represent	-11.2461
▁repurchase	-11.2461
▁response	-11.2461
▁vaccine	-11.2461
▁worried	-11.2461
▁caution	-11.2461
stupid	-11.2461
▁instant	-11.2462
▁countries	-11.2462
▁ahora	-11.2462
algorithmic	-11.2462
rusl	-11.2463
▁country	-11.2464
▁image	-11.2466
▁overnight	-11.2466
▁wright	-11.2466
ndaq	-11.2467
ji	-11.2467
chrw	-11.2467
▁quadrupled	-11.2468
▁uber	-11.2469
▁ebook	-11.2471
▁everyday	-11.2472
ree	-11.2473
▁gonz	-11.2473
▁loving	-11.2474
rgbp	-11.2477
▁eating	-11.2477
pki	-11.2479
nwsa	-11.2479
ili	-11.2481
aap	-11.2484
good	-11.249
▁wearable	-11.2496
▁11:0	-11.2498
▁cheaper	-11.2499
▁advance	-11.2501
neu	-11.2508
bnp	-11.2512
▁pill	-11.2515
109	-11.2517
▁+5	-11.2518
hig	-11.2521
▁mike	-11.2522
أ	-11.2523
▁urge	-11.2523
31%	-11.2527
izing	-11.2527
▁fm	-11.2528
▁matters	-11.253
▁lay	-11.2536
▁developers	-11.2538
cef	-11.2541
▁concern	-11.2551
▁missing	-11.256
į	-11.2564
newl	-11.2565
▁130	-11.2565
aes	-11.2568
.74	-11.2568
▁forever	-11.257
oco	-11.2576
jf	-11.2579
cut	-11.258
▁mass	-11.258
fund	-11.2585
▁agreed	-11.2587
ulti	-11.2593
100%	-11.2595
broker	-11.2596
ukraine	-11.2598
russia	-11.2602
interest	-11.2605
rrc	-11.2606
think	-11.2608
wwdc	-11.2609
▁grant	-11.2613
tol	-11.2614
▁surprised	-11.2614
▁feels	-11.2625
▁germany	-11.2626
lease	-11.2639
csc	-11.2641
media	-11.2643
mcdonalds	-11.2684
flir	-11.2693
▁inventor	-11.2693
、	-11.2699
ð	-11.2699
📢	-11.2699
benzinga	-11.2699
línea	-11.2699
غب	-11.2699
▁chemical	-11.2699
▁disclosure	-11.2699
▁identify	-11.2699
▁published	-11.2699
▁sapphire	-11.2699
▁activities	-11.2699
▁sleep	-11.2699
▁:"(	-11.2699
น	-11.27
▁sitting	-11.27
▁celebrate	-11.27
▁speed	-11.27
▁largo	-11.27
▁clue	-11.27
▁ballmer	-11.27
pii	-11.27
▁river	-11.27
slxp	-11.27
▁spike	-11.27
▁rojo	-11.2702
▁98.00	-11.2703
▁idop	-11.2703
lmca	-11.2704
▁chatter	-11.2708
▁officially	-11.2716
nico	-11.2725
▁1,9	-11.2726
grade	-11.2728
▁outside	-11.2729
rmb	-11.2738
tnm	-11.2746
▁stage	-11.2746
▁(+1	-11.276
▁wood	-11.2762
▁1.1	-11.2764
:58	-11.2765
pra	-11.2767
▁asian	-11.2768
lei	-11.277
hua	-11.2774
wab	-11.2778
▁officer	-11.2783
40%	-11.279
.82	-11.2811
▁tues	-11.2823
▁bmo	-11.2838
ideas	-11.284
dlr	-11.2843
▁bob	-11.2848
venezuela	-11.2851
▁proof	-11.2866
syf	-11.2867
ata	-11.2868
▁ended	-11.2874
ibe	-11.2878
kim	-11.2879
▁kids	-11.288
lex	-11.2886
▁slip	-11.2887
▁8.3	-11.2891
run	-11.2894
corn	-11.29
rrd	-11.2904
amda	-11.2905
swh	-11.2905
▁prove	-11.2915
know	-11.2917
▁kicks	-11.2921
▁leaves	-11.2921
sense	-11.2922
▁reject	-11.2922
26%	-11.2931
è	-11.2939
metric	-11.2943
environment	-11.2943
я	-11.2943
▁discretionary	-11.2943
▁harvest	-11.2943
▁lynch	-11.2943
▁ridiculous	-11.2943
▁traffic	-11.2943
▁concept	-11.2943
▁slump	-11.2943
▁09:59:2	-11.2943
▁enhance	-11.2943
า	-11.2943
▁writing	-11.2943
▁yeah	-11.2944
▁expense	-11.2944
ohrp	-11.2944
▁candle	-11.2945
▁shock	-11.2945
cinf	-11.2946
▁09:5	-11.2947
▁faber	-11.2949
0331	-11.2949
▁tight	-11.295
brd	-11.2952
▁kinder	-11.2954
▁recovery	-11.2954
▁¡	-11.297
▁entre	-11.297
.77%	-11.2971
cce	-11.2978
▁fixed	-11.2978
▁🔥🔥🔥	-11.2984
vvc	-11.2986
▁benefits	-11.2989
dov	-11.2991
▁hain	-11.2998
▁hotel	-11.3003
ctrx	-11.3007
▁flip	-11.3009
▁gol	-11.3015
cms	-11.3033
▁structure	-11.3036
▁pur	-11.3038
come	-11.3039
sgen	-11.304
▁prepar	-11.3045
shar	-11.3045
▁115	-11.3046
pkg	-11.3048
▁ukraine	-11.3048
▁hasn	-11.3053
link	-11.3055
▁faa	-11.3056
▁1,200	-11.3069
fig	-11.3069
tax	-11.3071
mack	-11.3072
pgr	-11.3073
zoo	-11.3085
ezch	-11.3089
poli	-11.3092
▁2010.	-11.31
where	-11.3102
exxonmobil	-11.3106
millionaire	-11.3107
social	-11.3107
driving	-11.3108
rules	-11.311
thefly	-11.3111
eco	-11.3112
wyn	-11.3113
350	-11.3126
wave	-11.3127
icon	-11.313
will	-11.3137
nnn	-11.3138
psa	-11.3145
▁bang	-11.3149
ille	-11.3153
10%	-11.3163
ivv	-11.3166
save	-11.3168
banking	-11.317
▁mention	-11.3178
❤	-11.3193
👌	-11.3193
м	-11.3193
▁candidate	-11.3193
▁clinical	-11.3193
▁construyó	-11.3193
▁perspective	-11.3193
▁petroleum	-11.3193
▁recession	-11.3193
▁turnaround	-11.3193
▁excited	-11.3193
▁license	-11.3193
▁auction	-11.3193
▁require	-11.3193
appleevent	-11.3193
▁مع	-11.3193
▁boston	-11.3193
▁lawyer	-11.3193
▁heinz	-11.3194
▁example	-11.3194
▁laptop	-11.3194
▁shale	-11.3194
▁indicate	-11.3194
▁package	-11.3194
▁rush	-11.3194
holx	-11.3195
nexus	-11.3196
▁glad	-11.3196
▁damn	-11.3197
hottest	-11.3197
▁warns	-11.3197
code	-11.32
▁alone	-11.3201
▁overview	-11.3202
▁fiber	-11.3202
▁12:00	-11.3204
▁2011	-11.3205
agco	-11.3212
▁palo	-11.3214
itek	-11.3216
▁10:00	-11.3218
9.00	-11.3219
ación	-11.3219
▁justice	-11.3222
▁rumored	-11.3226
▁happening	-11.3231
zf	-11.3231
1000	-11.3232
▁~$3	-11.3232
ciones	-11.3236
▁file	-11.3238
4%.	-11.3238
▁lotto	-11.3241
dang	-11.3242
gram	-11.3242
▁conocophillips	-11.3243
born	-11.3244
onvo	-11.3253
800%	-11.3255
fwd	-11.3258
▁bae	-11.326
▁acquired	-11.3262
▁covering	-11.3266
vhc	-11.327
nly	-11.3279
dnb	-11.3286
glass	-11.329
▁makers	-11.3291
▁sellers	-11.3295
xec	-11.3296
▁climb	-11.3297
▁regulator	-11.3298
▁investigation	-11.3308
▁kings	-11.3308
made	-11.3311
idad	-11.3313
aija	-11.3318
banks	-11.332
there	-11.3321
▁row	-11.3321
▁ches	-11.3322
wei	-11.3327
glen	-11.3331
view	-11.335
gci	-11.3363
sgy	-11.3369
hod	-11.3382
fmc	-11.3386
spec	-11.3403
rhi	-11.3409
▁managers	-11.3411
thor	-11.3426
▁107	-11.3428
▁ramp	-11.3432
▁$1.2	-11.3437
avl	-11.3439
aron	-11.3445
djkingassassin	-11.345
▁chipotle	-11.345
▁hathaway	-11.345
▁studio	-11.345
▁entertainment	-11.345
▁africa	-11.345
▁sweep	-11.345
nlnk	-11.345
vgpr	-11.345
participa	-11.345
▁(02:3	-11.345
▁clayton	-11.345
▁method	-11.345
▁respect	-11.345
تمي	-11.345
▁accuse	-11.3451
▁tobacco	-11.3451
craft	-11.3451
hsic	-11.3452
▁$1.4	-11.3452
nia	-11.3456
▁frank	-11.3456
sustainable	-11.3458
lvlt	-11.3459
▁processor	-11.3459
lio	-11.3462
▁nfl	-11.3462
uhs	-11.3464
ö	-11.3467
▁wanted	-11.3468
▁espn	-11.347
▁mentioned	-11.347
▁strengthen	-11.3471
▁bump	-11.3473
▁threaten	-11.3474
idra	-11.3478
wind	-11.3479
ride	-11.3481
.21%	-11.3482
▁crushed	-11.3483
▁perdi	-11.3488
.57%	-11.349
▁reit	-11.3505
cbst	-11.3517
▁transcript	-11.3519
▁14%	-11.3523
▁pact	-11.3525
▁snap	-11.3526
ask	-11.3527
agi	-11.3529
▁nicely	-11.3535
▁comm	-11.3542
▁cold	-11.3543
equi	-11.3543
gang	-11.3552
18%	-11.3555
▁magic	-11.3561
bush	-11.3561
euo	-11.3562
▁teen	-11.3565
▁allergan	-11.3574
bones	-11.3575
sales	-11.3577
cac	-11.3583
▁funny	-11.3586
frt	-11.359
▁argu	-11.3604
trend	-11.3614
80%	-11.3619
▁👉	-11.362
▁aid	-11.3621
once	-11.3637
uga	-11.3637
alb	-11.364
official	-11.364
youtube	-11.3641
comcast	-11.3641
netflix	-11.3641
fuel	-11.3644
spw	-11.3657
aint	-11.3657
vdr	-11.3659
plus	-11.3665
nities	-11.3665
▁¿	-11.3667
dug	-11.367
▁afford	-11.3677
.95	-11.3679
777	-11.3684
53%	-11.3691
▁dips	-11.3695
と	-11.3713
å	-11.3713
ô	-11.3713
▁9:59:2	-11.3713
▁fidelity	-11.3713
▁ichimoku	-11.3713
▁proposal	-11.3713
▁thousand	-11.3713
▁transition	-11.3713
▁senior	-11.3713
▁slightly	-11.3713
▁sterling	-11.3713
▁هذ	-11.3713
▁ruling	-11.3713
▁basically	-11.3714
▁standard	-11.3714
▁brother	-11.3714
▁semana	-11.3714
▁spark	-11.3714
fwp	-11.3715
pvh	-11.3716
▁runner	-11.3718
▁mln	-11.3718
▁directors	-11.3718
▁organi	-11.372
btya	-11.372
pld	-11.3721
▁larry	-11.3722
ctas	-11.3724
stockpicks	-11.3724
▁cutting	-11.3724
swir	-11.3725
cum	-11.3726
labu	-11.3728
mdu	-11.3732
anat	-11.3734
/15)	-11.3735
▁owners	-11.3736
▁direction	-11.3741
aff	-11.3744
erie	-11.3746
▁expir	-11.3754
tfm	-11.3754
paas	-11.3765
2,000	-11.378
wrf	-11.3781
▁ske	-11.3789
8.50	-11.3793
▁needed	-11.3796
2.7	-11.3805
cod	-11.3812
ب	-11.3813
▁peak	-11.382
▁confirmed	-11.3828
daytrader	-11.383
▁2010	-11.3833
:-1.	-11.3842
trill	-11.3842
▁.00	-11.3844
▁promise	-11.3844
400%	-11.3844
team	-11.385
▁mag	-11.3858
beam	-11.3876
▁fees	-11.388
nsm	-11.3882
ugi	-11.3888
▁acquir	-11.3899
bmd	-11.3904
room	-11.3908
rci	-11.3913
family	-11.3917
eck	-11.3918
▁308	-11.3918
global	-11.3919
pfizer	-11.3919
growth	-11.3919
76%	-11.3921
internet	-11.3921
fundamental	-11.3922
field	-11.3923
chkp	-11.394
▁lee	-11.3942
▁lts	-11.3952
depo	-11.3967
meli	-11.397
stu	-11.3974
info	-11.3975
nvo	-11.3977
で	-11.3983
سهم	-11.3983
▁choose	-11.3983
▁ecosystem	-11.3983
▁emylers	-11.3983
▁estimize	-11.3983
▁respond	-11.3983
▁easier	-11.3983
▁viral	-11.3983
fashion	-11.3983
▁install	-11.3984
▁ditch	-11.3984
▁dominance	-11.3984
rfmd	-11.3985
pension	-11.3985
▁vie	-11.3985
▁import	-11.3986
▁profitability	-11.3987
▁105	-11.3988
▁mover	-11.3988
deal	-11.3989
▁flight	-11.399
▁peter	-11.3994
▁día	-11.3995
▁62	-11.3996
:35	-11.3996
▁nail	-11.3998
▁factor	-11.3998
▁targeted	-11.3998
▁constitu	-11.3998
▁exist	-11.4
▁exposed	-11.4
▁lucky	-11.4002
▁proposed	-11.4004
▁99%	-11.4005
▁taken	-11.4005
▁clearly	-11.4008
rdus	-11.401
▁2007	-11.4014
ocn	-11.4015
pbi	-11.4016
lpla	-11.4016
▁promote	-11.4019
utc	-11.404
zar	-11.404
▁serve	-11.4041
sedg	-11.4045
▁$3.2	-11.4056
▁feeling	-11.4058
▁19%	-11.406
▁swap	-11.4062
igt	-11.4066
▁proven	-11.4067
▁poll	-11.407
applepay	-11.4074
goo	-11.4076
bull	-11.4077
▁fir	-11.4079
▁fee	-11.4082
▁extra	-11.4085
hfi	-11.4086
▁explain	-11.4091
rite	-11.4099
dum	-11.4104
ctle	-11.4107
sourcing	-11.4107
spwr	-11.4111
▁lista	-11.4122
mfa	-11.4123
▁118	-11.4126
ships	-11.4135
gern	-11.4137
pho	-11.4138
▁toward	-11.4139
▁$92	-11.4163
1.50	-11.4169
▁hmm	-11.4171
▁240	-11.4176
town	-11.4178
tpx	-11.4188
umab	-11.419
▁subsid	-11.4193
aced	-11.4196
trump	-11.4203
merger	-11.4203
opportunity	-11.4204
▁funding	-11.4205
marketing	-11.4215
▁arrive	-11.4215
write	-11.4216
antm	-11.4217
ocr	-11.4228
asti	-11.425
atr	-11.4256
ز	-11.4258
▁chrome	-11.4261
ä	-11.4261
distribution	-11.4261
у	-11.4261
▁aristocrat	-11.4261
▁attempt	-11.4261
▁collapse	-11.4261
▁diversity	-11.4261
▁sanctions	-11.4261
▁18:00:05:	-11.4261
▁sponsor	-11.4261
😊	-11.4261
▁brokerages	-11.4261
▁rosner	-11.4261
rcpt	-11.4261
shoutout	-11.4261
ล	-11.4261
▁airbus	-11.4261
▁digest	-11.4261
▁kbw	-11.4261
falcon	-11.4261
zbra	-11.4261
▁surpass	-11.4261
eqr	-11.4261
▁commission	-11.4262
greek	-11.4262
▁aircraft	-11.4262
ential	-11.4262
▁inflow	-11.4262
broadcast	-11.4262
▁gapped	-11.4262
graham	-11.4263
pennies	-11.4263
▁scale	-11.4263
▁biogen	-11.4263
▁contact	-11.4263
error	-11.4264
▁spill	-11.4264
-12	-11.4265
ocean	-11.4265
▁stalk	-11.4266
▁navy	-11.4267
zmh	-11.427
▁caught	-11.427
lltc	-11.4271
front	-11.4272
▁text	-11.4277
buff	-11.4281
▁greater	-11.4282
▁winter	-11.4285
▁handle	-11.4287
aee	-11.4288
▁3,500	-11.4289
glng	-11.4295
▁flu	-11.4296
sugar	-11.4304
trailing	-11.4306
▁hedged	-11.4309
vno	-11.4311
▁12:0	-11.4313
▁flop	-11.4314
tdg	-11.432
hville	-11.4325
▁ranking	-11.4326
▁minimum	-11.4336
▁alex	-11.4341
ntrs	-11.4342
▁fails	-11.4344
▁parabolic	-11.4346
burg	-11.4356
fti	-11.4364
pasa	-11.4381
www	-11.4386
▁163	-11.4394
▁stronger	-11.4394
▁claim	-11.4396
stoc	-11.4396
▁insight	-11.4398
135	-11.4398
nrz	-11.4415
▁loan	-11.4415
trp	-11.4422
rated	-11.4425
▁lies	-11.4427
▁lesson	-11.4436
ttwo	-11.4445
cnat	-11.4447
fine	-11.446
▁words	-11.4488
biosimilar	-11.4496
related	-11.4497
ross	-11.4497
whatsapp	-11.4499
bearish	-11.4499
gar	-11.4507
ón	-11.4509
20,000	-11.4512
▁critic	-11.4516
▁dive	-11.4517
rier	-11.4519
ook	-11.4531
csk	-11.4538
▁weighs	-11.4538
jamie	-11.4539
▁electronics	-11.4543
gool	-11.4546
。	-11.4546
る	-11.4547
ł	-11.4547
─♬─♬	-11.4547
;#39;	-11.4547
followtrick	-11.4547
hepatitis	-11.4547
▁beautiful	-11.4547
▁french	-11.4547
▁petróleo	-11.4547
▁subject	-11.4547
▁succeed	-11.4547
▁xiaomi	-11.4547
▁8:59:2	-11.4547
▁uranium	-11.4547
▁eagle	-11.4547
▁maraca	-11.4547
▁built	-11.4547
▁disease	-11.4547
▁therapy	-11.4547
▁choice	-11.4547
▁pilot	-11.4547
▁beginning	-11.4547
▁regard	-11.4547
▁amount	-11.4547
airbnb	-11.4547
▁foreign	-11.4547
ร	-11.4547
▁robert	-11.4547
▁television	-11.4547
beginners	-11.4547
▁speculation	-11.4548
▁valeant	-11.4549
▁beef	-11.4549
▁neutrality	-11.455
▁float	-11.455
▁kindle	-11.4552
dnr	-11.4552
▁bargain	-11.4553
▁strat	-11.4553
▁hackers	-11.4553
mur	-11.4553
▁ticket	-11.4556
miento	-11.4556
swet	-11.4557
▁somehow	-11.4557
food	-11.456
▁seat	-11.4562
betting	-11.4572
▁payout	-11.4576
adtn	-11.458
▁pour	-11.4583
pgol	-11.4585
cbsh	-11.4587
▁nahi	-11.4596
unm	-11.4602
cim	-11.4604
123	-11.4608
avx	-11.461
msg	-11.4618
433	-11.4634
adep	-11.4639
▁cdn	-11.4644
▁vp	-11.4652
bwa	-11.4663
cbg	-11.4669
47%	-11.4673
xpo	-11.4674
zen	-11.4674
infy	-11.4689
nny	-11.4691
hour	-11.4701
▁insights	-11.4701
▁ibo	-11.4704
amg	-11.4712
▁towards	-11.4715
slm	-11.4719
▁regulators	-11.4719
▁powered	-11.472
crl	-11.4728
▁advances	-11.4734
seller	-11.4735
400	-11.4736
nite	-11.4738
▁holders	-11.4744
▁2,100	-11.4745
▁fib	-11.4756
▁fbr	-11.4766
lnt	-11.4769
ور	-11.477
dna	-11.4781
mpr	-11.4786
▁listo	-11.479
johnson	-11.4802
▁dias	-11.4803
great	-11.4804
job	-11.4815
▁merge	-11.4825
other	-11.4828
report	-11.4831
pharmaceutical	-11.4836
ology	-11.4836
が	-11.4841
📱	-11.4841
▁department	-11.4841
▁territory	-11.4841
▁calculat	-11.4841
▁sheryl	-11.4841
▁nlightn	-11.4841
▁survive	-11.4841
に	-11.4841
señal	-11.4841
อ	-11.4841
▁lunch	-11.4841
bridge	-11.4841
▁manufacturers	-11.4841
tgif	-11.4842
▁sigue	-11.4842
▁titan	-11.4843
▁jay	-11.4843
▁jimmy	-11.4843
▁wife	-11.4844
▁absolutely	-11.4844
newyear	-11.4845
▁camera	-11.4845
lii	-11.4845
▁shire	-11.4847
ified	-11.4847
alsn	-11.4848
▁freestyle	-11.4848
likeit	-11.4848
shorting	-11.4849
▁export	-11.4851
▁reform	-11.4851
43%	-11.4853
udr	-11.4853
▁quickly	-11.4859
▁pago	-11.4861
cni	-11.4867
stld	-11.4868
▁denie	-11.4871
cscoq	-11.488
▁bitch	-11.4884
wti	-11.4887
anss	-11.4888
▁cloth	-11.489
▁erase	-11.489
▁scare	-11.4896
orders	-11.4904
▁lil	-11.4906
▁+$1	-11.4907
▁boo	-11.491
7.1%	-11.491
socl	-11.4921
ddr	-11.4924
hmy	-11.4927
▁banne	-11.4928
1.8%	-11.4931
▁wasn	-11.4939
▁van	-11.4956
sfun	-11.4968
▁cast	-11.4969
▁appear	-11.4979
rsg	-11.4982
jll	-11.4982
qas	-11.4985
▁kay	-11.4986
▁supplier	-11.4992
atk	-11.4995
▁topping	-11.5001
39%	-11.501
▁+7	-11.5011
9.50	-11.5015
omc	-11.502
▁slips	-11.5027
anz	-11.503
▁listening	-11.5039
ovas	-11.5044
▁strikes	-11.5051
self	-11.5054
stockalert	-11.5062
bomb	-11.5072
rza	-11.5079
▁112	-11.508
luk	-11.5081
roc	-11.5084
▁schedule	-11.5097
¡	-11.5111
neutral	-11.5114
count	-11.5115
yahoo	-11.5115
yang	-11.5117
position	-11.5117
value	-11.5118
▁macd	-11.5126
mrc	-11.5141
oww	-11.5142
folio	-11.5144
☆	-11.5144
diabetes	-11.5144
ħ	-11.5144
▁12:59:2	-11.5144
▁anticipati	-11.5144
▁apparently	-11.5144
▁fitzgerald	-11.5144
▁insurance	-11.5144
▁register	-11.5144
▁stellar	-11.5144
▁uncertainty	-11.5144
▁cierre	-11.5144
▁lumia	-11.5144
▁adviser	-11.5144
▁palbo	-11.5144
▁preferred	-11.5144
▁08:00:04:	-11.5144
wwav	-11.5144
▁premier	-11.5144
▁samples	-11.5144
▁takeaways	-11.5144
▁remove	-11.5144
▁turkey	-11.5144
gntx	-11.5144
▁tumble	-11.5144
▁violat	-11.5144
▁exploration	-11.5145
rlyp	-11.5145
▁film	-11.5146
▁frente	-11.5146
voya	-11.5146
▁items	-11.5146
ague	-11.5146
▁housing	-11.5147
sivb	-11.5147
▁immuno	-11.5148
lago	-11.5149
▁sotp	-11.515
▁hook	-11.5151
▁107.50	-11.5151
▁vice	-11.5163
▁hbo	-11.5169
syna	-11.5171
▁rsi	-11.5176
bee	-11.518
lll	-11.5183
▁rare	-11.5183
fmcc	-11.5184
320	-11.5187
4,000	-11.5198
ghc	-11.5215
mtd	-11.5223
bonds	-11.5226
▁:(	-11.5226
fill	-11.5231
mlm	-11.5238
rapping	-11.5244
qep	-11.5256
=2	-11.526
ghl	-11.5262
travis	-11.5278
▁$2.6	-11.5279
itus	-11.5293
én	-11.5295
▁appears	-11.5297
500%	-11.5302
action	-11.5303
▁mistake	-11.5305
bxp	-11.5305
▁detail	-11.5306
▁shown	-11.532
▁climbs	-11.5327
▁akin	-11.5328
▁arch	-11.5337
calls	-11.534
pect	-11.5344
▁replac	-11.535
hii	-11.5374
▁semi	-11.5377
fds	-11.5387
▁whoa	-11.5393
▁scott	-11.5394
round	-11.5397
care	-11.5417
280	-11.5422
$44	-11.5428
headlines	-11.5435
current	-11.5436
liver	-11.5444
ewt	-11.5446
sykes	-11.5448
exxon	-11.545
▁trick	-11.5451
・	-11.5456
centralbank	-11.5456
optionoppotu	-11.5456
▁04:59:2	-11.5456
▁bernardino	-11.5456
▁coffee	-11.5456
▁experiment	-11.5456
▁historia	-11.5456
▁hundred	-11.5456
▁initiative	-11.5456
▁malaysia	-11.5456
▁military	-11.5456
▁steady	-11.5456
▁volatile	-11.5456
▁workforce	-11.5456
▁7:59:2	-11.5456
▁integrate	-11.5456
▁leaving	-11.5456
▁skyworks	-11.5456
▁thrill	-11.5456
▁empire	-11.5456
▁dirty	-11.5456
▁yuan	-11.5456
▁father	-11.5457
▁claytrader	-11.5457
▁sandberg	-11.5457
inequality	-11.5457
▁armour	-11.5457
▁;-)	-11.5457
enzn	-11.5458
▁effective	-11.5458
▁title	-11.5458
ekn	-11.5458
▁bidding	-11.5459
▁richest	-11.546
▁trailer	-11.546
▁reminder	-11.546
▁spectr	-11.5462
quot	-11.5462
▁predictions	-11.5465
▁pack	-11.5465
▁discovery	-11.5465
▁108.00	-11.5466
amag	-11.5466
شرك	-11.5466
▁scalp	-11.5467
▁janet	-11.5468
▁secure	-11.5468
▁bcv	-11.5469
anet	-11.5472
jbl	-11.5472
page	-11.5474
▁performers	-11.5477
▁explained	-11.5479
fnsr	-11.548
▁affected	-11.5484
celh	-11.5489
▁lately	-11.549
▁drinking	-11.5492
cxo	-11.5495
rtrx	-11.5497
tiny	-11.5499
mlnx	-11.55
chen	-11.5501
▁paul	-11.5501
▁whi	-11.5501
▁2004	-11.5503
▁bout	-11.5507
▁tuned	-11.552
49%	-11.5525
proxy	-11.553
▁delta	-11.5532
dbd	-11.5533
isr	-11.5535
.02%	-11.5535
▁alto	-11.5568
stag	-11.557
khy	-11.5571
▁mall	-11.5572
vmi	-11.5591
wlt	-11.5615
cobi	-11.5621
▁focused	-11.5625
dei	-11.5639
fnf	-11.5639
▁highlight	-11.5642
upl	-11.5675
cnh	-11.5685
ification	-11.569
▁renew	-11.5693
peake	-11.5695
ري	-11.5703
▁introduc	-11.5712
cyh	-11.5713
avb	-11.5737
ambs	-11.5754
salt	-11.5767
mixtape	-11.5767
▁joke	-11.5768
privacy	-11.5769
download	-11.5769
▁tiene	-11.5769
strategies	-11.577
cancer	-11.5771
trust	-11.5773
▁careful	-11.5775
▁collect	-11.5778
with	-11.5778
ん	-11.5779
💸	-11.5779
٠	-11.5779
alexandria	-11.5779
▁01:59:2	-11.5779
▁03:59:2	-11.5779
▁associates	-11.5779
▁surprising	-11.5779
▁vehicle	-11.5779
lithium	-11.5779
э	-11.5779
▁obvious	-11.5779
ê	-11.5779
▁normal	-11.5779
▁swift	-11.5779
▁improving	-11.5779
whisper	-11.5779
▁neuro	-11.5779
cmcsk	-11.5779
♥♥♥	-11.578
▁sports	-11.578
mnga	-11.578
rpai	-11.578
dirv	-11.578
▁unexpected	-11.5781
▁popping	-11.5781
▁hacerl	-11.5781
▁smoke	-11.5781
▁danger	-11.5781
bankof	-11.5781
tradingsignal	-11.5782
cenx	-11.5785
▁cheers	-11.5786
▁1980	-11.5786
psec	-11.5786
ggg	-11.5788
76.00	-11.5789
inventories	-11.5791
monday	-11.5791
arwr	-11.5796
▁busy	-11.5796
fitness	-11.5797
mdrx	-11.5797
grind	-11.5799
▁prefer	-11.58
▁generated	-11.5801
▁soport	-11.5807
▁developing	-11.5819
▁chill	-11.5823
▁scheduled	-11.5829
▁scam	-11.5831
▁disappointing	-11.5832
jet	-11.5833
prta	-11.5834
ymx	-11.5835
wlk	-11.5839
pool	-11.5845
cnet	-11.5847
additional	-11.5849
petm	-11.5851
,300	-11.5854
alny	-11.5856
▁holder	-11.5863
▁119	-11.5869
▁approved	-11.5877
▁discover	-11.5902
apo	-11.5914
▁2001	-11.5919
demos	-11.5933
arry	-11.5936
▁confirm	-11.594
anti	-11.5945
alert	-11.595
▁8.5	-11.5952
▁shine	-11.5957
skt	-11.5959
cann	-11.5966
iowa	-11.5978
kro	-11.5987
state	-11.5988
qre	-11.5999
cdns	-11.6004
5,000	-11.6013
▁continued	-11.6023
kill	-11.6033
gnx	-11.6039
cult	-11.604
bill	-11.6054
iness	-11.6056
bone	-11.6057
covered	-11.607
hand	-11.6079
ldn	-11.6093
amos	-11.6093
▁train	-11.6107
سبوع	-11.611
ص	-11.611
😭	-11.6112
mountain	-11.6112
🅾	-11.6112
▁($115)	-11.6112
▁2:59:2	-11.6112
▁barrick	-11.6112
▁confidence	-11.6112
▁merchant	-11.6112
▁milestone	-11.6112
▁physical	-11.6112
î	-11.6112
̸	-11.6112
п	-11.6112
→	-11.6112
▁atlanta	-11.6112
▁keurig	-11.6112
▁prospects	-11.6112
▁statistics	-11.6112
cmrx	-11.6112
▁coupon	-11.6112
▁complain	-11.6112
🙌👏	-11.6112
▁frame	-11.6112
▁resume	-11.6112
pbct	-11.6112
▁gobble	-11.6112
▁lending	-11.6113
tinder	-11.6113
▁monetiz	-11.6113
▁brought	-11.6113
▁collection	-11.6114
💰💰	-11.6114
▁biopharma	-11.6114
mygn	-11.6114
stwd	-11.6116
▁jason	-11.6116
▁riding	-11.6117
•	-11.6117
hcbk	-11.6119
▁114	-11.612
▁diff	-11.6121
▁regal	-11.6122
▁blame	-11.6123
maawa	-11.6123
▁omg	-11.6128
ewi	-11.6129
chh	-11.613
▁seasonal	-11.613
ewq	-11.6135
idti	-11.6136
▁subscriber	-11.6137
▁thesis	-11.6139
beav	-11.6147
29%	-11.6152
▁twi	-11.6152
▁smarter	-11.6155
▁$1.1	-11.6155
▁cheaply	-11.6167
wuba	-11.617
▁til	-11.6173
▁donate	-11.6174
word	-11.6175
empra	-11.6178
lpi	-11.6191
vtv	-11.6194
ppin	-11.6196
lif	-11.6198
enh	-11.6203
▁17%	-11.6212
efx	-11.622
▁revamp	-11.6223
jec	-11.6227
▁expanding	-11.6229
anth	-11.6234
▁gro	-11.6243
cdw	-11.6246
1.01	-11.6249
30.00	-11.625
hain	-11.6254
▁technically	-11.6263
147	-11.6268
▁127	-11.627
▁learned	-11.6272
▁1,20	-11.6299
▁creat	-11.6304
▁dent	-11.6308
priv	-11.6311
20.00	-11.632
hcc	-11.6332
gbx	-11.6341
mlp	-11.636
vip	-11.6362
▁known	-11.6376
extr	-11.6389
60%	-11.6395
who	-11.6397
96%	-11.6398
32%	-11.6402
▁dma	-11.6408
rich	-11.6417
▁announc	-11.6418
rdc	-11.6422
▁indian	-11.6437
joe	-11.6442
cision	-11.6451
/29	-11.6452
▁revolution	-11.6455
た	-11.6457
wearabletech	-11.6457
corpgov	-11.6457
explosive	-11.6457
▁correlation	-11.6457
▁florida	-11.6457
▁hurdle	-11.6457
▁integration	-11.6457
▁revlimid	-11.6457
▁variation	-11.6457
▁فرص	-11.6457
💜	-11.6457
chicago	-11.6457
productivity	-11.6457
ì	-11.6457
й	-11.6457
▁4:59:2	-11.6457
▁awareness	-11.6457
▁bristol	-11.6457
▁desktop	-11.6457
▁knock	-11.6457
▁emotion	-11.6457
เ	-11.6457
▁indices	-11.6457
jbht	-11.6457
▁humira	-11.6457
▁basis	-11.6458
jjc	-11.6458
▁tiger	-11.6458
▁50,600%	-11.646
tdey	-11.646
▁sweeten	-11.646
xlrn	-11.6461
cybersecurity	-11.6461
▁grid	-11.6462
stat	-11.6463
▁tsmc	-11.6467
▁beast	-11.6468
deo	-11.647
retirement	-11.6471
imgn	-11.6473
▁panel	-11.6473
sector	-11.6473
hedge	-11.6476
▁australian	-11.6481
pdm	-11.6482
▁fyi	-11.6482
storm	-11.6483
csl	-11.6488
cfn	-11.6489
▁deben	-11.649
enter	-11.6491
close	-11.6495
class	-11.6498
rgp	-11.6502
▁iger	-11.6504
▁wester	-11.6518
▁csi	-11.652
photo	-11.6524
▁fewer	-11.6532
from	-11.6541
unis	-11.6542
▁lleg	-11.6543
▁mines	-11.6557
يه	-11.656
iei	-11.6561
tdc	-11.6567
apam	-11.6569
▁indexes	-11.657
▁assign	-11.6571
appf	-11.6582
etics	-11.6589
00.00	-11.6591
ahl	-11.66
1:00	-11.6605
nsr	-11.6608
afm	-11.6615
9.9	-11.662
▁queda	-11.6626
pff	-11.6628
have	-11.6635
orex	-11.6645
▁investigat	-11.6652
įt	-11.6658
▁strangle	-11.6663
▁1.4	-11.667
acas	-11.668
jr	-11.6696
nvr	-11.6737
faz	-11.6741
greatest	-11.6767
gasl	-11.6775
▁releas	-11.6777
cala	-11.6781
ela	-11.6784
▁está	-11.6785
xone	-11.6785
▁repeat	-11.6794
ã	-11.6802
financ	-11.6802
126	-11.6805
▁german	-11.6805
は	-11.6814
😉	-11.6814
▁nakaka	-11.6814
podcast	-11.6814
republic	-11.6814
wellsfargo	-11.6814
▁chambers	-11.6814
▁jimmybob	-11.6814
caucus	-11.6814
▁bunch	-11.6814
▁laugh	-11.6814
▁shoppers	-11.6814
▁verified	-11.6814
▁protest	-11.6814
▁commodity	-11.6814
▁password	-11.6815
▁campus	-11.6815
▁pitch	-11.6815
▁consolidation	-11.6815
▁crown	-11.6815
▁label	-11.6815
كو	-11.6815
▁renewable	-11.6816
▁(8-	-11.6817
▁imho	-11.6819
plicate	-11.6823
sohu	-11.6823
▁detected	-11.6827
hero	-11.6828
▁alot	-11.6831
compton	-11.6832
▁halted	-11.6832
perform	-11.6833
▁450%	-11.6837
▁appeared	-11.6838
pnr	-11.684
child	-11.6842
success	-11.6842
citigroup	-11.6843
products	-11.6844
silver	-11.6847
▁crowded	-11.6847
rterjones	-11.6848
▁clo	-11.6848
▁$1.6	-11.6849
space	-11.685
million	-11.685
paid	-11.6852
amgen	-11.6856
safe	-11.6858
▁approaching	-11.686
ccj	-11.686
▁filled	-11.6862
layoffs	-11.6863
gwr	-11.6865
▁delivered	-11.6865
peix	-11.6873
mtl	-11.6879
▁787	-11.6879
weekly	-11.6904
rou	-11.6908
puge	-11.691
uti	-11.6914
finl	-11.6916
porque	-11.6923
94%	-11.694
rovi	-11.6951
acg	-11.6963
▁realize	-11.6966
ldr	-11.698
quin	-11.6981
bln	-11.6989
▁117	-11.6991
80.00	-11.6995
74%	-11.7015
▁$110	-11.7016
78%	-11.7018
▁crap	-11.7037
▁+8.	-11.7038
▁-4.	-11.7046
▁570	-11.7054
ugge	-11.7062
▁bag	-11.7063
lung	-11.7063
194	-11.7068
conn	-11.7071
▁fest	-11.7075
▁cae	-11.7077
▁miner	-11.7096
isa	-11.71
hme	-11.7107
fare	-11.7114
prx	-11.7119
▁uno	-11.7136
81%	-11.7141
▁finish	-11.7165
hilo	-11.7168
ま	-11.7184
♡	-11.7184
marijuana	-11.7185
▁07:59:2	-11.7185
▁diversified	-11.7185
▁doubling	-11.7185
▁dupont	-11.7185
▁explanation	-11.7185
▁guarantee	-11.7185
▁macquarie	-11.7185
▁mexican	-11.7185
▁speech	-11.7185
▁streak	-11.7185
▁transportation	-11.7185
▁washington	-11.7185
♕	-11.7185
🆒	-11.7185
🚀	-11.7185
financiers	-11.7185
▁suppose	-11.7185
ก	-11.7185
nlsn	-11.7185
worldcup	-11.7185
х	-11.7185
▁keynote	-11.7185
▁patria	-11.7185
▁exciting	-11.7185
ッ	-11.7185
▁headquarters	-11.7185
▁stuck	-11.7185
▁twitch	-11.7185
jmei	-11.7185
holmes	-11.7185
utterfly	-11.7185
ibkr	-11.7185
▁argentina	-11.7185
▁resist	-11.7185
▁defensive	-11.7185
▁oferta	-11.7185
▁criminal	-11.7185
▁generic	-11.7186
▁burger	-11.7186
▁argument	-11.7186
▁charm	-11.7186
▁unhappy	-11.7186
▁vital	-11.7187
tube	-11.7187
inflation	-11.7187
▁compensat	-11.7187
▁capacit	-11.7188
▁termino	-11.7188
israel	-11.7188
▁texas	-11.7189
2.4%	-11.7189
▁brick	-11.719
▁rocket	-11.719
▁topics	-11.719
▁formula	-11.7192
breakthrough	-11.7192
▁comeback	-11.7193
▁11:4	-11.7196
▁epic	-11.7199
▁jury	-11.72
btg	-11.7201
▁significantly	-11.7204
moore	-11.7204
upip	-11.7205
▁shrinking	-11.7205
acrx	-11.7209
▁lilly	-11.7211
cytr	-11.7211
teamf	-11.7217
▁candlestick	-11.7217
gpor	-11.7218
patent	-11.7227
dsw	-11.7227
fraud	-11.7227
▁pile	-11.7229
▁predicting	-11.7231
crime	-11.7237
amcf	-11.7238
▁valeur	-11.724
super	-11.724
bpop	-11.7252
trending	-11.7263
▁slowing	-11.7276
▁bankers	-11.7292
5.6	-11.7308
▁upper	-11.731
byi	-11.7319
plc	-11.7341
.04%	-11.7343
▁gun	-11.7352
4.50	-11.7355
fnv	-11.7362
nasd	-11.7364
rga	-11.7366
slim	-11.7371
▁shi	-11.738
xyl	-11.7381
rbc	-11.7386
enr	-11.7404
▁baja	-11.7426
tues	-11.7438
gaap	-11.7478
fix	-11.7507
.93%	-11.7512
acor	-11.7518
.055	-11.7536
▁bumpin	-11.7538
aiz	-11.7547
▁!"	-11.7555
mjn	-11.7557
اسبوع	-11.7569
▁wmi	-11.7569
luxury	-11.7569
takethisbet	-11.7569
ȼ	-11.7569
▁08:59:2	-11.7569
▁advertisers	-11.7569
▁college	-11.7569
▁condition	-11.7569
▁especially	-11.7569
▁population	-11.7569
▁practice	-11.7569
▁property	-11.7569
▁regulation	-11.7569
▁triangle	-11.7569
▁worries	-11.7569
▁yamasuta	-11.7569
▁zynga	-11.7569
👀	-11.7569
💥	-11.7569
🔊	-11.7569
🙏	-11.7569
myeloma	-11.7569
▁5:59:2	-11.7569
▁browser	-11.7569
▁franchise	-11.7569
▁immelt	-11.7569
▁resultados	-11.7569
▁definite	-11.7569
🔫	-11.7569
▁superior	-11.7569
british	-11.7569
elliott	-11.7569
▁unlimited	-11.7569
▁flaw	-11.7569
ス	-11.7569
▁confident	-11.7569
▁doctor	-11.7569
▁memory	-11.7569
▁scanner	-11.7569
gasoline	-11.7569
▁burst	-11.7569
▁talent	-11.7569
ม	-11.7569
▁transfer	-11.7569
▁deposit	-11.7569
▁fantastic	-11.757
dasty	-11.757
▁reply	-11.757
▁admit	-11.757
▁tencent	-11.757
▁unique	-11.757
▁andrew	-11.757
▁emerge	-11.757
▁salud	-11.7571
aegr	-11.7571
▁lmao	-11.7572
▁division	-11.7572
▁1982	-11.7572
▁truck	-11.7572
lkq	-11.7573
lay	-11.7573
mdbx	-11.7574
▁restructuring	-11.7574
ocls	-11.7575
immune	-11.7577
▁yourself	-11.7578
warrenbuffett	-11.7578
tmhc	-11.758
88%	-11.7581
ão	-11.7583
moneywatch	-11.7584
innovative	-11.7585
bolsa	-11.7586
▁dé	-11.7588
0.03	-11.7591
▁output	-11.7591
▁truly	-11.7591
▁cannot	-11.7595
penny	-11.7605
cube	-11.7606
▁tanker	-11.7607
▁copa	-11.761
▁unveiled	-11.7613
morph	-11.7619
▁searches	-11.7623
expected	-11.7625
▁gay	-11.7626
screen	-11.7626
innovation	-11.7626
ought	-11.7627
daily	-11.7628
dream	-11.7628
endo	-11.7629
obama	-11.763
moving	-11.763
early	-11.7632
▁spur	-11.7638
adro	-11.7639
401	-11.7651
wtr	-11.7654
htc	-11.7656
nycb	-11.766
▁$600,00	-11.7661
tlf	-11.7666
7.9	-11.7677
5:00	-11.7679
aya	-11.768
▁catche	-11.7683
meip	-11.7684
rath	-11.7686
ival	-11.7691
boot	-11.7695
chip	-11.7696
▁cite	-11.7698
ural	-11.7698
keep	-11.771
aiv	-11.7712
viz	-11.7717
▁pushe	-11.7725
amig	-11.7734
▁paga	-11.7741
asps	-11.7742
twit	-11.7743
▁stunn	-11.7747
habt	-11.7758
56%	-11.776
▁dept	-11.7778
3.0	-11.7787
ski	-11.7794
cvi	-11.7803
boh	-11.7805
roth	-11.7819
raction	-11.7825
▁result	-11.783
18+	-11.7834
gale	-11.7834
54%	-11.7837
~~	-11.7847
▁1,500	-11.7854
.05%	-11.7859
ayi	-11.7866
produc	-11.7866
mpel	-11.7888
arw	-11.7892
future	-11.7894
▁sweet	-11.79
ough	-11.7912
ogen	-11.7913
ية	-11.7917
نا	-11.7927
brand	-11.7942
▁table	-11.7944
▁mano	-11.7946
14%	-11.7949
▁gal	-11.7956
positiv	-11.7968
argentin	-11.7969
😁	-11.7969
-08:00	-11.7969
nuclear	-11.7969
▁05:59:2	-11.7969
▁bonanza	-11.7969
▁derivatives	-11.7969
▁dramatically	-11.7969
▁empresa	-11.7969
▁equipment	-11.7969
▁mentiras	-11.7969
▁petrochina	-11.7969
▁petroleo	-11.7969
▁portfoliobuzz	-11.7969
▁professional	-11.7969
▁resorts	-11.7969
▁themselves	-11.7969
💟	-11.7969
▁1:59:2	-11.7969
▁cautious	-11.7969
▁charging	-11.7969
▁rabbit	-11.7969
▁hewlett	-11.7969
▁supreme	-11.7969
▁wrote	-11.7969
▁1986.	-11.7969
▁obamacare	-11.7969
adjusted	-11.7969
munster	-11.7969
wafd	-11.797
frak	-11.797
random	-11.797
▁steel	-11.797
▁disclose	-11.797
▁odds	-11.797
▁headphone	-11.7971
cavm	-11.7971
▁avago	-11.7971
▁rough	-11.7972
▁everybody	-11.7972
▁villa	-11.7973
▁stepping	-11.7975
uble	-11.7978
▁2.5%	-11.7979
▁status	-11.7979
▁compan	-11.7983
▁brian	-11.7984
gotrade	-11.7985
placements	-11.7985
▁fever	-11.7986
▁login	-11.7986
mcrs	-11.7988
▁btw	-11.799
ewc	-11.7991
▁finished	-11.7991
▁2020	-11.8001
disruptive	-11.8006
▁yell	-11.8007
▁debe	-11.8009
▁raid	-11.801
▁wire	-11.8011
▁epa	-11.8013
▁lowest	-11.8022
mdco	-11.8033
▁halt	-11.8037
mill	-11.8037
urg	-11.8038
¿	-11.804
lord	-11.804
correct	-11.8041
hts	-11.8042
happy	-11.8042
russell	-11.8043
opinion	-11.8043
charge	-11.8043
خ	-11.8044
oracle	-11.8044
demand	-11.8044
jpmorgan	-11.8044
friend	-11.8046
merck	-11.8049
while	-11.805
rupt	-11.8054
▁plunged	-11.8054
▁slash	-11.8056
0.75	-11.8062
atw	-11.8067
fail	-11.8072
▁parte	-11.8078
hof	-11.8078
pinto	-11.8088
.62%	-11.8096
wcp	-11.811
aja	-11.813
uuu	-11.8143
agro	-11.8148
9.99	-11.8149
5.0	-11.8169
aska	-11.8175
locking	-11.8179
dxg	-11.8187
▁skin	-11.8192
3.2%	-11.8195
▁-1.1	-11.8213
taxi	-11.823
▁solution	-11.8235
دا	-11.8239
300%	-11.8249
omen	-11.8269
robo	-11.8271
2/15	-11.8272
205	-11.8278
250,	-11.8291
▁hace	-11.8293
barc	-11.8306
nvc	-11.8335
bond	-11.8346
adopt	-11.8347
lwr	-11.8354
delivering	-11.8357
121	-11.8369
lanc	-11.8376
▁custom	-11.8377
て	-11.8386
awh	-11.8386
🎵	-11.8386
packard	-11.8386
vlkay	-11.8386
توصيات	-11.8386
₩	-11.8386
▁alternative	-11.8386
▁audience	-11.8386
▁divergence	-11.8386
▁historical	-11.8386
▁implications	-11.8386
▁mannkind	-11.8386
▁marathon	-11.8386
▁narrow	-11.8386
▁reflect	-11.8386
▁regeneron	-11.8386
▁regimen	-11.8386
▁relevant	-11.8386
▁southwest	-11.8386
▁studies	-11.8386
▁sunedison	-11.8386
▁taylor	-11.8386
▁unknown	-11.8386
▁القادم	-11.8386
🎧	-11.8386
💞	-11.8386
📲	-11.8386
▁eventually	-11.8386
😩	-11.8386
▁unload	-11.8386
compelling	-11.8386
▁simply	-11.8386
cannabis	-11.8386
inversión	-11.8386
イ	-11.8386
globe	-11.8386
▁altera	-11.8386
🏆🏆	-11.8386
▁2/10	-11.8386
▁scoop	-11.8386
▁dangerous	-11.8386
▁adobe	-11.8387
▁11:11:1	-11.8387
▁8:30	-11.8387
▁arrest	-11.8387
pass	-11.8387
jbem	-11.8387
eeeee	-11.8387
▁cameron	-11.8387
▁angelo	-11.8388
▁ví	-11.8389
trmx	-11.839
moneygang	-11.839
ند	-11.8391
rvor	-11.8391
▁suite	-11.8391
bsac	-11.8393
لم	-11.8397
▁wake	-11.8398
▁viper	-11.8398
pacb	-11.8398
▁115.00	-11.84
wbmd	-11.8402
$$$$$$	-11.8402
▁dios	-11.8406
▁however	-11.8409
slca	-11.8409
▁fedex	-11.8412
▁1/3	-11.8413
aveo	-11.8415
wdr	-11.8417
▁11:00	-11.8418
▁rejected	-11.8421
▁musk	-11.8424
▁100.000	-11.8426
▁85%	-11.8428
▁locked	-11.843
▁station	-11.8432
▁cities	-11.8434
track	-11.8437
▁bash	-11.8438
▁cada	-11.8446
▁fueled	-11.8447
awakens	-11.8449
gpn	-11.8463
picks	-11.8465
!!!!!!!!!!	-11.8468
06.50	-11.8468
▁rain	-11.8471
▁shin	-11.8472
itunes	-11.8476
spreads	-11.8478
lockheed	-11.8478
fuck	-11.8479
strong	-11.8479
general	-11.8479
debt	-11.8485
snap	-11.8497
mobi	-11.8507
carol	-11.8514
▁ameri	-11.854
ewm	-11.8545
5.50	-11.859
inta	-11.8591
▁robar	-11.8595
celebr	-11.8605
▁certain	-11.8608
kmt	-11.861
anip	-11.8618
0.63	-11.8618
emes	-11.8653
hmc	-11.8662
550	-11.8665
abi	-11.8676
1.27	-11.8682
expr	-11.869
total	-11.8722
▁$115	-11.873
▁bug	-11.8758
ayoff	-11.8763
mcdonald	-11.8782
59%	-11.8785
▁freakin	-11.8795
order	-11.8795
▁shrink	-11.8796
mtu	-11.8802
night	-11.8808
istan	-11.8814
▁manage	-11.8817
ville	-11.8818
hursday	-11.8819
も	-11.882
す	-11.882
♪	-11.882
ū	-11.882
▁congratulat	-11.8821
▁pichai	-11.8821
▁terrorist	-11.8821
ausbiz	-11.8821
corruption	-11.8821
entrepreneur	-11.8821
immunotherapy	-11.8821
mercados	-11.8821
▁canaccord	-11.8821
▁detroit	-11.8821
▁engagement	-11.8821
▁exploding	-11.8821
▁outstanding	-11.8821
▁petition	-11.8821
▁régimen	-11.8821
▁struggling	-11.8821
▁utility	-11.8821
🅰	-11.8821
💌	-11.8821
▁unlikely	-11.8821
🎥	-11.8821
ƒ	-11.8821
▁$92.70	-11.8821
▁overbought	-11.8821
▁scanning	-11.8821
▁retrace	-11.8821
été	-11.8821
▁rotation	-11.8821
▁hammer	-11.8821
▁submit	-11.8821
infographic	-11.8821
▁+$2,	-11.8821
▁facilit	-11.8821
▁outflow	-11.8821
football	-11.8821
ção	-11.8821
pzza	-11.8821
▁blockbuster	-11.8821
vuzi	-11.8821
▁educational	-11.8821
▁intense	-11.8821
rxii	-11.8821
▁retest	-11.8821
▁internal	-11.8821
▁proud	-11.8821
▁valor	-11.8821
❤️	-11.8822
▁smash	-11.8822
▁soros	-11.8822
كم	-11.8822
▁grill	-11.8823
▁automate	-11.8823
▁preorders	-11.8823
▁anymore	-11.8823
▁balti	-11.8824
▁mentor	-11.8824
alibabaipo	-11.8824
▁woman	-11.8824
▁anyway	-11.8824
▁$125	-11.8826
▁quietly	-11.8827
▁logo	-11.883
▁taste	-11.883
▁plent	-11.8831
▁echo	-11.8832
aware	-11.8833
▁primar	-11.8837
▁unusually	-11.8841
▁seven	-11.8842
exxi	-11.8842
vtl	-11.8842
▁fixes	-11.8843
psid	-11.8844
egn	-11.8845
▁nobody	-11.8845
driverless	-11.8846
▁0.0	-11.8848
▁modern	-11.8848
▁chino	-11.8848
▁edit	-11.8848
▁define	-11.8854
gü	-11.8858
ijr	-11.886
▁labs	-11.8861
guard	-11.8862
sys	-11.8864
▁bite	-11.8867
▁delayed	-11.8868
nfg	-11.8868
▁icloud	-11.8868
jpy	-11.8878
continuation	-11.8881
.06%	-11.8889
▁10:00:04	-11.889
▁counter	-11.889
rnr	-11.8901
▁cerrad	-11.8907
6.20	-11.8909
peace	-11.891
advisor	-11.8918
elnk	-11.8924
▁signup	-11.8931
when	-11.8934
rvb	-11.8936
friday	-11.8941
radio	-11.8953
aaaaa	-11.8971
wide	-11.8981
▁doug	-11.9004
anger	-11.9066
urre	-11.9106
9/15	-11.9106
acw	-11.9113
leaps	-11.9115
▁measure	-11.9124
▁sui	-11.914
designed	-11.9156
60.00	-11.9159
linger	-11.9161
encia	-11.9169
visa	-11.9195
▁suggestion	-11.9201
▁9.3	-11.9204
▁2.9	-11.9206
awi	-11.9207
▁ignor	-11.9208
▁cerr	-11.9226
1.60	-11.9245
erjones	-11.9255
cxr	-11.9255
system	-11.9263
▁explor	-11.9273
▁actual	-11.9274
お	-11.9275
ル	-11.9275
©	-11.9275
æ	-11.9275
σ	-11.9275
з	-11.9275
▁object	-11.9275
sabmiller	-11.9275
stresstest	-11.9275
٣	-11.9275
▁3:59:2	-11.9275
▁actavis	-11.9275
▁attorney	-11.9275
▁barronsonline	-11.9275
▁circuit	-11.9275
▁conversation	-11.9275
▁conviction	-11.9275
▁efectivo	-11.9275
▁episode	-11.9275
▁francisco	-11.9275
▁hybrid	-11.9275
▁influence	-11.9275
▁infrastructure	-11.9275
▁inhibitor	-11.9275
▁intermediate	-11.9275
▁leverage	-11.9275
▁mizuho	-11.9275
▁module	-11.9275
▁moynihan	-11.9275
▁relationship	-11.9275
▁retreat	-11.9275
▁stretch	-11.9275
▁traditional	-11.9275
👎	-11.9275
😍😍😍	-11.9275
politics	-11.9275
▁consistent	-11.9275
▁lenovo	-11.9275
г	-11.9275
▁beauty	-11.9275
chaikin	-11.9275
▁essential	-11.9275
▁excuse	-11.9275
▁alliance	-11.9275
▁george	-11.9275
▁ellison	-11.9275
▁صل	-11.9275
▁overpriced	-11.9275
▁weeklies	-11.9275
diagrams	-11.9275
▁surging	-11.9275
▁witching	-11.9276
▁daniel	-11.9276
▁insane	-11.9276
hysr	-11.9276
▁rapid	-11.9276
hrtx	-11.9276
▁connection	-11.9276
▁bottle	-11.9277
▁idiot	-11.9277
▁crossover	-11.9277
▁broadcom	-11.9277
▁flood	-11.9278
▁neg	-11.9278
▁slowdown	-11.9278
▁deux	-11.9279
▁improvement	-11.928
slnn	-11.928
▁davis	-11.9281
▁await	-11.9281
cnl	-11.9282
sftby	-11.9282
▁mount	-11.9283
▁opec	-11.9284
▁strange	-11.9284
eqt	-11.9285
vnm	-11.9286
▁blast	-11.929
▁factory	-11.9291
▁roman	-11.9294
▁swat	-11.9296
▁woes	-11.9299
▁2018	-11.93
▁3.3%	-11.9309
.38%	-11.9312
▁junk	-11.9312
madmoney	-11.9317
▁pace	-11.9323
▁wayne	-11.9326
7.80	-11.9336
wpo	-11.9338
bmr	-11.9341
▁casa	-11.9346
airway	-11.9354
juke	-11.9359
/12/201	-11.9361
tanh	-11.9392
▁blu	-11.9393
sfm	-11.9394
security	-11.9403
▁وال	-11.9404
economic	-11.9408
digital	-11.9409
smartphone	-11.9409
capital	-11.941
0125	-11.9421
▁brin	-11.9425
referen	-11.9426
6.7%	-11.9434
rlg	-11.9435
daytrade	-11.9436
coca	-11.9444
biomed	-11.9445
1/20	-11.9451
chers	-11.9465
miss	-11.9474
aug	-11.9519
اد	-11.9544
gie	-11.9546
gotten	-11.9555
▁puede	-11.9558
▁treat	-11.9565
weak	-11.9568
▁sdr	-11.9573
pod	-11.9573
ypf	-11.9576
811	-11.9581
mpass	-11.9581
▁11/2	-11.9594
▁developer	-11.9617
▁nich	-11.9635
▁addition	-11.9648
▁9:0	-11.9653
beatz	-11.9654
mcsa	-11.973
ujh	-11.9746
bound	-11.975
り	-11.9751
け	-11.9751
👽	-11.9751
π	-11.9751
thecoachsroster	-11.9751
▁although	-11.9751
▁bouncing	-11.9751
▁entertaining	-11.9751
▁halliburton	-11.9751
▁homebuilder	-11.9751
▁keytruda	-11.9751
▁pharmacyclics	-11.9751
▁possibly	-11.9751
▁promising	-11.9751
▁scrutiny	-11.9751
▁الامريكي	-11.9751
✏	-11.9751
🏡	-11.9751
🏪	-11.9751
📚	-11.9751
🚗	-11.9751
espresso	-11.9751
▁borrow	-11.9751
▁children	-11.9751
▁internacional	-11.9751
▁nvidia	-11.9751
▁political	-11.9751
▁cnnmoney	-11.9751
▁legacy	-11.9751
▁meltdown	-11.9751
▁علي	-11.9751
▁suspect	-11.9751
▁location	-11.9751
▁optimistic	-11.9751
▁false	-11.9751
▁bapti	-11.9752
▁senate	-11.9752
▁advisory	-11.9752
▁witnesse	-11.9752
▁damage	-11.9752
corporati	-11.9752
▁labor	-11.9752
▁merry	-11.9752
▁freedom	-11.9752
▁telus	-11.9752
sundar	-11.9752
▁calend	-11.9752
iphi	-11.9753
▁everywhere	-11.9753
▁ongoing	-11.9753
▁ruin	-11.9754
pyrex	-11.9754
▁expedia	-11.9754
rgls	-11.9754
wntr	-11.9754
▁08:11	-11.9755
▁~~~	-11.9755
vgk	-11.9755
▁desire	-11.9755
▁mother	-11.9756
▁drama	-11.9756
▁playlist	-11.9757
▁interim	-11.9757
axas	-11.9758
payroll	-11.9759
▁capture	-11.9761
▁seekers	-11.9761
▁mfg	-11.9765
▁liber	-11.9768
▁smartwatches	-11.9769
▁ariad	-11.9771
quantum	-11.9771
gadget	-11.9772
drq	-11.9775
▁elder	-11.9775
00.000	-11.9778
▁whatever	-11.9779
▁dark	-11.9781
▁minor	-11.9783
cytx	-11.9785
nspr	-11.9789
▁beaten	-11.9795
7.75	-11.9799
▁screener	-11.9802
wyy	-11.9823
▁dumb	-11.9862
currenc	-11.9893
▁elec	-11.9893
▁menu	-11.9894
anford	-11.9903
analytics	-11.9907
clean	-11.9908
information	-11.9909
medtronic	-11.9909
mastercard	-11.9909
saturday	-11.9909
oculus	-11.991
winner	-11.9912
▁****	-11.9913
advice	-11.9914
appletv	-11.9919
▁cuer	-11.9925
▁lamb	-11.9935
▁1.0	-11.9942
certainly	-11.999
▁celeb	-11.9993
operation	-12.001
girl	-12.0024
.95%	-12.0063
payments	-12.0065
pam	-12.0073
▁reveal	-12.008
.00.	-12.0085
▁hora	-12.0096
▁formal	-12.0112
▁15:2	-12.0124
▁9.7	-12.0136
latf	-12.015
infa	-12.0167
oii	-12.018
▁mce	-12.0188
ön	-12.0217
1.70	-12.0227
▁gadg	-12.0234
▁nxp	-12.0241
▁attract	-12.0247
б	-12.0251
🎉	-12.0251
👇	-12.0251
▁negotiat	-12.0251
cramerq	-12.0251
يوم	-12.0251
٥	-12.0251
฿	-12.0251
▁06:59:2	-12.0251
▁6:59:2	-12.0251
▁cigarette	-12.0251
▁combination	-12.0251
▁evidence	-12.0251
▁illumina	-12.0251
▁involved	-12.0251
▁liquidmetal	-12.0251
▁reservas	-12.0251
▁seadrill	-12.0251
▁shopify	-12.0251
▁stochastic	-12.0251
▁susquehanna	-12.0251
▁swallow	-12.0251
▁vertical	-12.0251
▁zephyr	-12.0251
▁▀▄☆▀♬	-12.0251
▁🔊🔊	-12.0251
♫	-12.0251
🌊	-12.0251
💦	-12.0251
§	-12.0251
▁activision	-12.0251
▁salesforce	-12.0251
▁choppy	-12.0251
▁raury	-12.0251
✧	-12.0251
💵	-12.0251
▁dreamliner	-12.0251
▁female	-12.0251
💪	-12.0251
▁relief	-12.0251
▁screenshot	-12.0251
▁nordic	-12.0251
grocery	-12.0251
▁afternoon	-12.0251
▁console	-12.0251
xperia	-12.0251
▁chosen	-12.0251
▁ibdinvestors	-12.0251
▁infringe	-12.0251
▁police	-12.0251
👌🏼	-12.0251
▁sandisk	-12.0251
▁ireland	-12.0252
sbmry	-12.0252
▁glance	-12.0252
▁narco	-12.0252
▁suntrust	-12.0252
▁environmental	-12.0252
▁punch	-12.0252
▁scandal	-12.0252
▁certificat	-12.0252
▁scary	-12.0252
▁bulk	-12.0252
▁iraq	-12.0252
hsgx	-12.0252
vggl	-12.0252
▁carbon	-12.0252
▁acabo	-12.0252
shadow	-12.0252
beans	-12.0252
elections	-12.0252
loyalty	-12.0252
▁financing	-12.0253
nxtd	-12.0253
▁priority	-12.0254
▁flame	-12.0254
bigbusiness	-12.0254
▁handset	-12.0254
تص	-12.0254
^{	-12.0254
▁incorporated	-12.0254
▁regional	-12.0255
blcm	-12.0256
▁saudi	-12.0256
▁staff	-12.0256
▁finger	-12.0256
▁:-)	-12.0257
▁guest	-12.0259
medtech	-12.0261
idix	-12.0261
▁doji	-12.0263
▁myself	-12.0264
▁98%	-12.0265
▁bmw	-12.0269
▁mich	-12.0269
▁avec	-12.0271
hurc	-12.0272
▁steam	-12.0272
mfc	-12.0273
▁commit	-12.0274
▁$25/	-12.0277
microcap	-12.0277
▁parent	-12.0277
▁fond	-12.0279
▁93%	-12.0282
▁squad	-12.0283
▁male	-12.0284
▁stall	-12.0286
87%	-12.0288
▁latin	-12.0295
▁fallen	-12.0301
▁shall	-12.0307
600%	-12.0326
7.3	-12.033
▁chor	-12.034
inspiratio	-12.037
street	-12.0383
▁$6.2	-12.0426
👉	-12.0432
which	-12.0436
first	-12.0437
outperform	-12.0437
6.5%	-12.044
true	-12.044
proof	-12.0441
7,9	-12.0452
about	-12.0454
bets	-12.0462
issa	-12.0464
.65%	-12.047
4.5%	-12.0478
▁nano	-12.0493
brent	-12.0506
▁$1,28	-12.0518
7,000	-12.0527
type	-12.0535
▁-10.	-12.0551
149	-12.0578
1.07	-12.0598
▁assigne	-12.0606
▁tase	-12.0614
iciero	-12.0626
52%	-12.0627
649	-12.0646
2000	-12.0685
▁scrap	-12.0692
iwo	-12.071
trov	-12.0727
appoints	-12.0761
▁manipulat	-12.0767
▁quiet	-12.0771
algorithm	-12.0771
dynamic	-12.0773
commodit	-12.0777
れ	-12.0778
プ	-12.0778
🏽	-12.0778
う	-12.0778
autonomous	-12.0778
ŕ	-12.0778
ξ	-12.0778
ы	-12.0778
ь	-12.0778
ย	-12.0778
⃣	-12.0778
⏩	-12.0778
▁02:07:	-12.0778
▁02:59:2	-12.0778
▁brasileiro	-12.0778
▁charles	-12.0778
▁chronic	-12.0778
▁collaborate	-12.0778
▁distribute	-12.0778
▁equivalent	-12.0778
▁litigation	-12.0778
▁medicine	-12.0778
▁offshore	-12.0778
▁ohyeah	-12.0778
▁organization	-12.0778
▁regular	-12.0778
▁separate	-12.0778
▁slaughter	-12.0778
▁veteran	-12.0778
▁vulnerable	-12.0778
▁written	-12.0778
▁اعلان	-12.0778
▶	-12.0778
💋	-12.0778
🔺	-12.0778
ş	-12.0778
▁inversion	-12.0778
▁situation	-12.0778
▁teenager	-12.0778
▁biosciences	-12.0778
▁foxconn	-12.0778
✊	-12.0778
ebitda	-12.0778
▁function	-12.0778
stockofthe	-12.0778
▁rescue	-12.0778
▁dutch	-12.0778
chromecast	-12.0778
▁lightning	-12.0778
▁bueno	-12.0778
▁branch	-12.0778
jakk	-12.0778
yrcw	-12.0778
ี่	-12.0778
ะ	-12.0778
▁07:11:	-12.0778
▁empty	-12.0778
▁tmrw	-12.0778
▁goose	-12.0778
▁ripping	-12.0778
▁shape	-12.0778
▁pending	-12.0778
robotics	-12.0778
▁begging	-12.0779
hidden	-12.0779
▁mejor	-12.0779
▁speculating	-12.0779
▁pierde	-12.0779
fifth	-12.0779
▁acuerdo	-12.0779
▁madness	-12.0779
▁impressions	-12.078
ceuti	-12.078
sustainability	-12.078
▁foto	-12.078
cwh	-12.078
▁aetna	-12.078
▁corner	-12.0781
▁deserve	-12.0781
▁roger	-12.0782
▁lockup	-12.0784
▁venta	-12.0784
bagger	-12.0785
▁clay	-12.0785
▁10:11:	-12.0786
▁jail	-12.0787
▁specs	-12.0789
▁pharmacy	-12.0791
▁tricky	-12.0793
220.00	-12.0794
▁dying	-12.0795
nfp	-12.0797
▁nick	-12.0801
▁piss	-12.0803
▁09:4	-12.0803
taho	-12.0808
▁dick	-12.0808
▁puh	-12.0809
500,000	-12.0819
rjet	-12.0842
▁divest	-12.0843
ifty	-12.0856
kisi	-12.0867
▁escal	-12.0881
▁subsidiz	-12.0922
eezy	-12.094
alerttrade	-12.0973
lope	-12.0978
search	-12.0982
snapchat	-12.0988
website	-12.0991
everything	-12.0991
focus	-12.0991
levels	-12.0992
▁hug	-12.1007
0.64	-12.101
2.2%	-12.1017
check	-12.1017
dena	-12.1035
mtg	-12.1039
igx	-12.1049
▁cooper	-12.1068
badde	-12.1096
89%	-12.1105
▁nug	-12.1148
▁imbalance	-12.1182
▁communication	-12.1183
6,000	-12.1188
easing	-12.1198
9.20	-12.121
▁slashe	-12.1217
▁buffet	-12.127
▁7/1	-12.1275
▁$2.3	-12.128
▁4.8	-12.1293
eeze	-12.1293
stitution	-12.1302
▁detect	-12.1314
▁5.5	-12.1325
▁1.6	-12.1325
▁ridin	-12.1326
▁exceed	-12.1327
swingtrade	-12.1327
▁innovat	-12.1329
▁region	-12.1332
λ	-12.1333
💨	-12.1333
afrezza	-12.1333
einhorn	-12.1333
individual	-12.1333
تويت	-12.1333
▁4/28/	-12.1333
▁convince	-12.1333
▁describe	-12.1333
▁ihnewsdesk	-12.1333
▁immediate	-12.1333
▁iovine	-12.1333
▁maximum	-12.1333
▁perhaps	-12.1333
▁remarkable	-12.1333
▁scripts	-12.1333
✔	-12.1333
muzik	-12.1333
▁character	-12.1333
▁suspend	-12.1333
💣	-12.1333
▁crohn	-12.1333
▁probability	-12.1333
▁headwinds	-12.1333
▁muscle	-12.1333
malware	-12.1333
▁aggregat	-12.1333
▁numeric	-12.1333
▁ronald	-12.1333
ら	-12.1333
eadsy	-12.1333
▁tiempo	-12.1333
▁garbage	-12.1333
▁proceed	-12.1333
▁applied	-12.1333
ラ	-12.1333
gorsky	-12.1334
xoom	-12.1334
▁aereo	-12.1334
qunr	-12.1334
eurgbp	-12.1334
opxa	-12.1334
▁penney	-12.1334
▁(10:3	-12.1334
▁frontier	-12.1334
▁commitment	-12.1335
cpxx	-12.1335
▁liberty	-12.1335
7-16	-12.1335
▁cablevision	-12.1336
▁concurrent	-12.1336
▁workshop	-12.1337
nueva	-12.1338
nsany	-12.1338
▁roche	-12.1339
▁1978	-12.1341
barnes	-12.1343
▁metrics	-12.1345
▁cartoon	-12.1346
▁caja	-12.1351
▁santa	-12.1353
▁falta	-12.1356
▁wise	-12.1359
1.38	-12.136
▁+101	-12.1361
▁4.7	-12.1362
▁3/1	-12.1363
▁legit	-12.1367
mkm	-12.137
brook	-12.1375
ufs	-12.1377
veev	-12.1384
,000,000,000	-12.1394
frida	-12.1405
5.85	-12.1408
ocks	-12.1424
drink	-12.1447
ocket	-12.145
azfl	-12.1457
7.5%	-12.1457
بل	-12.1461
110.00	-12.1465
▁$140	-12.1472
▁4.5	-12.1474
▁sanea	-12.1492
foundation	-12.1492
5.5%	-12.1493
▁cheat	-12.1495
accel	-12.1502
6,60	-12.1523
untu	-12.1545
myers	-12.1548
2.1%	-12.1556
greece	-12.1578
0.40	-12.1578
novartis	-12.1579
instagram	-12.1579
worth	-12.1581
bears	-12.1588
split	-12.1589
afterhours	-12.1591
/4/1	-12.1609
risk	-12.1616
349	-12.163
▁refer	-12.1698
aeri	-12.1722
▁partie	-12.1763
▁material	-12.177
▁trail	-12.1827
ctac	-12.1846
▁propose	-12.1875
3.23	-12.1877
▁opera	-12.1893
1.12	-12.1903
▁futur	-12.1905
▁defens	-12.1908
ociali	-12.1921
graphics	-12.1921
き	-12.1921
🏼	-12.1921
†	-12.1921
enchufado	-12.1921
¢	-12.1921
independence	-12.1921
language	-12.1921
periscope	-12.1921
tãñ	-12.1921
▁adjustment	-12.1921
▁anniversary	-12.1921
▁appreciate	-12.1921
▁arrival	-12.1921
▁britain	-12.1921
▁bundle	-12.1921
▁explode	-12.1921
▁gloom	-12.1921
▁hangover	-12.1921
▁independent	-12.1921
▁lucrative	-12.1921
▁narrative	-12.1921
▁polgarstocks	-12.1921
▁railway	-12.1921
▁salario	-12.1921
▁singapore	-12.1921
👑	-12.1921
😏	-12.1921
$1,245	-12.1921
ш	-12.1921
▁verdad	-12.1921
▁withdraw	-12.1921
▁exclud	-12.1922
▁operators	-12.1922
▁otros	-12.1922
く	-12.1922
purpose	-12.1922
▁cortana	-12.1922
▁externa	-12.1922
▁determine	-12.1922
▁cumple	-12.1922
cellular	-12.1922
▁pledge	-12.1922
▁partidos	-12.1922
▁ackman	-12.1922
▁👉👉	-12.1922
่	-12.1922
▁beware	-12.1922
▁sensor	-12.1922
▁agency	-12.1922
▁sidor	-12.1922
▁sikorsk	-12.1922
dxcm	-12.1922
▁cruci	-12.1922
▁headset	-12.1922
▁curve	-12.1922
▁pocos	-12.1922
▁steep	-12.1922
tinib	-12.1922
ли	-12.1922
▁lawmaker	-12.1922
▁aumenta	-12.1923
harbor	-12.1923
▁voor	-12.1923
▁rift	-12.1923
▁sometimes	-12.1923
usually	-12.1923
río	-12.1923
murder	-12.1923
athm	-12.1924
▁rejection	-12.1925
cdti	-12.1925
▁midwe	-12.1926
▁shame	-12.1926
▁minister	-12.1926
▁revolutionize	-12.1927
▁troll	-12.1927
▁careless	-12.1928
throne	-12.1929
0.41	-12.193
▁mgmt	-12.1932
▁refund	-12.1932
crzo	-12.1936
communi	-12.1938
▁$1.7	-12.1953
chasing	-12.1957
predictive	-12.1959
shirt	-12.201
insta	-12.2022
bobe	-12.2026
soxs	-12.2028
unidad	-12.2034
omi	-12.2067
4.7%	-12.2087
5.20	-12.2088
▁cobra	-12.2161
break	-12.2183
tivo	-12.2195
signal	-12.2199
directv	-12.2202
shopping	-12.2203
chinese	-12.2204
growing	-12.2204
listen	-12.2219
ير	-12.226
hotte	-12.2291
▁14:0	-12.2356
▁veri	-12.237
smallcap	-12.2386
▁aggressive	-12.2392
0.9%	-12.2466
1.02	-12.2479
liking	-12.2493
aña	-12.2499
▁combine	-12.25
forums	-12.2503
▁lovin	-12.2512
ф	-12.2546
─	-12.2546
🚶	-12.2546
benjamin	-12.2546
lnvgy	-12.2546
meddevice	-12.2546
oligarca	-12.2546
petrobras	-12.2546
і	-12.2546
▁00:59:2	-12.2546
▁assistant	-12.2546
▁bailout	-12.2546
▁bankruptcy	-12.2546
▁benchmark	-12.2546
▁blizzard	-12.2546
▁chayton	-12.2546
▁faltering	-12.2546
▁hollywood	-12.2546
▁initiation	-12.2546
▁neither	-12.2546
▁nicolaus	-12.2546
▁noteworthy	-12.2546
▁publishers	-12.2546
▁rackspace	-12.2546
▁recognize	-12.2546
▁skyrocket	-12.2546
▁spreadsheet	-12.2546
▁stumble	-12.2546
▁switzerland	-12.2546
▁tandem	-12.2546
▁transparency	-12.2546
▁universe	-12.2546
▁viekira	-12.2546
▁wozniak	-12.2546
🕘	-12.2546
▁broadband	-12.2546
▁carolina	-12.2546
▁moderate	-12.2546
▁nacional	-12.2547
.000.000.000,00	-12.2547
▁boycott	-12.2547
▁overhaul	-12.2547
▁committee	-12.2547
▁indication	-12.2547
▁tripadvisor	-12.2547
😇	-12.2547
jeremy	-12.2547
homedepot	-12.2547
▁execute	-12.2547
summit	-12.2547
▁infinity	-12.2547
kansas	-12.2547
dolphin	-12.2547
ficient	-12.2547
▁brewer	-12.2547
chromebooks	-12.2547
▁cliffs	-12.2547
ห	-12.2547
▁lagging	-12.2547
▁ciadi	-12.2547
▁loeb	-12.2547
ultron	-12.2547
genius	-12.2547
▁tempt	-12.2547
falke	-12.2547
▁audit	-12.2548
zpin	-12.2548
▁inspired	-12.2548
▁mouse	-12.2548
▁plot	-12.2548
▁blind	-12.2548
▁tension	-12.2548
0.48%	-12.2549
captain	-12.2549
................	-12.2549
▁clair	-12.2549
▁okay	-12.2549
▁vegas	-12.255
▁evercore	-12.255
▁attraction	-12.2551
▁deliveries	-12.2551
▁spoke	-12.2551
▁intermed	-12.2551
▁array	-12.2551
▁keyboard	-12.2551
▁parity	-12.2551
▁stack	-12.2552
▁plain	-12.2552
▁indeed	-12.2554
▁percentage	-12.2556
skills	-12.2558
▁revise	-12.2558
▁creator	-12.256
▁diary	-12.256
▁horse	-12.2568
▁$6.4	-12.2585
joker	-12.2588
bookstores	-12.2594
designer	-12.2596
▁flirt	-12.2602
cuda	-12.2604
stolen	-12.2607
▁bird	-12.2618
theory	-12.2625
tweet	-12.2652
▁updat	-12.2675
directly	-12.2687
emme	-12.269
putin	-12.2715
▁impress	-12.2718
9:00	-12.272
ietar	-12.2741
breakfa	-12.2793
▁$2.2	-12.2816
rake	-12.2823
tower	-12.2828
carlos	-12.2834
..........	-12.2857
funny	-12.2868
sanofi	-12.2869
disneyland	-12.287
volatility	-12.287
venture	-12.2871
gaming	-12.2871
content	-12.2871
support	-12.2872
/23/15	-12.2903
boca	-12.2911
/17/2015	-12.2937
:62	-12.2942
▁alleged	-12.3009
▁12:3	-12.3077
olvo	-12.3091
sieg	-12.3103
7.35	-12.3128
1.75	-12.3135
▁13:5	-12.3147
▁74.5	-12.3163
▁generate	-12.3167
▁16:00:	-12.317
.86%	-12.3199
advanc	-12.3212
こ	-12.3213
よ	-12.3213
や	-12.3213
あ	-12.3213
▁optim	-12.3213
ン	-12.3213
【	-12.3213
จ	-12.3213
ï	-12.3213
▁divide	-12.3213
▁ejecuta	-12.3213
📈	-12.3213
▁behavior	-12.3213
atlantic	-12.3213
avengers	-12.3213
jimcramer	-12.3213
vestorsobserver	-12.3213
บ	-12.3213
☞	-12.3213
	-12.3213
😱	-12.3213
ч	-12.3213
セ	-12.3213
ж	-12.3213
👏	-12.3927
ク	-12.3927
ц	-12.3927
✨	-12.3927
💀	-12.3927
❗	-12.3927
ř	-12.3927
′	-12.3927
☄	-12.3927
シ	-12.3927
💃	-12.3927
を	-12.3928
̷	-12.4696
日	-12.4696
チ	-12.4696
💧	-12.4697
】	-12.4697
▄	-12.4697
💘	-12.4697
ю	-12.4697
✌	-12.4697
🎲	-12.4697
👯	-12.4697
👐	-12.4697
💖	-12.4697
·	-12.4697
ロ	-12.4697
“	-12.5189
え	-12.553
♦	-12.553
サ	-12.553
야	-12.553
є	-12.553
ї	-12.553
ё	-12.553
🙈	-12.553
ト	-12.553
🎬	-12.553
û	-12.553
้	-12.553
マ	-12.553
💎	-12.6095
ジ	-12.6439
°	-12.6439
ี	-12.6439
ど	-12.6439
ャ	-12.6439
ئ	-12.6439
ᔕ	-12.6439
═	-12.6439
🌹	-12.6439
🏿	-12.6439
だ	-12.6439
さ	-12.6439
ง	-12.6439
ุ	-12.6439
α	-12.7096
今	-12.7438
ア	-12.7439
新	-12.7439
ち	-12.7439
ช	-12.7439
õ	-12.7439
마	-12.7439
み	-12.7439
ÿ	-12.7439
😋	-12.7439
̈	-12.7439
٦	-12.7439
🏃	-12.7439
¤	-12.7439
ς	-12.7439
،	-12.7439
ً	-12.7439
║	-12.7439
▲	-12.7439
⛱	-12.7439
⛳	-12.7439
❁	-12.7439
➜	-12.7439
⭐	-12.7439
건	-12.7439
🌍	-12.7439
🎁	-12.7439
😌	-12.7439
😘	-12.7439
ᑌ	-12.7439
ğ	-12.7439
⇑	-12.7439
リ	-12.7439
ค	-12.7439
แ	-12.7439
タ	-12.7439
ツ	-12.7439
–	-12.8209
っ	-12.855
時	-12.855
̴	-12.855
的	-12.855
ฮ	-12.855
▀	-12.855
💳	-12.855
­	-12.855
⚅	-12.855
ね	-12.855
걸	-12.855
ò	-12.855
č	-12.855
×	-12.855
щ	-12.855
ء	-12.855
ซ	-12.855
ᕼ	-12.855
♀	-12.855
♬	-12.855
피	-12.855
ө	-12.855
ท	-12.855
ᒪ	-12.855
ป	-12.855
ส	-12.8551
デ	-12.8551
一	-12.8551
ケ	-12.8551
本	-12.98
ī	-12.98
中	-12.98
ズ	-12.98
ろ	-12.98
キ	-12.98
이	-12.98
↓	-12.98
아	-12.98
ต	-12.98
大	-12.98
	-12.98
ů	-12.98
コ	-12.98
💲	-12.98
	-12.98
ě	-12.98
ι	-12.98
٪	-12.98
ว	-12.98
✿	-12.98
➡	-12.98
看	-12.98
默	-12.98
🌴	-12.98
💂	-12.98
💩	-12.98
🔮	-12.98
😒	-12.98
š	-12.98
⇒	-12.98
地	-12.98
了	-12.98
💊	-12.98
╔	-12.98
็	-12.98
カ	-12.9801
「	-12.9801
下	-13.1228
株	-13.1228
ē	-13.1228
そ	-13.1228
げ	-13.1228
↑	-13.1229
ث	-13.1229
各	-13.1229
ェ	-13.1229
로	-13.1229
😜	-13.1229
🌈	-13.1229
ᑎ	-13.1229
様	-13.1229
🏻	-13.1229
👆	-13.1229
👋	-13.1229
💕	-13.1229
🔻	-13.1229
😄	-13.1229
😴	-13.1229
😻	-13.1229
ү	-13.1229
٧	-13.1229
♻	-13.1229
	-13.1229
ž	-13.1229
🏾	-13.1229
ᗰ	-13.1229
エ	-13.1229
安	-13.1229
ぬ	-13.1229
見	-13.1229
分	-13.1229
」	-13.1229
オ	-13.1229
ダ	-13.1229
レ	-13.1229
テ	-13.1229
»	-13.2553
ブ	-13.2895
是	-13.2895
店	-13.2895
到	-13.2895
高	-13.2895
ใ	-13.2895
⇩	-13.2895
스	-13.2895
上	-13.2895
白	-13.2895
«	-13.2895
明	-13.2895
番	-13.2895
▓	-13.2895
会	-13.2895
⇘	-13.2895
》	-13.2895
ナ	-13.2895
ù	-13.2895
ᗪ	-13.2895
考	-13.2895
ʈ	-13.2895
ҥ	-13.2895
‒	-13.2895
⇗	-13.2895
╩	-13.2895
▔	-13.2895
▬	-13.2895
変	-13.2895
동	-13.2895
👥	-13.2895
😛	-13.2895
🙇	-13.2895
	-13.2895
ビ	-13.2895
影	-13.2895
ォ	-13.2895
ぴ	-13.4894
股	-13.4895
『	-13.4895
ご	-13.4895
猫	-13.4895
ム	-13.4895
ヲ	-13.4895
市	-13.4895
다	-13.4895
하	-13.4895
我	-13.4895
←	-13.4895
⏰	-13.4895
事	-13.4895
🌎	-13.4895
🎤	-13.4895
💚	-13.4895
θ	-13.4895
ظ	-13.4895
₴	-13.4895
●	-13.4895
ぼ	-13.4895
惑	-13.4895
挙	-13.4895
職	-13.4895
都	-13.4895
頃	-13.4895
는	-13.4895
요	-13.4895
🍎	-13.4895
🎼	-13.4895
🐍	-13.4895
👈	-13.4895
👣	-13.4895
💙	-13.4895
😑	-13.4895
😤	-13.4895
ᗩ	-13.4895
🚨	-13.4895
þ	-13.4895
τ	-13.4895
ᖇ	-13.4895
👅	-13.4895
人	-13.4895
数	-13.4895
木	-13.4895
영	-13.4895
💴	-13.4895
모	-13.4895
出	-13.4896
ば	-13.4896
場	-13.4896
掉	-13.4896
話	-13.4896
べ	-13.7394
买	-13.7394
ず	-13.7395
』	-13.7395
♠	-13.7395
ド	-13.7395
前	-13.7395
つ	-13.7395
ワ	-13.7395
₱	-13.7395
ホ	-13.7395
ぎ	-13.7395
公	-13.7395
ั	-13.7395
二	-13.7395
幸	-13.7395
인	-13.7395
着	-13.7395
해	-13.7395
持	-13.7395
✪	-13.7395
💉	-13.7395
🔑	-13.7395
χ	-13.7395
ִ	-13.7395
⏳	-13.7395
╝	-13.7395
◀	-13.7395
☟	-13.7395
♂	-13.7395
⚡	-13.7395
ょ	-13.7395
ィ	-13.7395
パ	-13.7395
们	-13.7395
口	-13.7395
同	-13.7395
在	-13.7395
天	-13.7395
富	-13.7395
岡	-13.7395
綾	-13.7395
聊	-13.7395
製	-13.7395
서	-13.7395
세	-13.7395
의	-13.7395
화	-13.7395
	-13.7395
	-13.7395
	-13.7395
🌀	-13.7395
💬	-13.7395
문	-13.7395
ň	-13.7395
⊕	-13.7395
✬	-13.7395
대	-13.7395
안	-13.7395
트	-13.7395
밤	-13.7395
ิ	-13.7396
╚	-13.7396
ヤ	-13.7396
关	-13.7396
窗	-13.7396
糸	-13.7396
多	-13.7396
月	-13.7396
期	-13.7396
ฉ	-13.7396
関	-13.7396
決	-13.7396
用	-13.7396
ヨ	-13.7396
収	-13.7396
良	-13.7396
メ	-13.7396
入	-13.7396
標	-13.7396
手	-13.7397
び	-14.0727
バ	-14.0727
以	-14.0728
‰	-14.0728
⚠	-14.0728
不	-14.0728
フ	-14.0728
ユ	-14.0728
他	-14.0728
子	-14.0728
配	-14.0729
円	-14.0729
夜	-14.0729
定	-14.0729
☻	-14.0729
全	-14.0729
報	-14.0729
情	-14.0729
그	-14.0729
ด	-14.0729
√	-14.0729
ู	-14.0729
発	-14.0729
《	-14.0729
ほ	-14.0729
わ	-14.0729
美	-14.0729
󾓷	-14.0729
∪	-14.0729
♩	-14.0729
🍺	-14.0729
ŗ	-14.0729
年	-14.0729
🚫	-14.0729
ŧ	-14.0729
F	-14.0729
đ	-14.0729
ń	-14.0729
ŵ	-14.0729
ƈ	-14.0729
ʍ	-14.0729
ε	-14.0729
ν	-14.0729
υ	-14.0729
آ	-14.0729
्	-14.0729
ไ	-14.0729
„	-14.0729
₵	-14.0729
▆	-14.0729
░	-14.0729
▒	-14.0729
▸	-14.0729
☐	-14.0729
☩	-14.0729
⚓	-14.0729
✋	-14.0729
➞	-14.0729
⤵	-14.0729
゙	-14.0729
ガ	-14.0729
ソ	-14.0729
ニ	-14.0729
先	-14.0729
来	-14.0729
気	-14.0729
生	-14.0729
郎	-14.0729
금	-14.0729
날	-14.0729
니	-14.0729
드	-14.0729
리	-14.0729
상	-14.0729
신	-14.0729
에	-14.0729
	-14.0729
🆕	-14.0729
🌇	-14.0729
🌋	-14.0729
🌐	-14.0729
🍁	-14.0729
🍏	-14.0729
🍻	-14.0729
🍾	-14.0729
🎅	-14.0729
🏴	-14.0729
👠	-14.0729
👤	-14.0729
👹	-14.0729
💗	-14.0729
💫	-14.0729
💭	-14.0729
📉	-14.0729
📺	-14.0729
😃	-14.0729
😅	-14.0729
😆	-14.0729
😡	-14.0729
😢	-14.0729
😪	-14.0729
😵	-14.0729
󾓶	-14.0729
十	-14.0729
小	-14.0729
岩	-14.0729
일	-14.0729
ā	-14.0729
❣	-14.0729
ゅ	-14.0729
ウ	-14.0729
🗿	-14.0729
🤘	-14.0729
東	-14.0729
週	-14.0729
間	-14.0729
🍑	-14.0729
目	-14.0729
₡	-14.0729
╬	-14.0729
価	-14.0729
演	-14.0729
行	-14.0729
心	-14.0729
指	-14.0729
準	-14.0729
算	-14.0729
散	-14.0729
買	-14.0729
モ	-14.0731
‘	-14.5392
金	-14.5727
压	-14.5728
外	-14.5728
爨	-14.5728
羅	-14.5728
鑅	-14.5728
	-14.5728
	-14.5728
غ	-14.5728
‡	-14.5728
信	-14.5728
ึ	-14.5728
♣	-14.5728
ヌ	-14.5728
客	-14.5728
対	-14.5728
祝	-14.5728
翅	-14.5728
転	-14.5728
	-14.5728
ぁ	-14.5728
并	-14.5728
書	-14.5728
谷	-14.5728
云	-14.5729
件	-14.5729
ə	-14.5729
ʀ	-14.5729
元	-14.5729
式	-14.5729
方	-14.5729
酷	-14.5729
기	-14.5729
타	-14.5729
➲	-14.5729
位	-14.5729
初	-14.5729
化	-14.5729
国	-14.5729
崎	-14.5729
支	-14.5729
文	-14.5729
法	-14.5729
洋	-14.5729
真	-14.5729
素	-14.5729
通	-14.5729
욧	-14.5729
ż	-14.5729
٨	-14.5729
⇓	-14.5729
商	-14.5729
訷	-14.5729
월	-14.5729
토	-14.5729
🍃	-14.5729
太	-14.5729
🅱	-14.5729
🌱	-14.5729
💶	-14.5729
	-14.5729
	-14.5729
ǝ	-14.5729
ȋ	-14.5729
μ	-14.5729
ѕ	-14.5729
ן	-14.5729
؟	-14.5729
ถ	-14.5729
ღ	-14.5729
ᐯ	-14.5729
᙭	-14.5729
ṡ	-14.5729
⌒	-14.5729
╺	-14.5729
☯	-14.5729
⚽	-14.5729
⛄	-14.5729
✒	-14.5729
✳	-14.5729
❀	-14.5729
❓	-14.5729
❝	-14.5729
➖	-14.5729
➰	-14.5729
ぶ	-14.5729
む	-14.5729
め	-14.5729
ミ	-14.5729
三	-14.5729
並	-14.5729
井	-14.5729
作	-14.5729
勁	-14.5729
員	-14.5729
売	-14.5729
帰	-14.5729
応	-14.5729
戯	-14.5729
更	-14.5729
朱	-14.5729
杣	-14.5729
次	-14.5729
毋	-14.5729
波	-14.5729
稲	-14.5729
繧	-14.5729
般	-14.5729
若	-14.5729
螂	-14.5729
評	-14.5729
讎	-14.5729
豐	-14.5729
費	-14.5729
蹦	-14.5729
逾	-14.5729
那	-14.5729
醗	-14.5729
難	-14.5729
髱	-14.5729
가	-14.5729
닷	-14.5729
도	-14.5729
무	-14.5729
술	-14.5729
시	-14.5729
업	-14.5729
용	-14.5729
운	-14.5729
유	-14.5729
을	-14.5729
자	-14.5729
조	-14.5729
지	-14.5729
컴	-14.5729
	-14.5729
	-14.5729
	-14.5729
	-14.5729
	-14.5729
🌌	-14.5729
🍇	-14.5729
🍔	-14.5729
🍟	-14.5729
🍯	-14.5729
🍼	-14.5729
🎄	-14.5729
🏀	-14.5729
🏝	-14.5729
🐡	-14.5729
👬	-14.5729
👭	-14.5729
👻	-14.5729
👿	-14.5729
💍	-14.5729
💓	-14.5729
💷	-14.5729
📸	-14.5729
🔂	-14.5729
🔃	-14.5729
🔞	-14.5729
🔪	-14.5729
🔴	-14.5729
😀	-14.5729
😐	-14.5729
😚	-14.5729
😝	-14.5729
😮	-14.5729
🙊	-14.5729
🚣	-14.5729
🤑	-14.5729
󾁃	-14.5729
󾓠	-14.5729
󾦄	-14.5729
⬆	-14.5729
	-14.5729
γ	-14.5729
☁	-14.5729
여	-14.5729
🍷	-14.5729
💛	-14.5729
🔽	-14.5729
⋮	-14.5729
女	-14.5729
◆	-14.5729
少	-14.5729
曲	-14.5729
海	-14.5729
知	-14.5729
🎊	-14.5729
╣	-14.5729
〜	-14.5729
ゥ	-14.5729
使	-14.5729
侠	-14.5729
梯	-14.5729
自	-14.5729
蚪	-14.5729
質	-14.5729
量	-14.5729
구	-14.5729
ヂ	-14.5729
	-14.5729
偏	-14.573
展	-14.573
差	-14.573
望	-14.573
相	-14.573
私	-14.573
度	-14.5731
動	-14.5731
🙉	-15.558
🙅	-15.5581
🔝	-15.5582
🔔	-15.5583
📍	-15.5584
👼	-15.5585
🐂	-15.5586
🍹	-15.5587
픽	-15.5588
추	-15.5589
주	-15.559
올	-15.5591
림	-15.5592
라	-15.5593
노	-15.5594
魔	-15.5595
頑	-15.5596
隆	-15.5597
開	-15.5598
録	-15.5599
邪	-15.56
表	-15.5601
致	-15.5602
約	-15.5603
治	-15.5604
橸	-15.5605
末	-15.5606
形	-15.5607
張	-15.5608
弱	-15.5609
左	-15.561
城	-15.5611
右	-15.5612
列	-15.5613
伝	-15.5614
京	-15.5615
予	-15.5616
ベ	-15.5617
ザ	-15.5618
せ	-15.5619
〽	-15.562
➕	-15.5621
✘	-15.5622
✅	-15.5623
⌚	-15.5624
ᗯ	-15.5625
च	-15.5626
͡	-15.5627
±	-15.5628
🙄	-15.5629
💁	-15.563
🌏	-15.5631
	-15.5632
	-15.5633
	-15.5634
남	-15.5635
강	-15.5636
鈴	-15.5637
近	-15.5638
楽	-15.5639
伸	-15.564
ュ	-15.5641
ポ	-15.5642
☎	-15.5643
▥	-15.5644
ؤ	-15.5645
	-15.5646
📣	-15.5647
💻	-15.5648
🐦	-15.5649
🐤	-15.565
🆖	-15.5651
포	-15.5652
정	-15.5653
임	-15.5654
보	-15.5655
등	-15.5656
든	-15.5657
게	-15.5658
赤	-15.5659
船	-15.566
疑	-15.5661
思	-15.5662
ゃ	-15.5663
ひ	-15.5664
☜	-15.5665
ᒍ	-15.5666
گ	-15.5667
͎	-15.5668
창	-15.5669
색	-15.567
글	-15.5671
검	-15.5672
最	-15.5673
⭕	-15.5674
█	-15.5675
β	-15.5676
󾌴	-15.5677
😷	-15.5678
🔓	-15.5679
전	-15.568
撮	-15.5681
グ	-15.5682
❄	-15.5683
✓	-15.5684
╗	-15.5685
ํ	-15.5686
ๆ	-15.5687
🙃	-15.5688
🌟	-15.5689
沢	-15.569
山	-15.5691
ɖ	-15.5692
오	-15.5693
☝	-15.5694
ข	-15.5695
☀	-15.5696
ื	-15.5697
พ	-15.5698
😳	-15.5699
✖	-15.57
⛽	-15.5701
☛	-15.5702
▼	-15.5703
̄	-15.5704
👊	-15.5705
사	-15.5706
🇼	-15.5707
🇷	-15.5708
✈	-15.5709
↘	-15.571
́	-15.5711
⬇	-15.5712
🔌	-15.5713
➔	-15.5714
🇹	-15.5715
✍	-15.5716
📧	-15.5717
إ	-15.5718
M	-15.5719
🔜	-15.572
🇺	-15.5721
🇸	-15.5722
🇪	-15.5723
̇	-15.5724
繋	-15.5725
٢	-15.5725
待	-15.5726
爆	-15.5726
田	-15.5726
黒	-15.5726
⋆	-15.5726
东	-15.5727
勿	-15.5727
受	-15.5727
夏	-15.5727
存	-15.5727
届	-15.5727
应	-15.5727
惊	-15.5727
成	-15.5727
曜	-15.5727
畑	-15.5727
等	-15.5727
花	-15.5727
華	-15.5727
論	-15.5727
该	-15.5727
跌	-15.5727
頭	-15.5727
♛	-15.5727
含	-15.5727
≥	-15.5728
ぜ	-15.5728
ヘ	-15.5728
个	-15.5728
伦	-15.5728
刊	-15.5728
司	-15.5728
周	-15.5728
奉	-15.5728
好	-15.5728
岸	-15.5728
巴	-15.5728
拆	-15.5728
析	-15.5728
果	-15.5728
氏	-15.5728
篇	-15.5728
級	-15.5728
能	-15.5728
載	-15.5728
这	-15.5728
長	-15.5728
겟	-15.5728
못	-15.5728
테	-15.5728
팅	-15.5728
☪	-15.5728
世	-15.5728
业	-15.5728
企	-15.5728
休	-15.5728
俺	-15.5728
個	-15.5728
健	-15.5728
別	-15.5728
员	-15.5728
如	-15.5728
家	-15.5728
康	-15.5728
打	-15.5728
条	-15.5728
深	-15.5728
温	-15.5728
界	-15.5728
福	-15.5728
种	-15.5728
被	-15.5728
解	-15.5728
转	-15.5728
载	-15.5728
감	-15.5728
램	-15.5728
코	-15.5728
󾦃	-15.5728
์	-15.5729
➳	-15.5729
ゾ	-15.5729
ョ	-15.5729
写	-15.5729
宮	-15.5729
後	-15.5729
敵	-15.5729
既	-15.5729
气	-15.5729
然	-15.5729
物	-15.5729
电	-15.5729
祭	-15.5729
穫	-15.5729
蛍	-15.5729
詩	-15.5729
购	-15.5729
達	-15.5729
阿	-15.5729
결	-15.5729
🎃	-15.5729
󾁎	-15.5729
󾮟	-15.5729
	-15.5729
ģ	-15.5729
♑	-15.5729
♿	-15.5729
乙	-15.5729
内	-15.5729
即	-15.5729
回	-15.5729
对	-15.5729
幟	-15.5729
早	-15.5729
根	-15.5729
泣	-15.5729
线	-15.5729
虑	-15.5729
虫	-15.5729
郞	-15.5729
门	-15.5729
霆	-15.5729
성	-15.5729
페	-15.5729
	-15.5729
	-15.5729
🌡	-15.5729
🚰	-15.5729
🚹	-15.5729
󾍛	-15.5729
󾓑	-15.5729
̧	-15.5729
๋	-15.5729
夲	-15.5729
친	-15.5729
	-15.5729
👪	-15.5729
🔹	-15.5729
😨	-15.5729
	-15.5729
	-15.5729
	-15.5729
	-15.5729
	-15.5729
¦	-15.5729
¬	-15.5729
ć	-15.5729
ĝ	-15.5729
ĥ	-15.5729
ĸ	-15.5729
ō	-15.5729
ő	-15.5729
ś	-15.5729
ǧ	-15.5729
ț	-15.5729
ɨ	-15.5729
ʖ	-15.5729
ʾ	-15.5729
͜	-15.5729
ύ	-15.5729
ώ	-15.5729
ϫ	-15.5729
ϼ	-15.5729
ҍ	-15.5729
ұ	-15.5729
ԧ	-15.5729
ժ	-15.5729
ׄ	-15.5729
׎	-15.5729
׿	-15.5729
क	-15.5729
ग	-15.5729
ट	-15.5729
ड	-15.5729
ब	-15.5729
ल	-15.5729
ि	-15.5729
ू	-15.5729
ो	-15.5729
ธ	-15.5729
ษ	-15.5729
ฬ	-15.5729
ฯ	-15.5729
ᄉ	-15.5729
ᕁ	-15.5729
ᖴ	-15.5729
ấ	-15.5729
ễ	-15.5729
ỗ	-15.5729
ớ	-15.5729
ợ	-15.5729
ự	-15.5729
―	-15.5729
›	-15.5729
⁂	-15.5729
⃒	-15.5729
⃝	-15.5729
↕	-15.5729
↡	-15.5729
⇄	-15.5729
⇦	-15.5729
⇨	-15.5729
∃	-15.5729
∈	-15.5729
⌛	-15.5729
⑅	-15.5729
┳	-15.5729
╭	-15.5729
╮	-15.5729
╯	-15.5729
╰	-15.5729
■	-15.5729
▽	-15.5729
◉	-15.5729
○	-15.5729
◎	-15.5729
◡	-15.5729
☑	-15.5729
☔	-15.5729
☕	-15.5729
☠	-15.5729
☹	-15.5729
♊	-15.5729
⛔	-15.5729
✡	-15.5729
✩	-15.5729
❞	-15.5729
❾	-15.5729
⤋	-15.5729
⤴	-15.5729
ぃ	-15.5729
ざ	-15.5729
じ	-15.5729
づ	-15.5729
ぱ	-15.5729
ギ	-15.5729
ゲ	-15.5729
ヒ	-15.5729
ㄣ	-15.5729
丈	-15.5729
主	-15.5729
么	-15.5729
乎	-15.5729
介	-15.5729
仕	-15.5729
付	-15.5729
代	-15.5729
仲	-15.5729
似	-15.5729
供	-15.5729
備	-15.5729
催	-15.5729
兄	-15.5729
具	-15.5729
况	-15.5729
判	-15.5729
利	-15.5729
刷	-15.5729
力	-15.5729
加	-15.5729
厳	-15.5729
去	-15.5729
参	-15.5729
友	-15.5729
反	-15.5729
取	-15.5729
古	-15.5729
可	-15.5729
合	-15.5729
名	-15.5729
告	-15.5729
呵	-15.5729
品	-15.5729
响	-15.5729
唄	-15.5729
唐	-15.5729
噂	-15.5729
園	-15.5729
土	-15.5729
垂	-15.5729
堕	-15.5729
塾	-15.5729
夢	-15.5729
夫	-15.5729
始	-15.5729
嫌	-15.5729
宇	-15.5729
宙	-15.5729
寄	-15.5729
尔	-15.5729
就	-15.5729
川	-15.5729
平	-15.5729
庄	-15.5729
开	-15.5729
弾	-15.5729
彦	-15.5729
征	-15.5729
德	-15.5729
怎	-15.5729
急	-15.5729
扇	-15.5729
抛	-15.5729
拘	-15.5729
拡	-15.5729
採	-15.5729
描	-15.5729
援	-15.5729
損	-15.5729
斯	-15.5729
昔	-15.5729
晩	-15.5729
晴	-15.5729
暖	-15.5729
曽	-15.5729
有	-15.5729
服	-15.5729
柊	-15.5729
梨	-15.5729
歌	-15.5729
沙	-15.5729
流	-15.5729
漢	-15.5729
濃	-15.5729
点	-15.5729
熱	-15.5729
版	-15.5729
牙	-15.5729
牢	-15.5729
疲	-15.5729
痴	-15.5729
盤	-15.5729
矢	-15.5729
秒	-15.5729
稚	-15.5729
突	-15.5729
第	-15.5729
細	-15.5729
紹	-15.5729
続	-15.5729
緑	-15.5729
編	-15.5729
縮	-15.5729
者	-15.5729
耶	-15.5729
脸	-15.5729
英	-15.5729
荡	-15.5729
荳	-15.5729
落	-15.5729
蜀	-15.5729
街	-15.5729
覧	-15.5729
言	-15.5729
詳	-15.5729
語	-15.5729
譁	-15.5729
警	-15.5729
讖	-15.5729
讲	-15.5729
说	-15.5729
豸	-15.5729
赞	-15.5729
迷	-15.5729
速	-15.5729
進	-15.5729
過	-15.5729
道	-15.5729
選	-15.5729
邂	-15.5729
部	-15.5729
野	-15.5729
钟	-15.5729
阜	-15.5729
集	-15.5729
離	-15.5729
震	-15.5729
非	-15.5729
面	-15.5729
革	-15.5729
願	-15.5729
顺	-15.5729
餅	-15.5729
马	-15.5729
魅	-15.5729
鮓	-15.5729
麗	-15.5729
간	-15.5729
거	-15.5729
것	-15.5729
계	-15.5729
곰	-15.5729
곳	-15.5729
내	-15.5729
넷	-15.5729
녕	-15.5729
님	-15.5729
담	-15.5729
더	-15.5729
데	-15.5729
들	-15.5729
락	-15.5729
량	-15.5729
럽	-15.5729
렌	-15.5729
려	-15.5729
력	-15.5729
록	-15.5729
료	-15.5729
룹	-15.5729
립	-15.5729
만	-15.5729
많	-15.5729
말	-15.5729
멘	-15.5729
명	-15.5729
바	-15.5729
번	-15.5729
베	-15.5729
본	-15.5729
봐	-15.5729
부	-15.5729
북	-15.5729
불	-15.5729
비	-15.5729
섹	-15.5729
션	-15.5729
속	-15.5729
습	-15.5729
씨	-15.5729
씩	-15.5729
앞	-15.5729
애	-15.5729
연	-15.5729
와	-15.5729
으	-15.5729
은	-15.5729
음	-15.5729
작	-15.5729
저	-15.5729
접	-15.5729
좀	-15.5729
청	-15.5729
출	-15.5729
컵	-15.5729
큼	-15.5729
키	-15.5729
탁	-15.5729
편	-15.5729
평	-15.5729
한	-15.5729
할	-15.5729
항	-15.5729
했	-15.5729
현	-15.5729
형	-15.5729
활	-15.5729
희	-15.5729
	-15.5729
	-15.5729
	-15.5729
	-15.5729
	-15.5729
🅿	-15.5729
🆑	-15.5729
🆙	-15.5729
🌃	-15.5729
🌅	-15.5729
🌉	-15.5729
🌑	-15.5729
🌚	-15.5729
🌞	-15.5729
🌠	-15.5729
🌵	-15.5729
🌸	-15.5729
🍂	-15.5729
🍄	-15.5729
🍕	-15.5729
🍗	-15.5729
🍭	-15.5729
🍰	-15.5729
🍳	-15.5729
🎀	-15.5729
🎆	-15.5729
🎌	-15.5729
🎣	-15.5729
🎨	-15.5729
🎮	-15.5729
🎯	-15.5729
🎷	-15.5729
🎸	-15.5729
🎹	-15.5729
🎺	-15.5729
🎻	-15.5729
🏁	-15.5729
🏄	-15.5729
🏇	-15.5729
🏈	-15.5729
🐋	-15.5729
🐔	-15.5729
🐛	-15.5729
🐝	-15.5729
🐟	-15.5729
🐣	-15.5729
🐪	-15.5729
🐾	-15.5729
👄	-15.5729
👓	-15.5729
👔	-15.5729
👙	-15.5729
👨	-15.5729
👫	-15.5729
👲	-15.5729
👳	-15.5729
👶	-15.5729
💆	-15.5729
💑	-15.5729
💝	-15.5729
💠	-15.5729
💿	-15.5729
📀	-15.5729
📁	-15.5729
📞	-15.5729
📫	-15.5729
📬	-15.5729
📶	-15.5729
📷	-15.5729
📹	-15.5729
🔐	-15.5729
🔯	-15.5729
🔱	-15.5729
🔵	-15.5729
🔸	-15.5729
🖖	-15.5729
🗽	-15.5729
😓	-15.5729
😕	-15.5729
😟	-15.5729
😬	-15.5729
😯	-15.5729
😾	-15.5729
🚄	-15.5729
🚍	-15.5729
🚎	-15.5729
🚧	-15.5729
🚮	-15.5729
🛩	-15.5729
🤔	-15.5729
󾁇	-15.5729
󾠁	-15.5729
󾠔	-15.5729
󾠡	-15.5729
󾦈	-15.5729
󾬥	-15.5729
󾭻	-15.5729
س	-15.5729
和	-15.5729
▷	-15.5729
⚫	-15.5729
万	-15.5729
鉄	-15.5729
균	-15.5729
천	-15.5729
필	-15.5729
합	-15.5729
	-15.5729
	-15.5729
🌜	-15.5729
🍸	-15.5729
🐸	-15.5729
🚢	-15.5729
󾒰	-15.5729
ą	-15.5729
ǥ	-15.5729
स	-15.5729
ᑕ	-15.5729
∅	-15.5729
百	-15.5729
聞	-15.5729
뉴	-15.5729
잉	-15.5729
좋	-15.5729
즘	-15.5729
🎡	-15.5729
ᑭ	-15.5729
◇	-15.5729
刈	-15.5729
学	-15.5729
態	-15.5729
懐	-15.5729
拠	-15.5729
検	-15.5729
立	-15.5729
臣	-15.5729
証	-15.5729
🚬	-15.5729
โ	-15.5729
价	-15.5729
削	-15.5729
半	-15.5729
問	-15.5729
四	-15.5729
将	-15.5729
岐	-15.5729
排	-15.5729
減	-15.5729
还	-15.5729
배	-15.5729
何	-15.573
刀	-15.573
原	-15.573
悪	-15.573
格	-15.573
構	-15.573
油	-15.573
獄	-15.573
響	-15.573
S	-15.573
ȩ	-15.5731
պ	-15.5731
画	-15.5731
덛	-15.5731
E	-15.5731
ۏ	-15.5732
伴	-15.5732
潭	-15.5732
統	-15.5732
計	-15.5732
雇	-15.5732
꿸	-15.5732
L	-15.5732
U	-15.5733
ʥ	-15.5733
֕	-15.5733
庭	-15.5733
虔	-15.5733
R	-15.5734
ハ	-15.5734
